{
  "version": "1.0",
  "truncation": null,
  "padding": null,
  "added_tokens": [
    {
      "id": 0,
      "content": "<unk>",
      "single_word": false,
      "lstrip": false,
      "rstrip": false,
      "normalized": false,
      "special": true
    },
    {
      "id": 1,
      "content": "<s>",
      "single_word": false,
      "lstrip": false,
      "rstrip": false,
      "normalized": false,
      "special": true
    },
    {
      "id": 2,
      "content": "</s>",
      "single_word": false,
      "lstrip": false,
      "rstrip": false,
      "normalized": false,
      "special": true
    }
  ],
  "normalizer": null,
  "pre_tokenizer": {
    "type": "WhitespaceSplit"
  },
  "post_processor": null,
  "decoder": null,
  "model": {
    "type": "BPE",
    "dropout": null,
    "unk_token": null,
    "continuing_subword_prefix": null,
    "end_of_word_suffix": null,
    "fuse_unk": false,
    "byte_fallback": false,
    "ignore_merges": false,
    "vocab": {
      "<unk>": 0,
      "<s>": 1,
      "</s>": 2,
      "!": 3,
      "\"": 4,
      "#": 5,
      "$": 6,
      "%": 7,
      "&": 8,
      "'": 9,
      "(": 10,
      ")": 11,
      "*": 12,
      "+": 13,
      ",": 14,
      "-": 15,
      ".": 16,
      "/": 17,
      "0": 18,
      "1": 19,
      "2": 20,
      "3": 21,
      "4": 22,
      "5": 23,
      "6": 24,
      "7": 25,
      "8": 26,
      "9": 27,
      ":": 28,
      ";": 29,
      "<": 30,
      "=": 31,
      ">": 32,
      "?": 33,
      "@": 34,
      "A": 35,
      "B": 36,
      "C": 37,
      "D": 38,
      "E": 39,
      "F": 40,
      "G": 41,
      "H": 42,
      "I": 43,
      "J": 44,
      "K": 45,
      "L": 46,
      "M": 47,
      "N": 48,
      "O": 49,
      "P": 50,
      "Q": 51,
      "R": 52,
      "S": 53,
      "T": 54,
      "U": 55,
      "V": 56,
      "W": 57,
      "X": 58,
      "Y": 59,
      "Z": 60,
      "[": 61,
      "\\": 62,
      "]": 63,
      "_": 64,
      "`": 65,
      "a": 66,
      "b": 67,
      "c": 68,
      "d": 69,
      "e": 70,
      "f": 71,
      "g": 72,
      "h": 73,
      "i": 74,
      "j": 75,
      "k": 76,
      "l": 77,
      "m": 78,
      "n": 79,
      "o": 80,
      "p": 81,
      "q": 82,
      "r": 83,
      "s": 84,
      "t": 85,
      "u": 86,
      "v": 87,
      "w": 88,
      "x": 89,
      "y": 90,
      "z": 91,
      "{": 92,
      "|": 93,
      "}": 94,
      "~": 95,
      "¡": 96,
      "¢": 97,
      "£": 98,
      "¤": 99,
      "¦": 100,
      "§": 101,
      "¨": 102,
      "©": 103,
      "ª": 104,
      "­": 105,
      "®": 106,
      "¯": 107,
      "°": 108,
      "±": 109,
      "²": 110,
      "·": 111,
      "¹": 112,
      "º": 113,
      "½": 114,
      "¾": 115,
      "Á": 116,
      "È": 117,
      "Ñ": 118,
      "Ó": 119,
      "Õ": 120,
      "Ö": 121,
      "×": 122,
      "Û": 123,
      "à": 124,
      "á": 125,
      "â": 126,
      "ã": 127,
      "ä": 128,
      "å": 129,
      "ç": 130,
      "è": 131,
      "é": 132,
      "ê": 133,
      "ì": 134,
      "í": 135,
      "ó": 136,
      "÷": 137,
      "ø": 138,
      "ú": 139,
      "ü": 140,
      "Δ": 141,
      "α": 142,
      "β": 143,
      "π": 144,
      "τ": 145,
      "Ё": 146,
      "Ђ": 147,
      "Є": 148,
      "Ї": 149,
      "Њ": 150,
      "Ў": 151,
      "в": 152,
      "є": 153,
      "њ": 154,
      "ќ": 155,
      "ў": 156,
      "–": 157,
      "—": 158,
      "―": 159,
      "‘": 160,
      "’": 161,
      "“": 162,
      "”": 163,
      "…": 164,
      "′": 165,
      "€": 166,
      "™": 167,
      "→": 168,
      "≈": 169,
      "≥": 170,
      "一": 171,
      "兵": 172,
      "冷": 173,
      "器": 174,
      "抯": 175,
      "拢": 176,
      "熱": 177,
      "（": 178,
      "，": 179,
      "：": 180,
      "；": 181,
      "￡": 182,
      "th": 183,
      "in": 184,
      "er": 185,
      "an": 186,
      "the": 187,
      "on": 188,
      "re": 189,
      "at": 190,
      "en": 191,
      "ed": 192,
      "or": 193,
      "ou": 194,
      "st": 195,
      "al": 196,
      "ing": 197,
      "to": 198,
      "and": 199,
      "of": 200,
      "is": 201,
      "ar": 202,
      "es": 203,
      "it": 204,
      "as": 205,
      "he": 206,
      "ic": 207,
      "le": 208,
      "om": 209,
      "ion": 210,
      "se": 211,
      "be": 212,
      "ly": 213,
      "ent": 214,
      "ac": 215,
      "ad": 216,
      "ve": 217,
      "il": 218,
      "ow": 219,
      "id": 220,
      "wh": 221,
      "ch": 222,
      "im": 223,
      "for": 224,
      "ro": 225,
      "that": 226,
      "ol": 227,
      "ver": 228,
      "ay": 229,
      "ut": 230,
      "gh": 231,
      "li": 232,
      "am": 233,
      "ir": 234,
      "was": 235,
      "ot": 236,
      "ther": 237,
      "et": 238,
      "un": 239,
      "ith": 240,
      "ce": 241,
      "su": 242,
      "ri": 243,
      "you": 244,
      "ation": 245,
      "ab": 246,
      "with": 247,
      "s,": 248,
      "are": 249,
      "ct": 250,
      "ter": 251,
      "con": 252,
      "ld": 253,
      "mo": 254,
      "ag": 255,
      "ap": 256,
      "s.": 257,
      "lo": 258,
      "The": 259,
      "de": 260,
      "her": 261,
      "ur": 262,
      "ne": 263,
      "ke": 264,
      "all": 265,
      "his": 266,
      "we": 267,
      "pe": 268,
      "'s": 269,
      "out": 270,
      "sh": 271,
      "com": 272,
      "ul": 273,
      "em": 274,
      "fr": 275,
      "so": 276,
      "one": 277,
      "fe": 278,
      "ha": 279,
      "ex": 280,
      "ill": 281,
      "ght": 282,
      "us": 283,
      "ain": 284,
      "op": 285,
      "di": 286,
      "tr": 287,
      "res": 288,
      "ould": 289,
      "pro": 290,
      "not": 291,
      "oun": 292,
      "me": 293,
      "od": 294,
      "per": 295,
      "ate": 296,
      "ant": 297,
      "had": 298,
      "by": 299,
      "ere": 300,
      "pl": 301,
      "ll": 302,
      "our": 303,
      "ess": 304,
      "te": 305,
      "po": 306,
      "from": 307,
      "ist": 308,
      "qu": 309,
      "art": 310,
      "ci": 311,
      "ge": 312,
      "wor": 313,
      "ome": 314,
      "have": 315,
      "man": 316,
      "ity": 317,
      "but": 318,
      "ment": 319,
      "gr": 320,
      "act": 321,
      "my": 322,
      "up": 323,
      "do": 324,
      "ive": 325,
      "she": 326,
      "end": 327,
      "ust": 328,
      "ok": 329,
      "if": 330,
      "sa": 331,
      "ast": 332,
      "this": 333,
      "ear": 334,
      "ig": 335,
      "e,": 336,
      "'t": 337,
      "ally": 338,
      "In": 339,
      "ard": 340,
      "go": 341,
      "ind": 342,
      "ack": 343,
      "they": 344,
      "ure": 345,
      "own": 346,
      "e.": 347,
      "der": 348,
      "He": 349,
      "way": 350,
      "au": 351,
      "ich": 352,
      "bo": 353,
      "ies": 354,
      "ak": 355,
      "pr": 356,
      "other": 357,
      "can": 358,
      "were": 359,
      "ers": 360,
      "ong": 361,
      "cl": 362,
      "ort": 363,
      "no": 364,
      "ound": 365,
      "ev": 366,
      "el": 367,
      "who": 368,
      "ore": 369,
      "thing": 370,
      "over": 371,
      "um": 372,
      "ough": 373,
      "tim": 374,
      "some": 375,
      "their": 376,
      "ous": 377,
      "which": 378,
      "has": 379,
      "now": 380,
      "ide": 381,
      "ish": 382,
      "It": 383,
      "more": 384,
      "sp": 385,
      "es,": 386,
      "said": 387,
      "him": 388,
      "like": 389,
      "would": 390,
      "your": 391,
      "ight": 392,
      "about": 393,
      "bl": 394,
      "ach": 395,
      "Wh": 396,
      "y,": 397,
      "its": 398,
      "Ch": 399,
      "str": 400,
      "ff": 401,
      "able": 402,
      "es.": 403,
      "them": 404,
      "ever": 405,
      "ame": 406,
      "ake": 407,
      "year": 408,
      "ated": 409,
      "will": 410,
      "ical": 411,
      "est": 412,
      "ence": 413,
      "when": 414,
      "iv": 415,
      "been": 416,
      "ass": 417,
      "cre": 418,
      "any": 419,
      "ie": 420,
      "pt": 421,
      "ck": 422,
      "iz": 423,
      ".\"": 424,
      "what": 425,
      "ine": 426,
      "ber": 427,
      "ud": 428,
      "n't": 429,
      "pre": 430,
      "sel": 431,
      "ple": 432,
      "pres": 433,
      "ra": 434,
      "Th": 435,
      "into": 436,
      "day": 437,
      "than": 438,
      "work": 439,
      "ans": 440,
      "form": 441,
      "19": 442,
      "00": 443,
      "age": 444,
      "ed,": 445,
      "An": 446,
      "av": 447,
      "ep": 448,
      "ed.": 449,
      "tw": 450,
      "ink": 451,
      "ph": 452,
      "co": 453,
      "new": 454,
      "dis": 455,
      "ary": 456,
      "br": 457,
      "port": 458,
      "ang": 459,
      "rit": 460,
      "cent": 461,
      "int": 462,
      "there": 463,
      "could": 464,
      "old": 465,
      "ance": 466,
      "ction": 467,
      "si": 468,
      "ble": 469,
      "off": 470,
      "ob": 471,
      "ater": 472,
      "did": 473,
      "low": 474,
      "fir": 475,
      "y.": 476,
      "pos": 477,
      "But": 478,
      "part": 479,
      "ace": 480,
      "cont": 481,
      "most": 482,
      "ople": 483,
      "She": 484,
      "af": 485,
      "red": 486,
      "just": 487,
      "say": 488,
      "fore": 489,
      "ick": 490,
      "ing,": 491,
      "how": 492,
      "ful": 493,
      "ip": 494,
      "ile": 495,
      "get": 496,
      "spe": 497,
      "self": 498,
      "og": 499,
      "ition": 500,
      "ign": 501,
      "att": 502,
      "ren": 503,
      "ice": 504,
      "ade": 505,
      ",\"": 506,
      "people": 507,
      "mer": 508,
      "first": 509,
      "cau": 510,
      "look": 511,
      "air": 512,
      "ree": 513,
      "inter": 514,
      "then": 515,
      "coun": 516,
      "time": 517,
      "cr": 518,
      "read": 519,
      "mon": 520,
      "under": 521,
      "thr": 522,
      "ial": 523,
      "ser": 524,
      "ild": 525,
      "comp": 526,
      "itt": 527,
      "urn": 528,
      "pol": 529,
      "ite": 530,
      "also": 531,
      "du": 532,
      "ark": 533,
      "bet": 534,
      "cause": 535,
      "We": 536,
      "two": 537,
      "ing.": 538,
      "only": 539,
      "here": 540,
      "even": 541,
      "back": 542,
      "des": 543,
      "know": 544,
      "app": 545,
      "ef": 546,
      "gre": 547,
      "ten": 548,
      "where": 549,
      "fa": 550,
      "cor": 551,
      "ood": 552,
      "sy": 553,
      "ose": 554,
      "ts": 555,
      "ions": 556,
      "aw": 557,
      "after": 558,
      "son": 559,
      "ory": 560,
      "min": 561,
      "long": 562,
      "ved": 563,
      "ily": 564,
      "ations": 565,
      "ia": 566,
      "down": 567,
      "igh": 568,
      "life": 569,
      "want": 570,
      "ue": 571,
      "And": 572,
      "fl": 573,
      "ty": 574,
      "ry": 575,
      "je": 576,
      "St": 577,
      "’s": 578,
      "very": 579,
      "I'": 580,
      "come": 581,
      "col": 582,
      "cess": 583,
      "through": 584,
      "This": 585,
      "gen": 586,
      "soci": 587,
      "turn": 588,
      "mu": 589,
      "ave": 590,
      "diff": 591,
      "because": 592,
      "er,": 593,
      "ire": 594,
      "car": 595,
      "cle": 596,
      "see": 597,
      "sur": 598,
      "ult": 599,
      "gl": 600,
      "world": 601,
      "ath": 602,
      "ving": 603,
      "ict": 604,
      "don": 605,
      "pu": 606,
      "may": 607,
      "cho": 608,
      "many": 609,
      "ought": 610,
      "rem": 611,
      "ian": 612,
      "every": 613,
      "cer": 614,
      "ens": 615,
      "tri": 616,
      "call": 617,
      "fin": 618,
      "ious": 619,
      "think": 620,
      "right": 621,
      "such": 622,
      "ces": 623,
      "alk": 624,
      "sm": 625,
      "Chin": 626,
      "well": 627,
      "ped": 628,
      "ting": 629,
      "less": 630,
      "cur": 631,
      "hand": 632,
      "these": 633,
      "a,": 634,
      "book": 635,
      "much": 636,
      "gu": 637,
      "made": 638,
      "You": 639,
      "olog": 640,
      "again": 641,
      "?\"": 642,
      "led": 643,
      "bu": 644,
      "make": 645,
      "ating": 646,
      "ject": 647,
      "They": 648,
      "ual": 649,
      "tain": 650,
      "vers": 651,
      "ask": 652,
      "ident": 653,
      "vis": 654,
      "Un": 655,
      "ced": 656,
      "ise": 657,
      "oc": 658,
      "use": 659,
      "comm": 660,
      "wom": 661,
      "stand": 662,
      "before": 663,
      "ly,": 664,
      "good": 665,
      "light": 666,
      "ors": 667,
      "head": 668,
      "should": 669,
      "ange": 670,
      "ss": 671,
      "ward": 672,
      "--": 673,
      "hel": 674,
      "med": 675,
      "sc": 676,
      "lect": 677,
      "fam": 678,
      "need": 679,
      ").": 680,
      "years": 681,
      "If": 682,
      "rel": 683,
      "clo": 684,
      "ween": 685,
      "ven": 686,
      "arch": 687,
      "set": 688,
      "cond": 689,
      "ail": 690,
      "never": 691,
      "came": 692,
      "ents": 693,
      "ning": 694,
      "ational": 695,
      "iss": 696,
      "When": 697,
      "differ": 698,
      "fact": 699,
      "ates": 700,
      "ways": 701,
      "between": 702,
      "child": 703,
      "used": 704,
      "ular": 705,
      "Amer": 706,
      "Americ": 707,
      "ase": 708,
      "20": 709,
      "sub": 710,
      "aking": 711,
      "For": 712,
      "those": 713,
      "cons": 714,
      "ism": 715,
      "arm": 716,
      "ative": 717,
      "gan": 718,
      "writ": 719,
      "cept": 720,
      "ities": 721,
      "There": 722,
      "ese": 723,
      "though": 724,
      "try": 725,
      "too": 726,
      "er.": 727,
      "said.": 728,
      "still": 729,
      "ited": 730,
      "lar": 731,
      "it.": 732,
      "father": 733,
      "ittle": 734,
      "sim": 735,
      "ey": 736,
      "put": 737,
      "side": 738,
      "publ": 739,
      "stru": 740,
      "hu": 741,
      "ft": 742,
      "add": 743,
      "point": 744,
      "lt": 745,
      "velo": 746,
      "being": 747,
      "ash": 748,
      "fect": 749,
      "high": 750,
      "fri": 751,
      "around": 752,
      "little": 753,
      "start": 754,
      "uring": 755,
      "mother": 756,
      "200": 757,
      "land": 758,
      "atch": 759,
      "dr": 760,
      "les": 761,
      "while": 762,
      "pow": 763,
      "reg": 764,
      "play": 765,
      "atter": 766,
      "take": 767,
      "ouse": 768,
      "dec": 769,
      "What": 770,
      "'d": 771,
      "As": 772,
      "So": 773,
      "happ": 774,
      "ank": 775,
      "seem": 776,
      "same": 777,
      "room": 778,
      "polit": 779,
      "gener": 780,
      "don't": 781,
      "mar": 782,
      "che": 783,
      "friend": 784,
      "sup": 785,
      "each": 786,
      "ma": 787,
      "pect": 788,
      "ared": 789,
      "ship": 790,
      "ho": 791,
      "home": 792,
      "ress": 793,
      "ince": 794,
      "cour": 795,
      "),": 796,
      "val": 797,
      "ves": 798,
      "'re": 799,
      "didn't": 800,
      "vie": 801,
      "incl": 802,
      "produ": 803,
      "does": 804,
      "stem": 805,
      "develo": 806,
      "feel": 807,
      "ek": 808,
      "found": 809,
      "ys": 810,
      "ution": 811,
      "person": 812,
      "sure": 813,
      "rist": 814,
      "Mr": 815,
      "something": 816,
      "real": 817,
      "ility": 818,
      "beli": 819,
      "press": 820,
      "\"I": 821,
      "vol": 822,
      "ew": 823,
      "unt": 824,
      "let": 825,
      "last": 826,
      "ner": 827,
      "inst": 828,
      "sk": 829,
      "ics": 830,
      "vel": 831,
      "few": 832,
      "peri": 833,
      "thought": 834,
      "ature": 835,
      "num": 836,
      "three": 837,
      "..": 838,
      "got": 839,
      "bor": 840,
      "cy": 841,
      "different": 842,
      "sol": 843,
      "That": 844,
      "a.": 845,
      "vid": 846,
      "find": 847,
      "bas": 848,
      "might": 849,
      "fer": 850,
      "par": 851,
      "bre": 852,
      "cap": 853,
      "fun": 854,
      "men": 855,
      "word": 856,
      "show": 857,
      "present": 858,
      "ered": 859,
      "char": 860,
      "conom": 861,
      "both": 862,
      "pass": 863,
      "incre": 864,
      "ation.": 865,
      "eng": 866,
      "ings": 867,
      "cover": 868,
      "water": 869,
      "view": 870,
      "open": 871,
      "How": 872,
      "ically": 873,
      "ation,": 874,
      "night": 875,
      "always": 876,
      "amp": 877,
      "ason": 878,
      "ion.": 879,
      "Be": 880,
      "away": 881,
      "war": 882,
      "den": 883,
      "aph": 884,
      "trans": 885,
      "stud": 886,
      "My": 887,
      "tre": 888,
      "ion,": 889,
      "chool": 890,
      "pon": 891,
      "cial": 892,
      "going": 893,
      "system": 894,
      "No": 895,
      "bro": 896,
      "fol": 897,
      "aren": 898,
      "lim": 899,
      "ins": 900,
      "ments": 901,
      "pain": 902,
      "lead": 903,
      "xt": 904,
      "another": 905,
      "dist": 906,
      "oup": 907,
      "import": 908,
      "called": 909,
      "bed": 910,
      "help": 911,
      "it,": 912,
      "akes": 913,
      "bod": 914,
      "sen": 915,
      "vent": 916,
      "chn": 917,
      "econom": 918,
      "gest": 919,
      "small": 920,
      "alth": 921,
      "dire": 922,
      "appe": 923,
      "family": 924,
      "det": 925,
      "Con": 926,
      "az": 927,
      "eas": 928,
      "ted": 929,
      "leg": 930,
      "fac": 931,
      "uro": 932,
      "social": 933,
      "At": 934,
      "requ": 935,
      "ific": 936,
      "great": 937,
      "Al": 938,
      "vi": 939,
      "ross": 940,
      "On": 941,
      "lin": 942,
      "serv": 943,
      "power": 944,
      "kn": 945,
      "met": 946,
      "ember": 947,
      "often": 948,
      "must": 949,
      "appro": 950,
      "ng": 951,
      "went": 952,
      "giv": 953,
      "irl": 954,
      "Fr": 955,
      "hist": 956,
      "run": 957,
      "ually": 958,
      "tell": 959,
      "ural": 960,
      "without": 961,
      "lig": 962,
      "10": 963,
      "bus": 964,
      "sing": 965,
      "search": 966,
      "kind": 967,
      "ished": 968,
      "ized": 969,
      "possi": 970,
      "care": 971,
      "house": 972,
      "second": 973,
      "said,": 974,
      "Christ": 975,
      "public": 976,
      "pri": 977,
      "told": 978,
      "clear": 979,
      "hard": 980,
      "plan": 981,
      "school": 982,
      "arr": 983,
      "ly.": 984,
      "aut": 985,
      "exam": 986,
      "jo": 987,
      "sign": 988,
      "talk": 989,
      "won": 990,
      "fort": 991,
      "cord": 992,
      "nor": 993,
      "contin": 994,
      "mean": 995,
      "Se": 996,
      "next": 997,
      "ists": 998,
      "number": 999,
      "later": 1000,
      "during": 1001,
      "sit": 1002,
      "resu": 1003,
      "gover": 1004,
      "left": 1005,
      "emp": 1006,
      "human": 1007,
      "cal": 1008,
      "grow": 1009,
      "His": 1010,
      "week": 1011,
      "graph": 1012,
      "political": 1013,
      "includ": 1014,
      "ivers": 1015,
      "best": 1016,
      "develop": 1017,
      "Ar": 1018,
      "mil": 1019,
      "ru": 1020,
      "it's": 1021,
      "Re": 1022,
      "ned": 1023,
      "net": 1024,
      "young": 1025,
      "comple": 1026,
      "nment": 1027,
      "sl": 1028,
      "stre": 1029,
      "children": 1030,
      "follow": 1031,
      "var": 1032,
      "New": 1033,
      "ness": 1034,
      "took": 1035,
      "quest": 1036,
      "China": 1037,
      "ton": 1038,
      "To": 1039,
      "cri": 1040,
      "law": 1041,
      "Euro": 1042,
      "ife": 1043,
      "ably": 1044,
      "until": 1045,
      "since": 1046,
      "I'm": 1047,
      "bal": 1048,
      "rest": 1049,
      "sum": 1050,
      "exp": 1051,
      "really": 1052,
      "keep": 1053,
      "group": 1054,
      "Com": 1055,
      "cut": 1056,
      "love": 1057,
      "women": 1058,
      "American": 1059,
      "place": 1060,
      "against": 1061,
      "four": 1062,
      "top": 1063,
      "mark": 1064,
      "En": 1065,
      "ories": 1066,
      "partic": 1067,
      "month": 1068,
      "Europe": 1069,
      "miss": 1070,
      "Af": 1071,
      "mor": 1072,
      "uck": 1073,
      "plac": 1074,
      "ures": 1075,
      "reason": 1076,
      "ement": 1077,
      "big": 1078,
      "ired": 1079,
      "ste": 1080,
      "certain": 1081,
      "woman": 1082,
      "dri": 1083,
      "blem": 1084,
      "far": 1085,
      "ric": 1086,
      "omet": 1087,
      "national": 1088,
      "ize": 1089,
      "gin": 1090,
      "inform": 1091,
      "change": 1092,
      "ied": 1093,
      "respon": 1094,
      "mill": 1095,
      "techn": 1096,
      "better": 1097,
      "cas": 1098,
      "ling": 1099,
      "nam": 1100,
      "girl": 1101,
      "important": 1102,
      "hal": 1103,
      "things": 1104,
      "understand": 1105,
      "outh": 1106,
      "It's": 1107,
      "body": 1108,
      "ers,": 1109,
      "order": 1110,
      "turned": 1111,
      "wind": 1112,
      "ity,": 1113,
      "interest": 1114,
      "mind": 1115,
      "ages": 1116,
      "large": 1117,
      "rad": 1118,
      "sci": 1119,
      "ont": 1120,
      "Mar": 1121,
      "ern": 1122,
      "ever,": 1123,
      "blo": 1124,
      "walk": 1125,
      "dep": 1126,
      "class": 1127,
      "consid": 1128,
      "known": 1129,
      "line": 1130,
      "dro": 1131,
      "problem": 1132,
      "ext": 1133,
      "mom": 1134,
      "bi": 1135,
      "once": 1136,
      "ator": 1137,
      "atic": 1138,
      "oper": 1139,
      "itch": 1140,
      "suc": 1141,
      "se,": 1142,
      "become": 1143,
      "lear": 1144,
      "test": 1145,
      "augh": 1146,
      "commun": 1147,
      "ost": 1148,
      "ird": 1149,
      "list": 1150,
      "ity.": 1151,
      "18": 1152,
      "pur": 1153,
      "erg": 1154,
      "ield": 1155,
      "ather": 1156,
      "iter": 1157,
      "sever": 1158,
      "face": 1159,
      "iet": 1160,
      "als": 1161,
      "ars": 1162,
      "ices": 1163,
      "ris": 1164,
      "vo": 1165,
      "God": 1166,
      "bit": 1167,
      "direct": 1168,
      "One": 1169,
      "enough": 1170,
      "Mr.": 1171,
      "ying": 1172,
      "whe": 1173,
      "Her": 1174,
      "looked": 1175,
      "government": 1176,
      "mem": 1177,
      "iness": 1178,
      "step": 1179,
      "ale": 1180,
      "fre": 1181,
      "lot": 1182,
      "move": 1183,
      "ready": 1184,
      "door": 1185,
      "saw": 1186,
      "acter": 1187,
      "ology": 1188,
      "cu": 1189,
      "imes": 1190,
      "divid": 1191,
      "chang": 1192,
      "prof": 1193,
      "marri": 1194,
      "'ll": 1195,
      "ient": 1196,
      "Brit": 1197,
      "en,": 1198,
      "stu": 1199,
      "pop": 1200,
      "cult": 1201,
      "give": 1202,
      "increas": 1203,
      "din": 1204,
      "equ": 1205,
      "gn": 1206,
      "report": 1207,
      "sho": 1208,
      "hy": 1209,
      "ither": 1210,
      "pat": 1211,
      "organ": 1212,
      "is,": 1213,
      "expect": 1214,
      "gether": 1215,
      "past": 1216,
      "and,": 1217,
      "gg": 1218,
      "hour": 1219,
      "ran": 1220,
      "empt": 1221,
      "wa": 1222,
      "hair": 1223,
      "health": 1224,
      "early": 1225,
      "vest": 1226,
      "particular": 1227,
      "half": 1228,
      "dam": 1229,
      "research": 1230,
      "shall": 1231,
      "ended": 1232,
      "wanted": 1233,
      "knew": 1234,
      "ained": 1235,
      "paren": 1236,
      "ines": 1237,
      "action": 1238,
      "aps": 1239,
      "near": 1240,
      "mone": 1241,
      "und": 1242,
      "trave": 1243,
      "ground": 1244,
      "pris": 1245,
      "possible": 1246,
      "ix": 1247,
      "him.": 1248,
      "ond": 1249,
      "ional": 1250,
      "tra": 1251,
      "After": 1252,
      "la": 1253,
      "sle": 1254,
      "thor": 1255,
      "000": 1256,
      "edu": 1257,
      "together": 1258,
      "struct": 1259,
      "De": 1260,
      "S.": 1261,
      "ers.": 1262,
      "ital": 1263,
      "raw": 1264,
      "effect": 1265,
      "fall": 1266,
      "term": 1267,
      "watch": 1268,
      "on,": 1269,
      "Chinese": 1270,
      "became": 1271,
      "character": 1272,
      "ute": 1273,
      "position": 1274,
      "ately": 1275,
      "Engl": 1276,
      "hold": 1277,
      "ability": 1278,
      "design": 1279,
      "ref": 1280,
      "offic": 1281,
      "food": 1282,
      "anal": 1283,
      "arter": 1284,
      "sug": 1285,
      "ago": 1286,
      "happen": 1287,
      "began": 1288,
      "Pr": 1289,
      "five": 1290,
      "ude": 1291,
      "percent": 1292,
      "Is": 1293,
      "making": 1294,
      "almost": 1295,
      "says": 1296,
      "stop": 1297,
      "allow": 1298,
      "time,": 1299,
      "15": 1300,
      "countri": 1301,
      "United": 1302,
      "fil": 1303,
      "ply": 1304,
      "ann": 1305,
      "why": 1306,
      "sw": 1307,
      "ama": 1308,
      "experi": 1309,
      "trad": 1310,
      "aken": 1311,
      "ron": 1312,
      "toward": 1313,
      "boy": 1314,
      "hi": 1315,
      "mid": 1316,
      "itive": 1317,
      "among": 1318,
      "Ro": 1319,
      "sat": 1320,
      "using": 1321,
      "por": 1322,
      "comes": 1323,
      "himself": 1324,
      "flu": 1325,
      "nat": 1326,
      "example": 1327,
      "aring": 1328,
      "live": 1329,
      "del": 1330,
      "que": 1331,
      "prom": 1332,
      "build": 1333,
      "jor": 1334,
      "matter": 1335,
      "seen": 1336,
      "tract": 1337,
      "felt": 1338,
      "nothing": 1339,
      "me,": 1340,
      "me.": 1341,
      "Nor": 1342,
      "job": 1343,
      "main": 1344,
      "them.": 1345,
      "ets": 1346,
      "speci": 1347,
      "attack": 1348,
      "Ob": 1349,
      "Wor": 1350,
      "least": 1351,
      "lip": 1352,
      "continu": 1353,
      "moment": 1354,
      "12": 1355,
      "along": 1356,
      "ug": 1357,
      "ering": 1358,
      "front": 1359,
      "ele": 1360,
      "sid": 1361,
      "descri": 1362,
      "Ger": 1363,
      "Jo": 1364,
      "pap": 1365,
      "ime": 1366,
      "contro": 1367,
      "band": 1368,
      "flo": 1369,
      "project": 1370,
      "anything": 1371,
      "country": 1372,
      "ub": 1373,
      "stat": 1374,
      "issu": 1375,
      "spect": 1376,
      "U.": 1377,
      "dat": 1378,
      "field": 1379,
      "process": 1380,
      "199": 1381,
      "angu": 1382,
      "including": 1383,
      "ah": 1384,
      "eve": 1385,
      "plic": 1386,
      "minist": 1387,
      "dividual": 1388,
      "Bo": 1389,
      "hot": 1390,
      "espe": 1391,
      "aim": 1392,
      "coming": 1393,
      "ribut": 1394,
      "pract": 1395,
      "looking": 1396,
      "elect": 1397,
      "liter": 1398,
      "vir": 1399,
      "cell": 1400,
      "rather": 1401,
      "eyes": 1402,
      ",000": 1403,
      "crit": 1404,
      "wife": 1405,
      "198": 1406,
      "late": 1407,
      "yet": 1408,
      "stit": 1409,
      "support": 1410,
      "wall": 1411,
      "you're": 1412,
      "mag": 1413,
      "pul": 1414,
      "on.": 1415,
      "adv": 1416,
      "ants": 1417,
      "pho": 1418,
      "economic": 1419,
      "ometimes": 1420,
      "several": 1421,
      "ible": 1422,
      "mus": 1423,
      "ove": 1424,
      "invest": 1425,
      "se.": 1426,
      "tru": 1427,
      "I'd": 1428,
      "Le": 1429,
      "fig": 1430,
      "Some": 1431,
      "individual": 1432,
      "today": 1433,
      "having": 1434,
      "free": 1435,
      "ier": 1436,
      "state": 1437,
      "major": 1438,
      "nal": 1439,
      "ral": 1440,
      "ised": 1441,
      "six": 1442,
      "fast": 1443,
      "usu": 1444,
      "pret": 1445,
      "seemed": 1446,
      "dom": 1447,
      "thod": 1448,
      "imag": 1449,
      "wasn't": 1450,
      "product": 1451,
      "across": 1452,
      "prote": 1453,
      "plain": 1454,
      "depend": 1455,
      "aff": 1456,
      "t,": 1457,
      "vil": 1458,
      "inte": 1459,
      "ured": 1460,
      "remember": 1461,
      "hind": 1462,
      "begin": 1463,
      "information": 1464,
      "flow": 1465,
      "relig": 1466,
      "meet": 1467,
      "wr": 1468,
      "level": 1469,
      "nes": 1470,
      "success": 1471,
      "whether": 1472,
      "\"The": 1473,
      "one.": 1474,
      "prob": 1475,
      "ment.": 1476,
      "\"You": 1477,
      "bar": 1478,
      "camp": 1479,
      "activ": 1480,
      "black": 1481,
      "general": 1482,
      "U.S.": 1483,
      "fo": 1484,
      "langu": 1485,
      "sil": 1486,
      "reach": 1487,
      "ffic": 1488,
      "days": 1489,
      "close": 1490,
      "All": 1491,
      "kid": 1492,
      "vious": 1493,
      "already": 1494,
      "author": 1495,
      "strong": 1496,
      "medi": 1497,
      "ping": 1498,
      "common": 1499,
      "given": 1500,
      "living": 1501,
      "gram": 1502,
      "ance,": 1503,
      "Col": 1504,
      "glo": 1505,
      "ences": 1506,
      "ential": 1507,
      "one,": 1508,
      "business": 1509,
      "educ": 1510,
      "name": 1511,
      "aged": 1512,
      "istic": 1513,
      "asked": 1514,
      "result": 1515,
      "ben": 1516,
      "le,": 1517,
      "short": 1518,
      "Indi": 1519,
      "ence,": 1520,
      "relation": 1521,
      "ger": 1522,
      "sent": 1523,
      "conne": 1524,
      "ury": 1525,
      "exist": 1526,
      "Then": 1527,
      "pen": 1528,
      "anc": 1529,
      "road": 1530,
      "Ex": 1531,
      "bers": 1532,
      "io": 1533,
      "non": 1534,
      "These": 1535,
      "polic": 1536,
      "photo": 1537,
      "lay": 1538,
      "rote": 1539,
      "post": 1540,
      "Not": 1541,
      "cup": 1542,
      "either": 1543,
      "in,": 1544,
      "white": 1545,
      "him,": 1546,
      "based": 1547,
      "With": 1548,
      "bot": 1549,
      "cus": 1550,
      "makes": 1551,
      "sal": 1552,
      "sound": 1553,
      "unch": 1554,
      "key": 1555,
      "ax": 1556,
      "sof": 1557,
      "30": 1558,
      "Now": 1559,
      "Or": 1560,
      "West": 1561,
      "mand": 1562,
      "tal": 1563,
      "or,": 1564,
      "beaut": 1565,
      "remain": 1566,
      "Pres": 1567,
      "mal": 1568,
      "slow": 1569,
      "taken": 1570,
      "started": 1571,
      "1.": 1572,
      "table": 1573,
      "in.": 1574,
      "quarter": 1575,
      "company": 1576,
      "tow": 1577,
      "full": 1578,
      "colle": 1579,
      "believe": 1580,
      "t.": 1581,
      "iting": 1582,
      "ety": 1583,
      "event": 1584,
      "behind": 1585,
      "approach": 1586,
      "question": 1587,
      "Ste": 1588,
      "hor": 1589,
      "sty": 1590,
      "age,": 1591,
      "died": 1592,
      "Inter": 1593,
      "indust": 1594,
      "50": 1595,
      "aid": 1596,
      "fic": 1597,
      "vide": 1598,
      "that,": 1599,
      "ending": 1600,
      "subject": 1601,
      "histor": 1602,
      "dle": 1603,
      "mp": 1604,
      "pie": 1605,
      "concer": 1606,
      "curren": 1607,
      "king": 1608,
      "ization": 1609,
      "cogn": 1610,
      "fail": 1611,
      "story": 1612,
      "myself": 1613,
      "ives": 1614,
      "bad": 1615,
      "within": 1616,
      "sun": 1617,
      "her.": 1618,
      "break": 1619,
      "million": 1620,
      "By": 1621,
      "ouch": 1622,
      "heart": 1623,
      "US": 1624,
      "fill": 1625,
      "ined": 1626,
      "can't": 1627,
      "condition": 1628,
      "dre": 1629,
      "hus": 1630,
      "rid": 1631,
      "an,": 1632,
      "means": 1633,
      "time.": 1634,
      "cost": 1635,
      "ell": 1636,
      "os": 1637,
      "wide": 1638,
      "death": 1639,
      "themsel": 1640,
      "everything": 1641,
      "sense": 1642,
      "English": 1643,
      "fully": 1644,
      "iversity": 1645,
      "draw": 1646,
      "pot": 1647,
      "ones": 1648,
      "enc": 1649,
      "loy": 1650,
      "express": 1651,
      "day,": 1652,
      "Pro": 1653,
      "argu": 1654,
      "ilar": 1655,
      "age.": 1656,
      "method": 1657,
      "cially": 1658,
      "dark": 1659,
      "abl": 1660,
      "others": 1661,
      "ged": 1662,
      "hood": 1663,
      "haps": 1664,
      "row": 1665,
      "rece": 1666,
      "exper": 1667,
      "ies,": 1668,
      "cret": 1669,
      "natural": 1670,
      "wrote": 1671,
      "s.\"": 1672,
      "pose": 1673,
      "period": 1674,
      "3.": 1675,
      "Li": 1676,
      "us,": 1677,
      "tom": 1678,
      "196": 1679,
      "ledge": 1680,
      "wonder": 1681,
      "cording": 1682,
      "complete": 1683,
      "money": 1684,
      "a's": 1685,
      "kill": 1686,
      "round": 1687,
      "stood": 1688,
      "ote": 1689,
      "likely": 1690,
      "answ": 1691,
      "object": 1692,
      "posed": 1693,
      "...": 1694,
      "deter": 1695,
      "consider": 1696,
      "life.": 1697,
      "1,": 1698,
      "imm": 1699,
      "Obama": 1700,
      "Mo": 1701,
      "spo": 1702,
      "ush": 1703,
      "inci": 1704,
      "ork": 1705,
      "ster": 1706,
      "ided": 1707,
      "appear": 1708,
      "accoun": 1709,
      "pay": 1710,
      "return": 1711,
      "says.": 1712,
      "itting": 1713,
      "swe": 1714,
      "itself": 1715,
      "moved": 1716,
      "lost": 1717,
      "whole": 1718,
      "suggest": 1719,
      "Ad": 1720,
      "sch": 1721,
      "third": 1722,
      "ons": 1723,
      "or.": 1724,
      "ence.": 1725,
      "case": 1726,
      "minut": 1727,
      "data": 1728,
      "14": 1729,
      "fut": 1730,
      "recent": 1731,
      "someone": 1732,
      "ctions": 1733,
      "doesn't": 1734,
      "parents": 1735,
      "sleep": 1736,
      "phil": 1737,
      "personal": 1738,
      "travel": 1739,
      "countries": 1740,
      "\"We": 1741,
      "ently": 1742,
      "dest": 1743,
      "quick": 1744,
      "ca": 1745,
      "cul": 1746,
      "accept": 1747,
      "ford": 1748,
      "moder": 1749,
      "fric": 1750,
      "trying": 1751,
      "York": 1752,
      "jour": 1753,
      "apter": 1754,
      "train": 1755,
      "working": 1756,
      "development": 1757,
      "market": 1758,
      "mess": 1759,
      "mater": 1760,
      "pack": 1761,
      "pict": 1762,
      "sometimes": 1763,
      "arri": 1764,
      "whose": 1765,
      "16": 1766,
      "Ap": 1767,
      "Rus": 1768,
      "South": 1769,
      "orig": 1770,
      "rock": 1771,
      "soon": 1772,
      "idea": 1773,
      "special": 1774,
      "especially": 1775,
      "President": 1776,
      "Even": 1777,
      "’t": 1778,
      "invol": 1779,
      "reat": 1780,
      "proper": 1781,
      "claim": 1782,
      "times": 1783,
      "comput": 1784,
      "decis": 1785,
      "tro": 1786,
      "taking": 1787,
      "clim": 1788,
      "spir": 1789,
      "197": 1790,
      "Sh": 1791,
      "mis": 1792,
      "ues": 1793,
      "odd": 1794,
      "qual": 1795,
      "couldn't": 1796,
      "study": 1797,
      "Do": 1798,
      "fur": 1799,
      "uni": 1800,
      "ate,": 1801,
      "speak": 1802,
      "town": 1803,
      "Br": 1804,
      "Car": 1805,
      "imp": 1806,
      "her,": 1807,
      "window": 1808,
      "probably": 1809,
      "future": 1810,
      "itary": 1811,
      "weight": 1812,
      "bill": 1813,
      "sist": 1814,
      "y-": 1815,
      "th,": 1816,
      "urch": 1817,
      "priv": 1818,
      "example,": 1819,
      "Ac": 1820,
      "Afric": 1821,
      "bur": 1822,
      "sed": 1823,
      "oud": 1824,
      "vert": 1825,
      "grand": 1826,
      "British": 1827,
      "film": 1828,
      "influ": 1829,
      "heard": 1830,
      "decl": 1831,
      "defin": 1832,
      "upon": 1833,
      "course": 1834,
      "cir": 1835,
      "dou": 1836,
      "stay": 1837,
      "ingly": 1838,
      "he'd": 1839,
      "provid": 1840,
      "else": 1841,
      "discus": 1842,
      "I've": 1843,
      "simple": 1844,
      "Pe": 1845,
      "Pet": 1846,
      "anim": 1847,
      "ances": 1848,
      "program": 1849,
      "meas": 1850,
      "vision": 1851,
      "scient": 1852,
      "Asi": 1853,
      "Ph": 1854,
      "oso": 1855,
      "ung": 1856,
      "clean": 1857,
      "words": 1858,
      "'ve": 1859,
      "conf": 1860,
      "ape": 1861,
      "aughter": 1862,
      "material": 1863,
      "War": 1864,
      "win": 1865,
      "rele": 1866,
      "heav": 1867,
      "concept": 1868,
      "deal": 1869,
      "actually": 1870,
      "discover": 1871,
      "Ge": 1872,
      "May": 1873,
      "hol": 1874,
      "bring": 1875,
      "born": 1876,
      "relationship": 1877,
      "husband": 1878,
      "Bar": 1879,
      "Jap": 1880,
      "fav": 1881,
      "ians": 1882,
      "herself": 1883,
      "compan": 1884,
      "ia,": 1885,
      "diffic": 1886,
      "ane": 1887,
      "risk": 1888,
      "fire": 1889,
      "jud": 1890,
      "wood": 1891,
      "represent": 1892,
      "leave": 1893,
      "respect": 1894,
      "civil": 1895,
      "doing": 1896,
      "years,": 1897,
      "Har": 1898,
      "sn": 1899,
      "tem": 1900,
      "princi": 1901,
      "ived": 1902,
      "States": 1903,
      "World": 1904,
      "German": 1905,
      "bility": 1906,
      "pick": 1907,
      "ations.": 1908,
      "all,": 1909,
      "news": 1910,
      "redu": 1911,
      "typ": 1912,
      "simply": 1913,
      "profess": 1914,
      "control": 1915,
      "Jes": 1916,
      "eight": 1917,
      "gave": 1918,
      "yl": 1919,
      "necess": 1920,
      "ateg": 1921,
      "history": 1922,
      "usually": 1923,
      "sequ": 1924,
      "ried": 1925,
      "kept": 1926,
      "board": 1927,
      "similar": 1928,
      "def": 1929,
      "udd": 1930,
      "current": 1931,
      "dream": 1932,
      "IS": 1933,
      "cou": 1934,
      "done": 1935,
      "eat": 1936,
      "inc": 1937,
      "leav": 1938,
      "local": 1939,
      "dies": 1940,
      "ples": 1941,
      "quite": 1942,
      "however,": 1943,
      "tradition": 1944,
      "East": 1945,
      "oid": 1946,
      "en.": 1947,
      "ency": 1948,
      "neigh": 1949,
      "ies.": 1950,
      "self-": 1951,
      "intel": 1952,
      "outside": 1953,
      "brother": 1954,
      "growth": 1955,
      "mission": 1956,
      "al,": 1957,
      "al.": 1958,
      "entire": 1959,
      "grad": 1960,
      "While": 1961,
      "longer": 1962,
      "foc": 1963,
      "spr": 1964,
      "et,": 1965,
      "model": 1966,
      "log": 1967,
      "deep": 1968,
      "ney": 1969,
      "duct": 1970,
      "lack": 1971,
      "mot": 1972,
      "recogn": 1973,
      "lled": 1974,
      "foreign": 1975,
      "attempt": 1976,
      "However,": 1977,
      "Joh": 1978,
      "Pl": 1979,
      "warm": 1980,
      "store": 1981,
      "sell": 1982,
      "ention": 1983,
      "comfort": 1984,
      "ally,": 1985,
      "phys": 1986,
      "friends": 1987,
      "single": 1988,
      "drop": 1989,
      "philoso": 1990,
      "rand": 1991,
      "yourself": 1992,
      "famil": 1993,
      "modern": 1994,
      "origin": 1995,
      "Co": 1996,
      "i-": 1997,
      "psy": 1998,
      "that's": 1999,
      "space": 2000,
      "months": 2001,
      "17": 2002,
      "cise": 2003,
      "i,": 2004,
      "link": 2005,
      "mit": 2006,
      "sour": 2007,
      "force": 2008,
      "prim": 2009,
      "them,": 2010,
      "day.": 2011,
      "situ": 2012,
      "difficult": 2013,
      "ice.": 2014,
      "secur": 2015,
      "apart": 2016,
      "ure,": 2017,
      "network": 2018,
      "undred": 2019,
      "global": 2020,
      "acy": 2021,
      "wel": 2022,
      "true": 2023,
      "president": 2024,
      "knowledge": 2025,
      "viron": 2026,
      "Japan": 2027,
      "Of": 2028,
      "Par": 2029,
      "dict": 2030,
      "ham": 2031,
      "ked": 2032,
      "lab": 2033,
      "energ": 2034,
      "secret": 2035,
      "idence": 2036,
      "ames": 2037,
      "plant": 2038,
      "establ": 2039,
      "inste": 2040,
      "Man": 2041,
      "kitch": 2042,
      "scre": 2043,
      "ordin": 2044,
      "sex": 2045,
      "fell": 2046,
      "perhaps": 2047,
      "ment,": 2048,
      "2.": 2049,
      "ball": 2050,
      "hundred": 2051,
      "pan": 2052,
      "stories": 2053,
      "havi": 2054,
      "tele": 2055,
      "way.": 2056,
      "cannot": 2057,
      "treat": 2058,
      "Every": 2059,
      "Tr": 2060,
      "mir": 2061,
      "pet": 2062,
      "sto": 2063,
      "spent": 2064,
      "counter": 2065,
      "reading": 2066,
      "ological": 2067,
      "belief": 2068,
      "!\"": 2069,
      "bri": 2070,
      "smo": 2071,
      "enjo": 2072,
      "ased": 2073,
      "le.": 2074,
      "s,\"": 2075,
      "Stat": 2076,
      "military": 2077,
      "Lon": 2078,
      "dol": 2079,
      "sort": 2080,
      "takes": 2081,
      "wed": 2082,
      "held": 2083,
      "share": 2084,
      "box": 2085,
      "easy": 2086,
      "aver": 2087,
      "nature": 2088,
      "touch": 2089,
      "wo": 2090,
      "atory": 2091,
      "hear": 2092,
      "way,": 2093,
      "Why": 2094,
      "Ear": 2095,
      "bow": 2096,
      "bab": 2097,
      "cra": 2098,
      "tend": 2099,
      "iment": 2100,
      "iful": 2101,
      "avail": 2102,
      "European": 2103,
      "hours": 2104,
      "Don": 2105,
      "ror": 2106,
      "enth": 2107,
      "environ": 2108,
      "perfect": 2109,
      "getting": 2110,
      "function": 2111,
      "John": 2112,
      "instead": 2113,
      "London": 2114,
      "Ber": 2115,
      "daughter": 2116,
      "fing": 2117,
      "laugh": 2118,
      "record": 2119,
      "twent": 2120,
      "vari": 2121,
      "learn": 2122,
      "analys": 2123,
      "fish": 2124,
      "ations,": 2125,
      "brain": 2126,
      "century": 2127,
      "drink": 2128,
      "following": 2129,
      "Te": 2130,
      "ze": 2131,
      "ats": 2132,
      "associ": 2133,
      "dev": 2134,
      "dead": 2135,
      "Here": 2136,
      "Mark": 2137,
      "s:": 2138,
      "ali": 2139,
      "separ": 2140,
      "une": 2141,
      "above": 2142,
      "deli": 2143,
      "former": 2144,
      "University": 2145,
      "Christian": 2146,
      "North": 2147,
      "Pol": 2148,
      "bank": 2149,
      "hab": 2150,
      "uri": 2151,
      "except": 2152,
      "believ": 2153,
      "foot": 2154,
      "Ju": 2155,
      "bes": 2156,
      "path": 2157,
      "tar": 2158,
      "ened": 2159,
      "ice,": 2160,
      "evol": 2161,
      "ashing": 2162,
      "paper": 2163,
      "themselves": 2164,
      "-year": 2165,
      "narr": 2166,
      "stri": 2167,
      "chair": 2168,
      "lived": 2169,
      "world.": 2170,
      "tried": 2171,
      "books": 2172,
      "decided": 2173,
      "11": 2174,
      "city": 2175,
      "ination": 2176,
      "inside": 2177,
      "behavi": 2178,
      "enter": 2179,
      "agre": 2180,
      "exer": 2181,
      "provide": 2182,
      "ure.": 2183,
      "intro": 2184,
      "resul": 2185,
      "official": 2186,
      "Russi": 2187,
      "AT": 2188,
      "rup": 2189,
      "tic": 2190,
      "shop": 2191,
      "itted": 2192,
      "written": 2193,
      "II": 2194,
      "ls": 2195,
      "ler": 2196,
      "mas": 2197,
      "mult": 2198,
      "lying": 2199,
      "novel": 2200,
      "surpris": 2201,
      "hands": 2202,
      "music": 2203,
      "dy": 2204,
      "eth": 2205,
      "ium": 2206,
      "mb": 2207,
      "ense": 2208,
      "stor": 2209,
      "is.": 2210,
      "explain": 2211,
      "ate.": 2212,
      "brought": 2213,
      "regard": 2214,
      "developed": 2215,
      "increase": 2216,
      "signific": 2217,
      "communic": 2218,
      "\".": 2219,
      "Ab": 2220,
      "Mus": 2221,
      "ration": 2222,
      "stant": 2223,
      "chan": 2224,
      "comb": 2225,
      "addition": 2226,
      "blood": 2227,
      "continued": 2228,
      "available": 2229,
      "\"He": 2230,
      "2,": 2231,
      "ising": 2232,
      "ley": 2233,
      "according": 2234,
      "uses": 2235,
      "up.": 2236,
      "now,": 2237,
      "looks": 2238,
      "writing": 2239,
      "seems": 2240,
      "ded": 2241,
      "rul": 2242,
      "ret": 2243,
      "chall": 2244,
      "lies": 2245,
      "exact": 2246,
      "teen": 2247,
      "ensive": 2248,
      "expected": 2249,
      "middle": 2250,
      "da": 2251,
      "ideas": 2252,
      "create": 2253,
      "izing": 2254,
      "trip": 2255,
      "That's": 2256,
      "stead": 2257,
      "ior": 2258,
      "nu": 2259,
      "sion": 2260,
      "chapter": 2261,
      "impro": 2262,
      "team": 2263,
      "sport": 2264,
      "avoid": 2265,
      "contain": 2266,
      "Isra": 2267,
      "cust": 2268,
      "text": 2269,
      "trade": 2270,
      "dog": 2271,
      "needs": 2272,
      "\"What": 2273,
      "Cl": 2274,
      "cold": 2275,
      "ring": 2276,
      "squ": 2277,
      "ery": 2278,
      "sud": 2279,
      "fear": 2280,
      "ously": 2281,
      "life,": 2282,
      "---": 2283,
      "feeling": 2284,
      "appeared": 2285,
      "lines": 2286,
      "bag": 2287,
      "cot": 2288,
      "ilities": 2289,
      "due": 2290,
      "beautiful": 2291,
      "further": 2292,
      "Ne": 2293,
      "ially": 2294,
      "super": 2295,
      "earli": 2296,
      "ance.": 2297,
      "employ": 2298,
      "cam": 2299,
      "dress": 2300,
      "gas": 2301,
      "star": 2302,
      "icro": 2303,
      "manag": 2304,
      "rench": 2305,
      "finan": 2306,
      "visit": 2307,
      "2009": 2308,
      "instit": 2309,
      "wrong": 2310,
      "sudden": 2311,
      "\"A": 2312,
      "13": 2313,
      "Your": 2314,
      "bir": 2315,
      "tle": 2316,
      "init": 2317,
      "thes": 2318,
      "although": 2319,
      "et.": 2320,
      "worked": 2321,
      "detail": 2322,
      "specific": 2323,
      "\"S": 2324,
      "Jon": 2325,
      "bul": 2326,
      "oil": 2327,
      "ine,": 2328,
      "reven": 2329,
      "arily": 2330,
      "convers": 2331,
      "stra": 2332,
      "firm": 2333,
      "say,": 2334,
      "again.": 2335,
      "skin": 2336,
      "bon": 2337,
      "ges": 2338,
      "tin": 2339,
      "onto": 2340,
      "bey": 2341,
      "immedi": 2342,
      "ively": 2343,
      "buy": 2344,
      "published": 2345,
      "struction": 2346,
      "letter": 2347,
      "schol": 2348,
      "Fig": 2349,
      "fat": 2350,
      "ox": 2351,
      "eral": 2352,
      "ows": 2353,
      "194": 2354,
      "serious": 2355,
      "occur": 2356,
      "married": 2357,
      "benef": 2358,
      "Kore": 2359,
      "Me": 2360,
      "Sy": 2361,
      "gold": 2362,
      "mach": 2363,
      "pite": 2364,
      "scr": 2365,
      "conduct": 2366,
      "teach": 2367,
      "phone": 2368,
      "glass": 2369,
      "thinking": 2370,
      "hotel": 2371,
      "connect": 2372,
      "psych": 2373,
      "House": 2374,
      "ding": 2375,
      "gun": 2376,
      "us.": 2377,
      "forward": 2378,
      "loc": 2379,
      "up,": 2380,
      "pressure": 2381,
      "morning": 2382,
      "couple": 2383,
      "ds": 2384,
      "gone": 2385,
      "rain": 2386,
      "access": 2387,
      "moving": 2388,
      "include": 2389,
      "popul": 2390,
      "building": 2391,
      "domin": 2392,
      "language": 2393,
      "energy": 2394,
      "Budd": 2395,
      "bs": 2396,
      "pair": 2397,
      "sor": 2398,
      "role": 2399,
      "ump": 2400,
      "years.": 2401,
      "push": 2402,
      "media": 2403,
      "voice": 2404,
      "particularly": 2405,
      "Muslim": 2406,
      "custom": 2407,
      "IT": 2408,
      "cross": 2409,
      "frequ": 2410,
      "rap": 2411,
      "deb": 2412,
      "ountain": 2413,
      "America": 2414,
      "consci": 2415,
      "2008": 2416,
      "hope": 2417,
      "explo": 2418,
      "Go": 2419,
      "hum": 2420,
      "ony": 2421,
      "out,": 2422,
      "opt": 2423,
      "indic": 2424,
      "cked": 2425,
      "maybe": 2426,
      "stream": 2427,
      "introdu": 2428,
      "25": 2429,
      "Hu": 2430,
      "Mon": 2431,
      "dang": 2432,
      "lad": 2433,
      "zz": 2434,
      "total": 2435,
      "illi": 2436,
      "west": 2437,
      "ount": 2438,
      "meant": 2439,
      "poet": 2440,
      "ends": 2441,
      "ift": 2442,
      "ishing": 2443,
      "bert": 2444,
      "affect": 2445,
      "everyone": 2446,
      "normal": 2447,
      "experience": 2448,
      "pretty": 2449,
      "People": 2450,
      "har": 2451,
      "rate": 2452,
      "wid": 2453,
      "edom": 2454,
      "alter": 2455,
      "heat": 2456,
      "ent,": 2457,
      "ctor": 2458,
      "works": 2459,
      "portun": 2460,
      "collect": 2461,
      "Although": 2462,
      "viol": 2463,
      "Britain": 2464,
      "hydro": 2465,
      "Geor": 2466,
      "security": 2467,
      "Washing": 2468,
      "gar": 2469,
      "ograph": 2470,
      "he's": 2471,
      "acher": 2472,
      "ilt": 2473,
      "extra": 2474,
      "man,": 2475,
      "mental": 2476,
      "ified": 2477,
      "ousand": 2478,
      "societ": 2479,
      "summer": 2480,
      "policy": 2481,
      "doub": 2482,
      "straight": 2483,
      "Gree": 2484,
      "range": 2485,
      "ening": 2486,
      "imin": 2487,
      "cele": 2488,
      "ify": 2489,
      "year,": 2490,
      "effort": 2491,
      "surv": 2492,
      "broad": 2493,
      "growing": 2494,
      "members": 2495,
      "terms": 2496,
      "piece": 2497,
      "Fin": 2498,
      "jack": 2499,
      "mber": 2500,
      "o,": 2501,
      "lied": 2502,
      "you'll": 2503,
      "out.": 2504,
      "opportun": 2505,
      "blue": 2506,
      "gets": 2507,
      "technology": 2508,
      "Washington": 2509,
      "Can": 2510,
      "Fe": 2511,
      "ks": 2512,
      "ert": 2513,
      "shap": 2514,
      "ief": 2515,
      "central": 2516,
      "various": 2517,
      "account": 2518,
      "private": 2519,
      "enjoy": 2520,
      "dollar": 2521,
      "celebr": 2522,
      "4.": 2523,
      "French": 2524,
      "Many": 2525,
      "Su": 2526,
      "card": 2527,
      "ech": 2528,
      "mist": 2529,
      "mouth": 2530,
      "r.": 2531,
      "attract": 2532,
      "ic,": 2533,
      "whom": 2534,
      "there,": 2535,
      "loved": 2536,
      "demand": 2537,
      "all.": 2538,
      "she'd": 2539,
      "goes": 2540,
      "anyone": 2541,
      "compet": 2542,
      "consist": 2543,
      "easily": 2544,
      "Apple": 2545,
      "Aust": 2546,
      "IN": 2547,
      "gy": 2548,
      "hur": 2549,
      "ine.": 2550,
      "aling": 2551,
      "adem": 2552,
      "irst": 2553,
      "prefer": 2554,
      "previous": 2555,
      "work.": 2556,
      "formed": 2557,
      "contribut": 2558,
      "standing": 2559,
      "needed": 2560,
      "course,": 2561,
      "From": 2562,
      "popular": 2563,
      "kids": 2564,
      "Per": 2565,
      "Sun": 2566,
      "athe": 2567,
      "ban": 2568,
      "rich": 2569,
      "spot": 2570,
      "prep": 2571,
      "apped": 2572,
      "green": 2573,
      "higher": 2574,
      "running": 2575,
      "responsi": 2576,
      "figure": 2577,
      "philosoph": 2578,
      "Part": 2579,
      "ns": 2580,
      "thousand": 2581,
      "refer": 2582,
      "stage": 2583,
      "roll": 2584,
      "that.": 2585,
      "ption": 2586,
      "I'll": 2587,
      "value": 2588,
      "leading": 2589,
      "minutes": 2590,
      "financial": 2591,
      "birth": 2592,
      "-in": 2593,
      "Lo": 2594,
      "gain": 2595,
      "mass": 2596,
      "p.": 2597,
      "inv": 2598,
      "er's": 2599,
      "orn": 2600,
      "suff": 2601,
      "consu": 2602,
      "atever": 2603,
      "attention": 2604,
      "final": 2605,
      "decision": 2606,
      "random": 2607,
      "beyond": 2608,
      "Just": 2609,
      "Ke": 2610,
      "cast": 2611,
      "mine": 2612,
      "bel": 2613,
      "administ": 2614,
      "suit": 2615,
      "poor": 2616,
      "pleas": 2617,
      "world,": 2618,
      "factor": 2619,
      "write": 2620,
      "hosp": 2621,
      "later,": 2622,
      "Our": 2623,
      "Sm": 2624,
      "cit": 2625,
      "ires": 2626,
      "sens": 2627,
      "irt": 2628,
      "antic": 2629,
      "worth": 2630,
      "print": 2631,
      "saying": 2632,
      "fact,": 2633,
      "happy": 2634,
      "meaning": 2635,
      "walked": 2636,
      "investig": 2637,
      "determin": 2638,
      "neighbor": 2639,
      "results": 2640,
      "Gu": 2641,
      "Other": 2642,
      "gress": 2643,
      "you.": 2644,
      "audi": 2645,
      "strict": 2646,
      "international": 2647,
      "served": 2648,
      ".”": 2649,
      "Po": 2650,
      "hop": 2651,
      "ken": 2652,
      "nut": 2653,
      "sou": 2654,
      "sess": 2655,
      "vill": 2656,
      "threat": 2657,
      "independ": 2658,
      "stren": 2659,
      "lives": 2660,
      "thern": 2661,
      "univers": 2662,
      "ge,": 2663,
      "cru": 2664,
      "opened": 2665,
      "empor": 2666,
      "increased": 2667,
      "happened": 2668,
      "favor": 2669,
      "temper": 2670,
      "significant": 2671,
      "First": 2672,
      "Law": 2673,
      "fif": 2674,
      "igr": 2675,
      "pal": 2676,
      "ry,": 2677,
      "sitting": 2678,
      "xim": 2679,
      "online": 2680,
      "offe": 2681,
      "ache": 2682,
      "verse": 2683,
      "neg": 2684,
      "docu": 2685,
      "talking": 2686,
      "nearly": 2687,
      "journal": 2688,
      ",”": 2689,
      "Iran": 2690,
      "ning,": 2691,
      "rare": 2692,
      "inet": 2693,
      "ary,": 2694,
      "area": 2695,
      "ll,": 2696,
      "forms": 2697,
      "195": 2698,
      "faith": 2699,
      "played": 2700,
      "powerful": 2701,
      "freedom": 2702,
      "Western": 2703,
      "Phil": 2704,
      "Ho": 2705,
      "bly": 2706,
      "ik": 2707,
      "ves.": 2708,
      "rial": 2709,
      "contr": 2710,
      "ops": 2711,
      "astic": 2712,
      "created": 2713,
      "cks": 2714,
      "cook": 2715,
      "therefore": 2716,
      "content": 2717,
      "finally": 2718,
      "changes": 2719,
      "labor": 2720,
      "CO": 2721,
      "Dav": 2722,
      "More": 2723,
      "Rom": 2724,
      "bing": 2725,
      "theory": 2726,
      "stick": 2727,
      "omen": 2728,
      "seven": 2729,
      "image": 2730,
      "wouldn't": 2731,
      "then,": 2732,
      "decad": 2733,
      "require": 2734,
      "learned": 2735,
      "patient": 2736,
      "streng": 2737,
      ".,": 2738,
      "Gen": 2739,
      "bright": 2740,
      "mast": 2741,
      "alle": 2742,
      "sem": 2743,
      "below": 2744,
      "wear": 2745,
      "there's": 2746,
      "grew": 2747,
      "type": 2748,
      "carry": 2749,
      "away.": 2750,
      "students": 2751,
      "painting": 2752,
      "soft": 2753,
      "physical": 2754,
      "hom": 2755,
      "uary": 2756,
      "atures": 2757,
      "chain": 2758,
      "die": 2759,
      "command": 2760,
      "address": 2761,
      "host": 2762,
      "basic": 2763,
      "complex": 2764,
      "pati": 2765,
      "literary": 2766,
      "quickly": 2767,
      "rupt": 2768,
      "Let": 2769,
      "aur": 2770,
      "utter": 2771,
      "ceed": 2772,
      "emot": 2773,
      "emerg": 2774,
      "ieve": 2775,
      "relative": 2776,
      "Because": 2777,
      "considered": 2778,
      "fresh": 2779,
      "culture": 2780,
      "style": 2781,
      "kitchen": 2782,
      "Don't": 2783,
      "burn": 2784,
      "coffe": 2785,
      "fit": 2786,
      "ging": 2787,
      "thro": 2788,
      "ous,": 2789,
      "arian": 2790,
      "itude": 2791,
      "ay,": 2792,
      "mocr": 2793,
      "e.\"": 2794,
      "parts": 2795,
      "helped": 2796,
      "giving": 2797,
      "iety": 2798,
      "announ": 2799,
      "picture": 2800,
      "evolution": 2801,
      "bath": 2802,
      "batter": 2803,
      "mad": 2804,
      "rac": 2805,
      "anced": 2806,
      "asc": 2807,
      "was,": 2808,
      "unk": 2809,
      "areas": 2810,
      "constit": 2811,
      "interview": 2812,
      "crow": 2813,
      "compared": 2814,
      "passed": 2815,
      "direction": 2816,
      "marriage": 2817,
      "Jesus": 2818,
      "\",": 2819,
      "cing": 2820,
      "n’t": 2821,
      "pir": 2822,
      "rough": 2823,
      "size": 2824,
      "reli": 2825,
      "at.": 2826,
      "stain": 2827,
      "roy": 2828,
      "they're": 2829,
      "ated.": 2830,
      "countr": 2831,
      "capital": 2832,
      "distin": 2833,
      "service": 2834,
      "science": 2835,
      "prison": 2836,
      "education": 2837,
      "photograph": 2838,
      "necessary": 2839,
      "60": 2840,
      "i.": 2841,
      "ps": 2842,
      "isn't": 2843,
      "iced": 2844,
      "older": 2845,
      "fru": 2846,
      "exe": 2847,
      "evidence": 2848,
      "able.": 2849,
      "brid": 2850,
      "positive": 2851,
      "says,": 2852,
      "well-": 2853,
      "eye": 2854,
      "street": 2855,
      "changed": 2856,
      "literature": 2857,
      "truth": 2858,
      "-and": 2859,
      "Hen": 2860,
      "Most": 2861,
      "Res": 2862,
      "ators": 2863,
      "ene": 2864,
      "edge": 2865,
      "alone": 2866,
      "iled": 2867,
      "liked": 2868,
      "shot": 2869,
      "safe": 2870,
      "year.": 2871,
      "distribut": 2872,
      "questions": 2873,
      "beginning": 2874,
      "brief": 2875,
      "During": 2876,
      "game": 2877,
      "member": 2878,
      "rum": 2879,
      "reve": 2880,
      "aled": 2881,
      "chief": 2882,
      "forced": 2883,
      "hadn't": 2884,
      "cient": 2885,
      "spap": 2886,
      "achieve": 2887,
      "newspap": 2888,
      "offer": 2889,
      "desire": 2890,
      "society": 2891,
      "book,": 2892,
      "again,": 2893,
      "successful": 2894,
      "non-": 2895,
      "billion": 2896,
      "analysis": 2897,
      "-old": 2898,
      "3,": 2899,
      "5,": 2900,
      "HE": 2901,
      "ny": 2902,
      "nation": 2903,
      "tax": 2904,
      "repe": 2905,
      "stair": 2906,
      "sec": 2907,
      "conv": 2908,
      "loss": 2909,
      "actions": 2910,
      "e,\"": 2911,
      "impact": 2912,
      "nuclear": 2913,
      "rapid": 2914,
      "AN": 2915,
      "Red": 2916,
      "fair": 2917,
      "revol": 2918,
      "at,": 2919,
      "acc": 2920,
      "ables": 2921,
      "confl": 2922,
      "appoint": 2923,
      "artic": 2924,
      "spread": 2925,
      "speech": 2926,
      "ism,": 2927,
      "added": 2928,
      "room.": 2929,
      "student": 2930,
      "issue": 2931,
      "average": 2932,
      "exactly": 2933,
      "Min": 2934,
      "Tra": 2935,
      "fash": 2936,
      "hous": 2937,
      "lap": 2938,
      "match": 2939,
      "patter": 2940,
      "rise": 2941,
      "sme": 2942,
      "slight": 2943,
      "van": 2944,
      "yell": 2945,
      "extre": 2946,
      "usion": 2947,
      "auto": 2948,
      "color": 2949,
      "occas": 2950,
      "check": 2951,
      "arent": 2952,
      "won't": 2953,
      "protect": 2954,
      "answer": 2955,
      "influence": 2956,
      "\"It": 2957,
      "Gr": 2958,
      "aign": 2959,
      "fle": 2960,
      "gent": 2961,
      "iar": 2962,
      "kes": 2963,
      "snow": 2964,
      "ics,": 2965,
      "demon": 2966,
      "iff": 2967,
      "ival": 2968,
      "standard": 2969,
      "showed": 2970,
      "Christmas": 2971,
      "stuff": 2972,
      "satis": 2973,
      "described": 2974,
      "experiment": 2975,
      "completely": 2976,
      "computer": 2977,
      "deliver": 2978,
      "Israel": 2979,
      "ses": 2980,
      "scar": 2981,
      "compl": 2982,
      "so,": 2983,
      "feet": 2984,
      "spac": 2985,
      "spend": 2986,
      "able,": 2987,
      "ipul": 2988,
      "huge": 2989,
      "points": 2990,
      "valu": 2991,
      "solution": 2992,
      "understanding": 2993,
      "fficient": 2994,
      "mbol": 2995,
      "0.": 2996,
      "DA": 2997,
      "Des": 2998,
      "cli": 2999,
      "iqu": 3000,
      "mix": 3001,
      "s;": 3002,
      "wish": 3003,
      "oles": 3004,
      "ays": 3005,
      "shown": 3006,
      "resist": 3007,
      "mechan": 3008,
      "symbol": 3009,
      "engine": 3010,
      "miles": 3011,
      "waiting": 3012,
      "structure": 3013,
      "reflect": 3014,
      "ago,": 3015,
      "allowed": 3016,
      "towards": 3017,
      "magaz": 3018,
      "Like": 3019,
      "intellig": 3020,
      "\"O": 3021,
      "Cam": 3022,
      "Lu": 3023,
      "Two": 3024,
      "cop": 3025,
      "fight": 3026,
      "kne": 3027,
      "pin": 3028,
      "ental": 3029,
      "wash": 3030,
      "oted": 3031,
      "you,": 3032,
      "construction": 3033,
      "quiet": 3034,
      "Another": 3035,
      "obvious": 3036,
      "lower": 3037,
      "people,": 3038,
      "caught": 3039,
      "ia.": 3040,
      "remark": 3041,
      "built": 3042,
      "related": 3043,
      "2010": 3044,
      "slam": 3045,
      "analy": 3046,
      "critic": 3047,
      "International": 3048,
      "conscious": 3049,
      "8,": 3050,
      "National": 3051,
      "Rep": 3052,
      "Ser": 3053,
      "god": 3054,
      "iev": 3055,
      "rout": 3056,
      "sam": 3057,
      "inde": 3058,
      "ous.": 3059,
      "lymp": 3060,
      "umb": 3061,
      "cool": 3062,
      "cris": 3063,
      "home.": 3064,
      "Eli": 3065,
      "Olymp": 3066,
      "TV": 3067,
      "Yet": 3068,
      "bound": 3069,
      "mat": 3070,
      "rect": 3071,
      "enem": 3072,
      "mob": 3073,
      "ill,": 3074,
      "active": 3075,
      "ender": 3076,
      "aste": 3077,
      "Who": 3078,
      "strateg": 3079,
      "ated,": 3080,
      "rail": 3081,
      "throughout": 3082,
      "shows": 3083,
      "limited": 3084,
      "Once": 3085,
      "reported": 3086,
      "floor": 3087,
      "habit": 3088,
      "lor": 3089,
      "ingu": 3090,
      "assu": 3091,
      "lean": 3092,
      "rot": 3093,
      "utions": 3094,
      "div": 3095,
      "tran": 3096,
      "phen": 3097,
      "office": 3098,
      "required": 3099,
      "services": 3100,
      "weeks": 3101,
      "launch": 3102,
      "extreme": 3103,
      "Act": 3104,
      "Em": 3105,
      "Gover": 3106,
      "Jan": 3107,
      "Sha": 3108,
      "fold": 3109,
      "gard": 3110,
      "paid": 3111,
      "rational": 3112,
      "returned": 3113,
      "itor": 3114,
      "church": 3115,
      "forman": 3116,
      "river": 3117,
      "pray": 3118,
      "greater": 3119,
      "corn": 3120,
      "surround": 3121,
      "smile": 3122,
      "room,": 3123,
      "stopped": 3124,
      "David": 3125,
      "7,": 3126,
      "Ed": 3127,
      "Since": 3128,
      "catch": 3129,
      "fan": 3130,
      "leng": 3131,
      "luck": 3132,
      "ana": 3133,
      "encour": 3134,
      "stic": 3135,
      "ions,": 3136,
      "forces": 3137,
      "lif": 3138,
      "concl": 3139,
      "commer": 3140,
      "ored": 3141,
      "strange": 3142,
      "iving": 3143,
      "lights": 3144,
      "head.": 3145,
      "famous": 3146,
      "charge": 3147,
      "certainly": 3148,
      "potential": 3149,
      "traditional": 3150,
      "situation": 3151,
      "associated": 3152,
      "4,": 3153,
      "Air": 3154,
      "Cent": 3155,
      "Where": 3156,
      "batt": 3157,
      "ming": 3158,
      "mere": 3159,
      "mountain": 3160,
      "slip": 3161,
      "tight": 3162,
      "uel": 3163,
      "anch": 3164,
      "enced": 3165,
      "irty": 3166,
      "frame": 3167,
      "plat": 3168,
      "bled": 3169,
      "preci": 3170,
      "predict": 3171,
      "series": 3172,
      "State": 3173,
      "hand,": 3174,
      "regular": 3175,
      "arrang": 3176,
      "religious": 3177,
      "campaign": 3178,
      "Colle": 3179,
      "filled": 3180,
      "spoke": 3181,
      "measure": 3182,
      "believed": 3183,
      "Cor": 3184,
      "Sch": 3185,
      "h,": 3186,
      "lu": 3187,
      "as,": 3188,
      "ides": 3189,
      "liber": 3190,
      "applic": 3191,
      "manipul": 3192,
      "Char": 3193,
      "assist": 3194,
      "apparent": 3195,
      "carried": 3196,
      "production": 3197,
      "industry": 3198,
      "leaving": 3199,
      "patients": 3200,
      "Lou": 3201,
      "mak": 3202,
      "park": 3203,
      "ume": 3204,
      "wise": 3205,
      "ent.": 3206,
      "there.": 3207,
      "weak": 3208,
      "shar": 3209,
      "ull": 3210,
      "cloud": 3211,
      "party": 3212,
      "understood": 3213,
      "generally": 3214,
      "pressed": 3215,
      "borne": 3216,
      "followed": 3217,
      "increasingly": 3218,
      "eventually": 3219,
      "concern": 3220,
      "climate": 3221,
      "-year-old": 3222,
      "improve": 3223,
      "\"No": 3224,
      "A.": 3225,
      "King": 3226,
      "Med": 3227,
      "hit": 3228,
      "ju": 3229,
      "sand": 3230,
      "recomm": 3231,
      "whatever": 3232,
      "track": 3233,
      "performan": 3234,
      "mention": 3235,
      "193": 3236,
      "airport": 3237,
      "serve": 3238,
      "poll": 3239,
      "knows": 3240,
      "occup": 3241,
      "commit": 3242,
      "2012": 3243,
      "There's": 3244,
      "capac": 3245,
      "ification": 3246,
      "continue": 3247,
      "respond": 3248,
      "wait": 3249,
      "parent": 3250,
      "statement": 3251,
      "received": 3252,
      "source": 3253,
      "ordinary": 3254,
      "hospital": 3255,
      "conflict": 3256,
      "-up": 3257,
      "AR": 3258,
      "ER": 3259,
      "Sat": 3260,
      "fix": 3261,
      "kin": 3262,
      "th.": 3263,
      "ining": 3264,
      "aret": 3265,
      "ant,": 3266,
      "this,": 3267,
      "events": 3268,
      "cry": 3269,
      "wants": 3270,
      "systems": 3271,
      "placed": 3272,
      "places": 3273,
      "meeting": 3274,
      "ness,": 3275,
      "India": 3276,
      "involved": 3277,
      "spirit": 3278,
      "Carol": 3279,
      "0,": 3280,
      "7.": 3281,
      "Qu": 3282,
      "Tri": 3283,
      "cand": 3284,
      "cil": 3285,
      "lan": 3286,
      "ubl": 3287,
      "atom": 3288,
      "enn": 3289,
      "acid": 3290,
      "vey": 3291,
      "apt": 3292,
      "lose": 3293,
      "erson": 3294,
      "White": 3295,
      "Church": 3296,
      "long-": 3297,
      "well.": 3298,
      "fortun": 3299,
      "groups": 3300,
      "maintain": 3301,
      "reached": 3302,
      "scientific": 3303,
      "original": 3304,
      "\"It's": 3305,
      "Mid": 3306,
      "section": 3307,
      "bear": 3308,
      "lie": 3309,
      "amb": 3310,
      "load": 3311,
      "Ital": 3312,
      "contact": 3313,
      "corpor": 3314,
      "syn": 3315,
      "afterno": 3316,
      "too.": 3317,
      "father,": 3318,
      "capt": 3319,
      "covered": 3320,
      "transl": 3321,
      "face.": 3322,
      "milk": 3323,
      "moral": 3324,
      "watched": 3325,
      "issues": 3326,
      "college": 3327,
      "message": 3328,
      "gradu": 3329,
      "daily": 3330,
      "camer": 3331,
      "George": 3332,
      "execut": 3333,
      "demonstr": 3334,
      "Im": 3335,
      "Put": 3336,
      "Wall": 3337,
      "dry": 3338,
      "gam": 3339,
      "hang": 3340,
      "mun": 3341,
      "micro": 3342,
      "sight": 3343,
      "task": 3344,
      "enci": 3345,
      "states": 3346,
      "construct": 3347,
      "dig": 3348,
      "trou": 3349,
      "resour": 3350,
      "ive,": 3351,
      "formation": 3352,
      "Web": 3353,
      "calls": 3354,
      "gives": 3355,
      "telling": 3356,
      "drive": 3357,
      "girls": 3358,
      "problems": 3359,
      "memory": 3360,
      "watching": 3361,
      "quality": 3362,
      "Peter": 3363,
      "\"I'm": 3364,
      "1)": 3365,
      "AS": 3366,
      "Cong": 3367,
      "ON": 3368,
      "tch": 3369,
      "vic": 3370,
      "wit": 3371,
      "za": 3372,
      "staff": 3373,
      "ises": 3374,
      "concent": 3375,
      "mod": 3376,
      "wealth": 3377,
      "onek": 3378,
      "Instead": 3379,
      "aught": 3380,
      "es.\"": 3381,
      "people.": 3382,
      "despite": 3383,
      "son,": 3384,
      "remained": 3385,
      "difference": 3386,
      "largest": 3387,
      "home,": 3388,
      "gotten": 3389,
      "steps": 3390,
      "sugar": 3391,
      "Pronek": 3392,
      "critical": 3393,
      "ness.": 3394,
      "activities": 3395,
      "Harry": 3396,
      "\"the": 3397,
      "9,": 3398,
      "Hol": 3399,
      "Over": 3400,
      "bond": 3401,
      "fare": 3402,
      "vant": 3403,
      "ves,": 3404,
      "season": 3405,
      "iling": 3406,
      "weather": 3407,
      "ements": 3408,
      "usi": 3409,
      "reser": 3410,
      "atest": 3411,
      "y,\"": 3412,
      "ism.": 3413,
      "paint": 3414,
      "prior": 3415,
      "stretch": 3416,
      "named": 3417,
      "industrial": 3418,
      "established": 3419,
      "exercise": 3420,
      "challeng": 3421,
      "revenue": 3422,
      "contrast": 3423,
      "Henry": 3424,
      "6,": 3425,
      "Am": 3426,
      "Ben": 3427,
      "Islam": 3428,
      "Ma": 3429,
      "Mom": 3430,
      "gather": 3431,
      "ina": 3432,
      "ino": 3433,
      "aging": 3434,
      "centur": 3435,
      "breath": 3436,
      "cultural": 3437,
      "designed": 3438,
      "electric": 3439,
      "religion": 3440,
      "Internet": 3441,
      "arrived": 3442,
      "States,": 3443,
      "behavior": 3444,
      "document": 3445,
      "-based": 3446,
      "100": 3447,
      "cum": 3448,
      "eper": 3449,
      "garet": 3450,
      "winter": 3451,
      "zy": 3452,
      "review": 3453,
      "ato": 3454,
      "emb": 3455,
      "expl": 3456,
      "bling": 3457,
      "achiev": 3458,
      "greatest": 3459,
      "turns": 3460,
      "ictor": 3461,
      "Americans": 3462,
      "high-": 3463,
      "supposed": 3464,
      "sky": 3465,
      "border": 3466,
      "night,": 3467,
      "community": 3468,
      "conditions": 3469,
      "focus": 3470,
      "danger": 3471,
      "(the": 3472,
      "CS": 3473,
      "tit": 3474,
      "thus": 3475,
      "inno": 3476,
      "aries": 3477,
      "aspect": 3478,
      "be.": 3479,
      "acqu": 3480,
      "adm": 3481,
      "shad": 3482,
      "note": 3483,
      "istics": 3484,
      "do.": 3485,
      "creating": 3486,
      "work,": 3487,
      "speed": 3488,
      "count": 3489,
      "back,": 3490,
      "down,": 3491,
      "father's": 3492,
      "mother's": 3493,
      "playing": 3494,
      "insist": 3495,
      "leader": 3496,
      "developing": 3497,
      "laws": 3498,
      "connection": 3499,
      "animal": 3500,
      "40": 3501,
      "Cap": 3502,
      "Willi": 3503,
      "cat": 3504,
      "mut": 3505,
      "ninet": 3506,
      "ry.": 3507,
      "inj": 3508,
      "an.": 3509,
      "assum": 3510,
      "adul": 3511,
      "ters": 3512,
      "constant": 3513,
      "essential": 3514,
      "estim": 3515,
      "prevent": 3516,
      "guy": 3517,
      "basis": 3518,
      "legal": 3519,
      "attacks": 3520,
      "products": 3521,
      "Smith": 3522,
      "length": 3523,
      "6.": 3524,
      "C.": 3525,
      "Each": 3526,
      "Face": 3527,
      "Long": 3528,
      "Pat": 3529,
      "Sim": 3530,
      "bird": 3531,
      "eating": 3532,
      "eenth": 3533,
      "farm": 3534,
      "py": 3535,
      "tick": 3536,
      "becomes": 3537,
      "ots": 3538,
      "ette": 3539,
      "frag": 3540,
      "trust": 3541,
      "trail": 3542,
      "goal": 3543,
      "tens": 3544,
      "too,": 3545,
      "starting": 3546,
      "distance": 3547,
      "studies": 3548,
      "Maybe": 3549,
      "intellect": 3550,
      "scholar": 3551,
      "Buddha": 3552,
      "doubt": 3553,
      "William": 3554,
      "Good": 3555,
      "Miss": 3556,
      "Sen": 3557,
      "ai": 3558,
      "bare": 3559,
      "bought": 3560,
      "cab": 3561,
      "ease": 3562,
      "fied": 3563,
      "nice": 3564,
      "sick": 3565,
      "rig": 3566,
      "you've": 3567,
      "mole": 3568,
      "democr": 3569,
      "opin": 3570,
      "end,": 3571,
      "aked": 3572,
      "ester": 3573,
      "Ann": 3574,
      "iction": 3575,
      "factors": 3576,
      "highly": 3577,
      "dram": 3578,
      "skill": 3579,
      "night.": 3580,
      "norm": 3581,
      "block": 3582,
      "operation": 3583,
      "memor": 3584,
      "holding": 3585,
      "troops": 3586,
      "sister": 3587,
      "heavy": 3588,
      "familiar": 3589,
      "bowl": 3590,
      "Travel": 3591,
      "Dr.": 3592,
      "gree": 3593,
      "iel": 3594,
      "tip": 3595,
      "va": 3596,
      "advert": 3597,
      "consequ": 3598,
      "wearing": 3599,
      "one-": 3600,
      "trick": 3601,
      "pool": 3602,
      "ist,": 3603,
      "grown": 3604,
      "aware": 3605,
      "remind": 3606,
      "useful": 3607,
      "closed": 3608,
      "sett": 3609,
      "produced": 3610,
      "instance,": 3611,
      "house,": 3612,
      "rub": 3613,
      "directly": 3614,
      "types": 3615,
      "baby": 3616,
      "twenty-": 3617,
      "emporary": 3618,
      "24": 3619,
      "James": 3620,
      "Mc": 3621,
      "Year": 3622,
      "base": 3623,
      "hill": 3624,
      "native": 3625,
      "rated": 3626,
      "wild": 3627,
      "ancient": 3628,
      "island": 3629,
      "ros": 3630,
      "lift": 3631,
      "mov": 3632,
      "nel": 3633,
      "exter": 3634,
      "prise": 3635,
      "willing": 3636,
      "Though": 3637,
      "throw": 3638,
      "asking": 3639,
      "less,": 3640,
      "Mrs.": 3641,
      "volume": 3642,
      "limit": 3643,
      "expensive": 3644,
      "interested": 3645,
      "advant": 3646,
      "activity": 3647,
      "methods": 3648,
      "July": 3649,
      "management": 3650,
      "immediately": 3651,
      "temperature": 3652,
      "0s,": 3653,
      "Aug": 3654,
      "dome": 3655,
      "fi": 3656,
      "ggl": 3657,
      "ij": 3658,
      "mur": 3659,
      "rom": 3660,
      "station": 3661,
      "amount": 3662,
      "degree": 3663,
      "evening": 3664,
      "back.": 3665,
      "asked.": 3666,
      "regul": 3667,
      "sites": 3668,
      "biggest": 3669,
      "cases": 3670,
      "movement": 3671,
      "slowly": 3672,
      "collection": 3673,
      "discovered": 3674,
      "comfortable": 3675,
      "television": 3676,
      "earlier": 3677,
      "suddenly": 3678,
      "prepared": 3679,
      "Dan": 3680,
      "Dep": 3681,
      "Ken": 3682,
      "La": 3683,
      "March": 3684,
      "O'": 3685,
      "Park": 3686,
      "e-": 3687,
      "gi": 3688,
      "hun": 3689,
      "via": 3690,
      "atives": 3691,
      "ensu": 3692,
      "lection": 3693,
      "sect": 3694,
      "chance": 3695,
      "terri": 3696,
      "degre": 3697,
      "here,": 3698,
      "neck": 3699,
      "feature": 3700,
      "aint": 3701,
      "prov": 3702,
      "doct": 3703,
      "she's": 3704,
      "now.": 3705,
      "tware": 3706,
      "disci": 3707,
      "seeing": 3708,
      "drug": 3709,
      "mathem": 3710,
      "values": 3711,
      "words,": 3712,
      "school,": 3713,
      "learning": 3714,
      "equip": 3715,
      "software": 3716,
      "craft": 3717,
      "\"T": 3718,
      "Never": 3719,
      "Sing": 3720,
      "d,": 3721,
      "fab": 3722,
      "hone": 3723,
      "theor": 3724,
      "to-": 3725,
      "ites": 3726,
      "ries": 3727,
      "ke,": 3728,
      "ems": 3729,
      "oppos": 3730,
      "pock": 3731,
      "ive.": 3732,
      "others.": 3733,
      "down.": 3734,
      "smart": 3735,
      "soldi": 3736,
      "fundam": 3737,
      "included": 3738,
      "morning,": 3739,
      "technolog": 3740,
      "radio": 3741,
      "remains": 3742,
      "Steve": 3743,
      "Japanese": 3744,
      "establish": 3745,
      "stock": 3746,
      "environment": 3747,
      "negative": 3748,
      "fashion": 3749,
      "Shak": 3750,
      "0s": 3751,
      "5.": 3752,
      "9.": 3753,
      "fem": 3754,
      "hon": 3755,
      "kiss": 3756,
      "ners": 3757,
      "anx": 3758,
      "ower": 3759,
      "idel": 3760,
      "libr": 3761,
      "Their": 3762,
      "dem": 3763,
      "depart": 3764,
      "exc": 3765,
      "anti-": 3766,
      "cigaret": 3767,
      "Instit": 3768,
      "ishop": 3769,
      "berg": 3770,
      "raz": 3771,
      "brush": 3772,
      "correct": 3773,
      "thought,": 3774,
      "clearly": 3775,
      "variety": 3776,
      "walking": 3777,
      "Asia": 3778,
      "Roman": 3779,
      "fruit": 3780,
      "yellow": 3781,
      "August": 3782,
      "Shakespe": 3783,
      "(and": 3784,
      "OR": 3785,
      "UN": 3786,
      "X(": 3787,
      "categ": 3788,
      "dish": 3789,
      "hid": 3790,
      "len": 3791,
      "o.": 3792,
      "pli": 3793,
      "ties": 3794,
      "stone": 3795,
      "omb": 3796,
      "ions.": 3797,
      "bell": 3798,
      "feed": 3799,
      "offered": 3800,
      "symp": 3801,
      "relations": 3802,
      "clothes": 3803,
      "produce": 3804,
      "ically,": 3805,
      "Commun": 3806,
      "practice": 3807,
      "apartment": 3808,
      "fellow": 3809,
      "population": 3810,
      "revolution": 3811,
      "Shakespeare": 3812,
      "Bur": 3813,
      "Dad": 3814,
      "Ira": 3815,
      "Jew": 3816,
      "Love": 3817,
      "Pal": 3818,
      "fuck": 3819,
      "n,": 3820,
      "pher": 3821,
      "ta": 3822,
      "tren": 3823,
      "vast": 3824,
      "wing": 3825,
      "zen": 3826,
      "insu": 3827,
      "orm": 3828,
      "escap": 3829,
      "robot": 3830,
      "confer": 3831,
      "agon": 3832,
      "oursel": 3833,
      "do,": 3834,
      "other.": 3835,
      "observ": 3836,
      "compar": 3837,
      "finish": 3838,
      "scen": 3839,
      "cheap": 3840,
      "ventil": 3841,
      "economy": 3842,
      "restaur": 3843,
      "response": 3844,
      "wheel": 3845,
      "dinner": 3846,
      "shoot": 3847,
      "electron": 3848,
      "layer": 3849,
      "bottom": 3850,
      "dynam": 3851,
      "opportunity": 3852,
      "neighborhood": 3853,
      "coffee": 3854,
      "performance": 3855,
      "Iraq": 3856,
      ".)": 3857,
      "Bill": 3858,
      "Bour": 3859,
      "Lis": 3860,
      "Mart": 3861,
      "Make": 3862,
      "Que": 3863,
      "dust": 3864,
      "east": 3865,
      "oth": 3866,
      "spl": 3867,
      "inch": 3868,
      "becoming": 3869,
      "academ": 3870,
      "iles": 3871,
      "consum": 3872,
      "shut": 3873,
      "quant": 3874,
      "actual": 3875,
      "He'd": 3876,
      "price": 3877,
      "over,": 3878,
      "cred": 3879,
      "brown": 3880,
      "center": 3881,
      "partner": 3882,
      "mostly": 3883,
      "choice": 3884,
      "well,": 3885,
      "increasing": 3886,
      "organiz": 3887,
      "side,": 3888,
      "describe": 3889,
      "integr": 3890,
      "recently": 3891,
      "tiny": 3892,
      "jacket": 3893,
      "smell": 3894,
      "Are": 3895,
      "Bob": 3896,
      "ES": 3897,
      "High": 3898,
      "Mex": 3899,
      "dim": 3900,
      "nine": 3901,
      "ning.": 3902,
      "tur": 3903,
      "taught": 3904,
      "accompl": 3905,
      "ager": 3906,
      "here.": 3907,
      "we're": 3908,
      "shed": 3909,
      "resol": 3910,
      "ante": 3911,
      "man.": 3912,
      "earth": 3913,
      "earch": 3914,
      "more,": 3915,
      "cess.": 3916,
      "version": 3917,
      "childhood": 3918,
      "eyes,": 3919,
      "Beij": 3920,
      "equal": 3921,
      "empty": 3922,
      "Robert": 3923,
      "election": 3924,
      "pulled": 3925,
      "discuss": 3926,
      "relevant": 3927,
      "picked": 3928,
      "reduce": 3929,
      "target": 3930,
      "favorite": 3931,
      "Facebook": 3932,
      "Mexic": 3933,
      "El": 3934,
      "Mal": 3935,
      "Sp": 3936,
      "dad": 3937,
      "lone": 3938,
      "race": 3939,
      "tail": 3940,
      "thick": 3941,
      "rew": 3942,
      "ices.": 3943,
      "belong": 3944,
      "exchange": 3945,
      "progress": 3946,
      "worry": 3947,
      "myster": 3948,
      "blank": 3949,
      "ivity": 3950,
      "assess": 3951,
      "precise": 3952,
      "Any": 3953,
      "know,": 3954,
      "choose": 3955,
      "medical": 3956,
      "ities.": 3957,
      "chest": 3958,
      "solute": 3959,
      "Before": 3960,
      "Frank": 3961,
      "includes": 3962,
      "keeping": 3963,
      "fourth": 3964,
      "severe": 3965,
      "protein": 3966,
      "determine": 3967,
      "unique": 3968,
      "companies": 3969,
      "affected": 3970,
      "Look": 3971,
      "-and-": 3972,
      "Government": 3973,
      "intellectual": 3974,
      "Che": 3975,
      "Dis": 3976,
      "Lang": 3977,
      "fal": 3978,
      "fine": 3979,
      "kick": 3980,
      "sold": 3981,
      "ue,": 3982,
      "select": 3983,
      "entered": 3984,
      "adjust": 3985,
      "iday": 3986,
      "forget": 3987,
      "university": 3988,
      "shared": 3989,
      "features": 3990,
      "tray": 3991,
      "Inde": 3992,
      "eval": 3993,
      "izes": 3994,
      "Those": 3995,
      "forest": 3996,
      "carbon": 3997,
      "guess": 3998,
      "setting": 3999,
      "ities,": 4000,
      "France": 4001,
      "children,": 4002,
      "Afgh": 4003,
      "reasons": 4004,
      "operations": 4005,
      "purpose": 4006,
      "studied": 4007,
      "effects": 4008,
      "individuals": 4009,
      "defined": 4010,
      "entirely": 4011,
      "families": 4012,
      "beside": 4013,
      "multi": 4014,
      "institution": 4015,
      "rarely": 4016,
      "capacity": 4017,
      "\"But": 4018,
      "\"And": 4019,
      "Bet": 4020,
      "D.": 4021,
      "Life": 4022,
      "Rich": 4023,
      "Victor": 4024,
      "lit": 4025,
      "m,": 4026,
      "m.": 4027,
      "pill": 4028,
      "pound": 4029,
      "song": 4030,
      "tree": 4031,
      "thin": 4032,
      "ord": 4033,
      "tool": 4034,
      "impress": 4035,
      "web": 4036,
      "shif": 4037,
      "ulate": 4038,
      "ultim": 4039,
      "fection": 4040,
      "perspect": 4041,
      "plastic": 4042,
      "save": 4043,
      "iven": 4044,
      "assign": 4045,
      "raised": 4046,
      "crack": 4047,
      "colon": 4048,
      "arms": 4049,
      "Soci": 4050,
      "politics": 4051,
      "Only": 4052,
      "expand": 4053,
      "radar": 4054,
      "hib": 4055,
      "beauty": 4056,
      "historical": 4057,
      "failure": 4058,
      "drawn": 4059,
      "Brown": 4060,
      "Figure": 4061,
      "thousands": 4062,
      "Philip": 4063,
      "strength": 4064,
      "Eliza": 4065,
      "mobile": 4066,
      ");": 4067,
      "2)": 4068,
      "Bishop": 4069,
      "IC": 4070,
      "June": 4071,
      "Lin": 4072,
      "Net": 4073,
      "THE": 4074,
      "fly": 4075,
      "ius": 4076,
      "rat": 4077,
      "tour": 4078,
      "wis": 4079,
      "encounter": 4080,
      "forts": 4081,
      "aren't": 4082,
      "peace": 4083,
      "complic": 4084,
      "sole": 4085,
      "tee": 4086,
      "teacher": 4087,
      "airborne": 4088,
      "corner": 4089,
      "flat": 4090,
      "world's": 4091,
      "though,": 4092,
      "mother,": 4093,
      "politic": 4094,
      "finding": 4095,
      "broke": 4096,
      "easier": 4097,
      "appropri": 4098,
      "Sept": 4099,
      "emphas": 4100,
      "healthy": 4101,
      "side.": 4102,
      "levels": 4103,
      "killed": 4104,
      "training": 4105,
      "claimed": 4106,
      "circum": 4107,
      "provided": 4108,
      "provides": 4109,
      "professional": 4110,
      "primary": 4111,
      "rules": 4112,
      "relatively": 4113,
      "distinct": 4114,
      "commercial": 4115,
      "\"C": 4116,
      "(or": 4117,
      "Bank": 4118,
      "Bible": 4119,
      "Dick": 4120,
      "EP": 4121,
      "Gre": 4122,
      "Job": 4123,
      "Tod": 4124,
      "bread": 4125,
      "nav": 4126,
      "rates": 4127,
      "sco": 4128,
      "wer": 4129,
      "instru": 4130,
      "stro": 4131,
      "to,": 4132,
      "ili": 4133,
      "weap": 4134,
      "aving": 4135,
      "right.": 4136,
      "scale": 4137,
      "Ford": 4138,
      "realized": 4139,
      "importance": 4140,
      "dete": 4141,
      "Art": 4142,
      "techniqu": 4143,
      "director": 4144,
      "principles": 4145,
      "leaves": 4146,
      "spring": 4147,
      "Earth": 4148,
      "separate": 4149,
      "Russian": 4150,
      "master": 4151,
      "Depart": 4152,
      "21": 4153,
      "Egy": 4154,
      "Lat": 4155,
      "Rad": 4156,
      "a-": 4157,
      "athan": 4158,
      "bud": 4159,
      "dut": 4160,
      "gment": 4161,
      "iver": 4162,
      "nur": 4163,
      "pun": 4164,
      "phas": 4165,
      "recover": 4166,
      "stress": 4167,
      "tox": 4168,
      "andon": 4169,
      "ids": 4170,
      "olf": 4171,
      "uncertain": 4172,
      "abs": 4173,
      "terror": 4174,
      "contract": 4175,
      "appreci": 4176,
      "hero": 4177,
      "perform": 4178,
      "plants": 4179,
      "saf": 4180,
      "they'd": 4181,
      "prime": 4182,
      "more.": 4183,
      "obtain": 4184,
      "attach": 4185,
      "deser": 4186,
      "putting": 4187,
      "struggl": 4188,
      "passing": 4189,
      "water.": 4190,
      "approxim": 4191,
      "tells": 4192,
      "possible.": 4193,
      "practical": 4194,
      "imagine": 4195,
      "expression": 4196,
      "Middle": 4197,
      "encies": 4198,
      "discipl": 4199,
      "8.": 4200,
      "Bost": 4201,
      "Ow": 4202,
      "Off": 4203,
      "School": 4204,
      "Sometimes": 4205,
      "Yes,": 4206,
      "core": 4207,
      "fasc": 4208,
      "gri": 4209,
      "les,": 4210,
      "les.": 4211,
      "ner,": 4212,
      "pure": 4213,
      "ston": 4214,
      "seat": 4215,
      "sets": 4216,
      "advis": 4217,
      "veget": 4218,
      "are,": 4219,
      "conce": 4220,
      "artist": 4221,
      "Then,": 4222,
      "formal": 4223,
      "possess": 4224,
      "flag": 4225,
      "rights": 4226,
      "Sovi": 4227,
      "numbers": 4228,
      "paralle": 4229,
      "senior": 4230,
      "face,": 4231,
      "joint": 4232,
      "particip": 4233,
      "place,": 4234,
      "place.": 4235,
      "largely": 4236,
      "together.": 4237,
      "effective": 4238,
      "pull": 4239,
      "Indian": 4240,
      "argument": 4241,
      "According": 4242,
      "narrow": 4243,
      "challen": 4244,
      "country.": 4245,
      "slightly": 4246,
      "enemy": 4247,
      "AL": 4248,
      "Apr": 4249,
      "Cath": 4250,
      "Jack": 4251,
      "Oc": 4252,
      "Pre": 4253,
      "ces,": 4254,
      "gins": 4255,
      "ky": 4256,
      "nic": 4257,
      "send": 4258,
      "ufact": 4259,
      "er-": 4260,
      "to.": 4261,
      "it.\"": 4262,
      "it’s": 4263,
      "chick": 4264,
      "abandon": 4265,
      "ages.": 4266,
      "agree": 4267,
      "ague": 4268,
      "lock": 4269,
      "meat": 4270,
      "autom": 4271,
      "which,": 4272,
      "ideal": 4273,
      "Its": 4274,
      "strain": 4275,
      "prepar": 4276,
      "presence": 4277,
      "disease": 4278,
      "speaking": 4279,
      "itions": 4280,
      "award": 4281,
      "minim": 4282,
      "minute": 4283,
      "turning": 4284,
      "ensity": 4285,
      "larger": 4286,
      "supply": 4287,
      "Nove": 4288,
      "Franc": 4289,
      "pursu": 4290,
      "studi": 4291,
      "England": 4292,
      "Book": 4293,
      "ancing": 4294,
      "ences,": 4295,
      "Africa": 4296,
      "primarily": 4297,
      "independent": 4298,
      "announced": 4299,
      "pattern": 4300,
      "Olympic": 4301,
      "platform": 4302,
      "Afghan": 4303,
      "Elizabe": 4304,
      "September": 4305,
      "Egypt": 4306,
      "Cali": 4307,
      "Mat": 4308,
      "Rob": 4309,
      "aul": 4310,
      "sin": 4311,
      "tical": 4312,
      "yn": 4313,
      "ide.": 4314,
      "olic": 4315,
      "otic": 4316,
      "decre": 4317,
      "pers": 4318,
      "anti": 4319,
      "lling": 4320,
      "this.": 4321,
      "acknow": 4322,
      "aud": 4323,
      "clin": 4324,
      "police": 4325,
      "desk": 4326,
      "knowing": 4327,
      "colour": 4328,
      "surface": 4329,
      "China.": 4330,
      "guard": 4331,
      "scri": 4332,
      "presented": 4333,
      "transform": 4334,
      "chnology": 4335,
      "Second": 4336,
      "rising": 4337,
      "Germany": 4338,
      "virt": 4339,
      "wife,": 4340,
      "sweet": 4341,
      "African": 4342,
      "incident": 4343,
      "hundreds": 4344,
      "narrative": 4345,
      "additional": 4346,
      "initi": 4347,
      "conversation": 4348,
      "Fig.": 4349,
      "shaped": 4350,
      "ublic": 4351,
      "Queen": 4352,
      "Indeed,": 4353,
      "Richard": 4354,
      "Soviet": 4355,
      "April": 4356,
      "500": 4357,
      "EN": 4358,
      "Get": 4359,
      "Mary": 4360,
      "Rem": 4361,
      "Revolution": 4362,
      "Sar": 4363,
      "cis": 4364,
      "hip": 4365,
      "lunch": 4366,
      "ram": 4367,
      "sad": 4368,
      "esford": 4369,
      "it?": 4370,
      "rose": 4371,
      "amed": 4372,
      "unless": 4373,
      "suspect": 4374,
      "movie": 4375,
      "neither": 4376,
      "istan": 4377,
      "grav": 4378,
      "other,": 4379,
      "preh": 4380,
      "presents": 4381,
      "off.": 4382,
      "justice": 4383,
      "rence": 4384,
      "survey": 4385,
      "everywhere": 4386,
      "China,": 4387,
      "visible": 4388,
      "land,": 4389,
      "chem": 4390,
      "solid": 4391,
      "helps": 4392,
      "hardly": 4393,
      "ago.": 4394,
      "Both": 4395,
      "sounds": 4396,
      "Now,": 4397,
      "widely": 4398,
      "experts": 4399,
      "treatment": 4400,
      "beliefs": 4401,
      "agreed": 4402,
      "phenomen": 4403,
      "merely": 4404,
      "domestic": 4405,
      "weren": 4406,
      "November": 4407,
      "\"If": 4408,
      "\"Do": 4409,
      "Bush": 4410,
      "DI": 4411,
      "Later": 4412,
      "Power": 4413,
      "Take": 4414,
      "een": 4415,
      "flight": 4416,
      "g,": 4417,
      "none": 4418,
      "“The": 4419,
      "thirty": 4420,
      "enorm": 4421,
      "isl": 4422,
      "ass.": 4423,
      "hest": 4424,
      "aded": 4425,
      "whis": 4426,
      "ament": 4427,
      "was.": 4428,
      "cember": 4429,
      "apore": 4430,
      "excl": 4431,
      "ately,": 4432,
      "gry": 4433,
      "spending": 4434,
      "raise": 4435,
      "1950": 4436,
      "obes": 4437,
      "efforts": 4438,
      "Stre": 4439,
      "eyes.": 4440,
      "leaders": 4441,
      "requires": 4442,
      "marked": 4443,
      "door.": 4444,
      "organization": 4445,
      "December": 4446,
      "affair": 4447,
      "suggests": 4448,
      "typically": 4449,
      "neighb": 4450,
      "Beresford": 4451,
      "officials": 4452,
      "Syri": 4453,
      "philosophy": 4454,
      "determined": 4455,
      "divor": 4456,
      "digital": 4457,
      "Congress": 4458,
      "Singapore": 4459,
      "cigarette": 4460,
      "23": 4461,
      "Great": 4462,
      "Je": 4463,
      "Mic": 4464,
      "aj": 4465,
      "aust": 4466,
      "c.": 4467,
      "fed": 4468,
      "gro": 4469,
      "hall": 4470,
      "lic": 4471,
      "nments": 4472,
      "pi": 4473,
      "sac": 4474,
      "vot": 4475,
      "vation": 4476,
      "intim": 4477,
      "theore": 4478,
      "alog": 4479,
      "accent": 4480,
      "etary": 4481,
      "distr": 4482,
      "protest": 4483,
      "notice": 4484,
      "Chapter": 4485,
      "display": 4486,
      "surprise": 4487,
      "ologist": 4488,
      "2014": 4489,
      "legs": 4490,
      "house.": 4491,
      "talked": 4492,
      "China’s": 4493,
      "equally": 4494,
      "ggle": 4495,
      "laid": 4496,
      "scientists": 4497,
      "Such": 4498,
      "village": 4499,
      "Research": 4500,
      "transport": 4501,
      "January": 4502,
      "sharp": 4503,
      "Martin": 4504,
      "parallel": 4505,
      "(see": 4506,
      "Coun": 4507,
      "Day": 4508,
      "Fre": 4509,
      "Have": 4510,
      "Mac": 4511,
      "Out": 4512,
      "Pap": 4513,
      "Tyl": 4514,
      "ahead": 4515,
      "bust": 4516,
      "cro": 4517,
      "dur": 4518,
      "iang": 4519,
      "rank": 4520,
      "tor": 4521,
      "voc": 4522,
      "inner": 4523,
      "ilater": 4524,
      "absolute": 4525,
      "embr": 4526,
      "proved": 4527,
      "poly": 4528,
      "quot": 4529,
      "manufact": 4530,
      "blow": 4531,
      "Thom": 4532,
      "say.": 4533,
      "apping": 4534,
      "finished": 4535,
      "book.": 4536,
      "America,": 4537,
      "realize": 4538,
      "passion": 4539,
      "water,": 4540,
      "opening": 4541,
      "family.": 4542,
      "faced": 4543,
      "careful": 4544,
      "case,": 4545,
      "changing": 4546,
      "status": 4547,
      "breakfast": 4548,
      "uniform": 4549,
      "uries": 4550,
      "details": 4551,
      "scholars": 4552,
      "newspaper": 4553,
      "\"She": 4554,
      "(a": 4555,
      "-century": 4556,
      "5%": 4557,
      "Adam": 4558,
      "Def": 4559,
      "Tim": 4560,
      "hat": 4561,
      "kno": 4562,
      "pup": 4563,
      "y's": 4564,
      "insur": 4565,
      "oured": 4566,
      "stim": 4567,
      "of-": 4568,
      "isol": 4569,
      "sees": 4570,
      "accur": 4571,
      "adop": 4572,
      "utch": 4573,
      "amaz": 4574,
      "convent": 4575,
      "comment": 4576,
      "prop": 4577,
      "not.": 4578,
      "noticed": 4579,
      "man's": 4580,
      "managed": 4581,
      "shel": 4582,
      "cohol": 4583,
      "intended": 4584,
      "first,": 4585,
      "minor": 4586,
      "ty-": 4587,
      "before.": 4588,
      "sche": 4589,
      "cheek": 4590,
      "court": 4591,
      "volt": 4592,
      "away,": 4593,
      "line.": 4594,
      "joined": 4595,
      "calcul": 4596,
      "driving": 4597,
      "reports": 4598,
      "investment": 4599,
      "usual": 4600,
      "authority": 4601,
      "concerned": 4602,
      "communication": 4603,
      "Greek": 4604,
      "responsible": 4605,
      "administration": 4606,
      "citiz": 4607,
      "nutrit": 4608,
      "dieu": 4609,
      "stairs": 4610,
      "intelligence": 4611,
      "Charles": 4612,
      "fundamental": 4613,
      "ourselves": 4614,
      "Bourdieu": 4615,
      "Francis": 4616,
      "\"D": 4617,
      "Hist": 4618,
      "Mer": 4619,
      "Sou": 4620,
      "date": 4621,
      "egg": 4622,
      "migr": 4623,
      "sink": 4624,
      "yard": 4625,
      "income": 4626,
      "reci": 4627,
      "wholes": 4628,
      "imper": 4629,
      "forgotten": 4630,
      "ke.": 4631,
      "proced": 4632,
      "not,": 4633,
      "ifying": 4634,
      "iger": 4635,
      "somewhere": 4636,
      "workers": 4637,
      "power.": 4638,
      "China's": 4639,
      "driven": 4640,
      "biograph": 4641,
      "listen": 4642,
      "purch": 4643,
      "directed": 4644,
      "half-": 4645,
      "Step": 4646,
      "pieces": 4647,
      "dropped": 4648,
      "Mean": 4649,
      "crowd": 4650,
      "extremely": 4651,
      "ilateral": 4652,
      "\"W": 4653,
      "\"This": 4654,
      "3-": 4655,
      "AI": 4656,
      "Ba": 4657,
      "Pri": 4658,
      "Ter": 4659,
      "Wind": 4660,
      "games": 4661,
      "page": 4662,
      "san": 4663,
      "site": 4664,
      "wore": 4665,
      "zer": 4666,
      "’’": 4667,
      "invent": 4668,
      "orange": 4669,
      "tot": 4670,
      "entially": 4671,
      "images": 4672,
      "forn": 4673,
      "agno": 4674,
      "shift": 4675,
      "grant": 4676,
      "acting": 4677,
      "bodies": 4678,
      "cles": 4679,
      "plement": 4680,
      "twice": 4681,
      "attend": 4682,
      "committed": 4683,
      "capable": 4684,
      "transfer": 4685,
      "family,": 4686,
      "request": 4687,
      "children.": 4688,
      "technical": 4689,
      "lingu": 4690,
      "iness.": 4691,
      "mid-": 4692,
      "specif": 4693,
      "truly": 4694,
      "death,": 4695,
      "caused": 4696,
      "released": 4697,
      "respective": 4698,
      "cott": 4699,
      "employe": 4700,
      "Goog": 4701,
      "introduced": 4702,
      "carrying": 4703,
      "fabric": 4704,
      "Institute": 4705,
      "challenge": 4706,
      "Californ": 4707,
      "chemical": 4708,
      "Tylor": 4709,
      "Black": 4710,
      "Cre": 4711,
      "Ham": 4712,
      "Mil": 4713,
      "Micro": 4714,
      "Sam": 4715,
      "Sci": 4716,
      "pages": 4717,
      "rang": 4718,
      "tent": 4719,
      "tast": 4720,
      "vard": 4721,
      "zed": 4722,
      "inary": 4723,
      "reject": 4724,
      "enh": 4725,
      "stuck": 4726,
      "ases": 4727,
      "unknown": 4728,
      "abilities": 4729,
      "ages,": 4730,
      "excell": 4731,
      "plom": 4732,
      "evil": 4733,
      "somehow": 4734,
      "attent": 4735,
      "guest": 4736,
      "head,": 4737,
      "ashed": 4738,
      "painted": 4739,
      "signs": 4740,
      "Commit": 4741,
      "millions": 4742,
      "projects": 4743,
      "today.": 4744,
      "salt": 4745,
      "pictures": 4746,
      "animals": 4747,
      "Asian": 4748,
      "civilization": 4749,
      "wedding": 4750,
      "institutions": 4751,
      "initial": 4752,
      "immediate": 4753,
      "benefit": 4754,
      "Korea": 4755,
      "Febr": 4756,
      "Perhaps": 4757,
      "Lawrence": 4758,
      "decades": 4759,
      "bridge": 4760,
      "opposite": 4761,
      "circumst": 4762,
      "weren't": 4763,
      "\"They": 4764,
      "26": 4765,
      "70": 4766,
      "80": 4767,
      "I’": 4768,
      "Last": 4769,
      "Morgan": 4770,
      "Rome": 4771,
      "Sup": 4772,
      "bed,": 4773,
      "fro": 4774,
      "ms": 4775,
      "nodd": 4776,
      "orient": 4777,
      "stup": 4778,
      "stability": 4779,
      "ald": 4780,
      "alcohol": 4781,
      "ita": 4782,
      "iding": 4783,
      "forth": 4784,
      "abor": 4785,
      "territ": 4786,
      "agent": 4787,
      "urally": 4788,
      "compreh": 4789,
      "indu": 4790,
      "He's": 4791,
      "els": 4792,
      "co-": 4793,
      "branch": 4794,
      "Well,": 4795,
      "apply": 4796,
      "coll": 4797,
      "seek": 4798,
      "You'll": 4799,
      "settle": 4800,
      "substant": 4801,
      "region": 4802,
      "generation": 4803,
      "feels": 4804,
      "passeng": 4805,
      "smaller": 4806,
      "interesting": 4807,
      "mind.": 4808,
      "biote": 4809,
      "curi": 4810,
      "moment,": 4811,
      "cells": 4812,
      "destroy": 4813,
      "Academ": 4814,
      "principle": 4815,
      "recognized": 4816,
      "Paris": 4817,
      "screen": 4818,
      "occurred": 4819,
      "Muslims": 4820,
      "Greece": 4821,
      "consumer": 4822,
      "General": 4823,
      "constitution": 4824,
      "trouble": 4825,
      "'.": 4826,
      "Bel": 4827,
      "Hor": 4828,
      "Mu": 4829,
      "Vir": 4830,
      "bed.": 4831,
      "hate": 4832,
      "intr": 4833,
      "inated": 4834,
      "infl": 4835,
      "stal": 4836,
      "stir": 4837,
      "ales": 4838,
      "of,": 4839,
      "ison": 4840,
      "itation": 4841,
      "itable": 4842,
      "hell": 4843,
      "icial": 4844,
      "shout": 4845,
      "shape": 4846,
      "emer": 4847,
      "so.": 4848,
      "ress,": 4849,
      "prove": 4850,
      "plans": 4851,
      "grap": 4852,
      "action.": 4853,
      "things,": 4854,
      "times,": 4855,
      "Which": 4856,
      "string": 4857,
      "Think": 4858,
      "days,": 4859,
      "code": 4860,
      "compound": 4861,
      "long,": 4862,
      "identify": 4863,
      "closer": 4864,
      "writers": 4865,
      "decide": 4866,
      "friends,": 4867,
      "friendship": 4868,
      "views": 4869,
      "trees": 4870,
      "week,": 4871,
      "stepped": 4872,
      "traffic": 4873,
      "expressed": 4874,
      "immune": 4875,
      "spoken": 4876,
      "agreement": 4877,
      "teaching": 4878,
      "dollars": 4879,
      "recommend": 4880,
      "restaurant": 4881,
      "detect": 4882,
      "toxic": 4883,
      "Elizabeth": 4884,
      "wholesome": 4885,
      "\"So": 4886,
      "\"How": 4887,
      "22": 4888,
      "BC": 4889,
      "BS": 4890,
      "Braz": 4891,
      "Grand": 4892,
      "Jac": 4893,
      "O.": 4894,
      "PR": 4895,
      "Sud": 4896,
      "Tor": 4897,
      "fier": 4898,
      "gul": 4899,
      "hes": 4900,
      "ni": 4901,
      "pink": 4902,
      "south": 4903,
      "tu": 4904,
      "tank": 4905,
      "wave": 4906,
      "ya": 4907,
      "inher": 4908,
      "inspir": 4909,
      "ass,": 4910,
      "ic.": 4911,
      "leep": 4912,
      "be,": 4913,
      "beat": 4914,
      "advent": 4915,
      "illust": 4916,
      "diplom": 4917,
      "meal": 4918,
      "overall": 4919,
      "spill": 4920,
      "pre-": 4921,
      "pregn": 4922,
      "disorder": 4923,
      "observed": 4924,
      "interpret": 4925,
      "right,": 4926,
      "guar": 4927,
      "Under": 4928,
      "Univers": 4929,
      "before,": 4930,
      "wards": 4931,
      "point,": 4932,
      "while,": 4933,
      "regist": 4934,
      "numer": 4935,
      "faces": 4936,
      "knife": 4937,
      "career": 4938,
      "north": 4939,
      "later.": 4940,
      "younger": 4941,
      "balance": 4942,
      "missed": 4943,
      "driver": 4944,
      "radi": 4945,
      "video": 4946,
      "history.": 4947,
      "failed": 4948,
      "Add": 4949,
      "sleeping": 4950,
      "currently": 4951,
      "motion": 4952,
      "Russia": 4953,
      "Finally,": 4954,
      "responsibility": 4955,
      "-in-": 4956,
      "emotional": 4957,
      "accident": 4958,
      "Report": 4959,
      "apparently": 4960,
      "shadow": 4961,
      "equipment": 4962,
      "Office": 4963,
      "\"My": 4964,
      "13.": 4965,
      "28": 4966,
      "AC": 4967,
      "Econom": 4968,
      "Ir": 4969,
      "OF": 4970,
      "bard": 4971,
      "g.": 4972,
      "gaz": 4973,
      "map": 4974,
      "n.": 4975,
      "pil": 4976,
      "rical": 4977,
      "tall": 4978,
      "wake": 4979,
      "inev": 4980,
      "theories": 4981,
      "reaction": 4982,
      "edges": 4983,
      "aly": 4984,
      "itarian": 4985,
      "abol": 4986,
      "ter,": 4987,
      "mode": 4988,
      "los": 4989,
      "loose": 4990,
      "one's": 4991,
      "ody": 4992,
      "astro": 4993,
      "ders": 4994,
      "Chic": 4995,
      "strang": 4996,
      "disappoint": 4997,
      "off,": 4998,
      "itect": 4999,
      "two-": 5000,
      "struggle": 5001,
      "adding": 5002,
      "rooms": 5003,
      "appears": 5004,
      "facing": 5005,
      "servative": 5006,
      "runs": 5007,
      "million,": 5008,
      "Marc": 5009,
      "iness,": 5010,
      "together,": 5011,
      "holds": 5012,
      "switch": 5013,
      "elements": 5014,
      "processing": 5015,
      "stitution": 5016,
      "Exped": 5017,
      "sales": 5018,
      "journey": 5019,
      "environmental": 5020,
      "glasses": 5021,
      "connected": 5022,
      "western": 5023,
      "soul": 5024,
      "CO2": 5025,
      "emerging": 5026,
      "battle": 5027,
      "multiple": 5028,
      "approximately": 5029,
      "Brazil": 5030,
      "1/": 5031,
      "90": 5032,
      "Clive": 5033,
      "Hur": 5034,
      "I,": 5035,
      "Irel": 5036,
      "Muse": 5037,
      "Sa": 5038,
      "Use": 5039,
      "cash": 5040,
      "eli": 5041,
      "harm": 5042,
      "na": 5043,
      "pa": 5044,
      "siz": 5045,
      "wet": 5046,
      "wound": 5047,
      "staring": 5048,
      "icy": 5049,
      "ices,": 5050,
      "etic": 5051,
      "unit": 5052,
      "peak": 5053,
      "email": 5054,
      "export": 5055,
      "exhib": 5056,
      "truck": 5057,
      "ways,": 5058,
      "otherwise": 5059,
      "things.": 5060,
      "spat": 5061,
      "bles": 5062,
      "formul": 5063,
      "sip": 5064,
      "poses": 5065,
      "She'd": 5066,
      "compon": 5067,
      "polar": 5068,
      "hand.": 5069,
      "heads": 5070,
      "differences": 5071,
      "writer": 5072,
      "pointed": 5073,
      "landsc": 5074,
      "men,": 5075,
      "leads": 5076,
      "distingu": 5077,
      "possibly": 5078,
      "planning": 5079,
      "Arab": 5080,
      "Army": 5081,
      "Commission": 5082,
      "gged": 5083,
      "fallen": 5084,
      "experienced": 5085,
      "existence": 5086,
      "post-": 5087,
      "causes": 5088,
      "professor": 5089,
      "logical": 5090,
      "enthusi": 5091,
      "cotton": 5092,
      "pushed": 5093,
      "frequently": 5094,
      "enjoyed": 5095,
      "administr": 5096,
      "universal": 5097,
      "long-term": 5098,
      "Wallace": 5099,
      "Society": 5100,
      "Jobs": 5101,
      "',": 5102,
      "-of-": 5103,
      "B.": 5104,
      "Glo": 5105,
      "IV": 5106,
      "Matt": 5107,
      "Old": 5108,
      "Paul": 5109,
      "Tom": 5110,
      "Up": 5111,
      "Val": 5112,
      "Zich": 5113,
      "ces.": 5114,
      "gor": 5115,
      "gate": 5116,
      "mile": 5117,
      "vul": 5118,
      "ved.": 5119,
      "vary": 5120,
      "whel": 5121,
      "anthro": 5122,
      "atically": 5123,
      "isation": 5124,
      "leve": 5125,
      "seed": 5126,
      "rolled": 5127,
      "susp": 5128,
      "sufficient": 5129,
      "mosp": 5130,
      "shirt": 5131,
      "come.": 5132,
      "geograph": 5133,
      "own.": 5134,
      "owned": 5135,
      "creative": 5136,
      "angle": 5137,
      "old,": 5138,
      "ogn": 5139,
      "applied": 5140,
      "Still,": 5141,
      "colors": 5142,
      "handle": 5143,
      "buying": 5144,
      "scop": 5145,
      "clock": 5146,
      "hole": 5147,
      "body.": 5148,
      "metal": 5149,
      "possibility": 5150,
      "talks": 5151,
      "stein": 5152,
      "shock": 5153,
      "falling": 5154,
      "countries,": 5155,
      "flood": 5156,
      "Leon": 5157,
      "majority": 5158,
      "ffici": 5159,
      "receive": 5160,
      "wonderful": 5161,
      "suggested": 5162,
      "Russell": 5163,
      "involve": 5164,
      "decisions": 5165,
      "philosopher": 5166,
      "smoke": 5167,
      "surprised": 5168,
      "revealed": 5169,
      "Despite": 5170,
      "magazine": 5171,
      "garden": 5172,
      "CSIS": 5173,
      "Travelport": 5174,
      "evalu": 5175,
      "Latin": 5176,
      "Google": 5177,
      "Jacob": 5178,
      "Museum": 5179,
      "\"a": 5180,
      "-to-": 5181,
      "Bu": 5182,
      "Cogn": 5183,
      "J.": 5184,
      "Lord": 5185,
      "Person": 5186,
      "Sal": 5187,
      "Swed": 5188,
      "cin": 5189,
      "dra": 5190,
      "flying": 5191,
      "gift": 5192,
      "ito": 5193,
      "ique": 5194,
      "loud": 5195,
      "ole": 5196,
      "patch": 5197,
      "ride": 5198,
      "uge": 5199,
      "vac": 5200,
      "err": 5201,
      "ented": 5202,
      "adult": 5203,
      "impossible": 5204,
      "liqu": 5205,
      "rival": 5206,
      "termin": 5207,
      "nest": 5208,
      "complain": 5209,
      "excess": 5210,
      "optim": 5211,
      "grab": 5212,
      "oked": 5213,
      "go.": 5214,
      "ureau": 5215,
      "others,": 5216,
      "thing,": 5217,
      "ums": 5218,
      "umph": 5219,
      "umped": 5220,
      "Child": 5221,
      "coat": 5222,
      "diseas": 5223,
      "brand": 5224,
      "ology,": 5225,
      "subst": 5226,
      "plays": 5227,
      "broken": 5228,
      "another.": 5229,
      "Secret": 5230,
      "woman,": 5231,
      "shoes": 5232,
      "damage": 5233,
      "money,": 5234,
      "trait": 5235,
      "countries.": 5236,
      "element": 5237,
      "minister": 5238,
      "bottle": 5239,
      "immun": 5240,
      "accepted": 5241,
      "grandmother": 5242,
      "decline": 5243,
      "mirror": 5244,
      "fingers": 5245,
      "twenty": 5246,
      "Clint": 5247,
      "conducted": 5248,
      "dominant": 5249,
      "Canad": 5250,
      "hurt": 5251,
      "distribution": 5252,
      "repeated": 5253,
      "lucky": 5254,
      "camera": 5255,
      "Instead,": 5256,
      "achieved": 5257,
      "false": 5258,
      "Department": 5259,
      "Cognitive": 5260,
      "\"When": 5261,
      "Au": 5262,
      "Elect": 5263,
      "Father": 5264,
      "San": 5265,
      "cow": 5266,
      "latter": 5267,
      "mail": 5268,
      "sque": 5269,
      "tong": 5270,
      "x,": 5271,
      "on-": 5272,
      "stom": 5273,
      "isher": 5274,
      "lemon": 5275,
      "ionally": 5276,
      "sea": 5277,
      "emiss": 5278,
      "diagno": 5279,
      "perm": 5280,
      "ists,": 5281,
      "manner": 5282,
      "gray": 5283,
      "bother": 5284,
      "It’s": 5285,
      "like,": 5286,
      "uded": 5287,
      "ary.": 5288,
      "contemporary": 5289,
      "gency": 5290,
      "ire,": 5291,
      "cerem": 5292,
      "headed": 5293,
      "headache": 5294,
      "ward,": 5295,
      "medic": 5296,
      "puts": 5297,
      "helping": 5298,
      "legisl": 5299,
      "approval": 5300,
      "secondary": 5301,
      "rush": 5302,
      "names": 5303,
      "prompt": 5304,
      "jobs": 5305,
      "sides": 5306,
      "ah,": 5307,
      "latest": 5308,
      "themselves.": 5309,
      "favour": 5310,
      "reduced": 5311,
      "sequent": 5312,
      "perfectly": 5313,
      "variable": 5314,
      "Korean": 5315,
      "machine": 5316,
      "location": 5317,
      "rapidly": 5318,
      "indeed": 5319,
      "Louise": 5320,
      "Putin": 5321,
      "Among": 5322,
      "trend": 5323,
      "DIY": 5324,
      "3)": 5325,
      "6-": 5326,
      "Amand": 5327,
      "Cour": 5328,
      "City": 5329,
      "Girl": 5330,
      "Hit": 5331,
      "Pan": 5332,
      "Pac": 5333,
      "Ral": 5334,
      "Time": 5335,
      "Will": 5336,
      "afr": 5337,
      "bid": 5338,
      "bra": 5339,
      "band,": 5340,
      "bilities": 5341,
      "efficient": 5342,
      "jump": 5343,
      "nail": 5344,
      "tough": 5345,
      "ue.": 5346,
      "insp": 5347,
      "eron": 5348,
      "restrict": 5349,
      "atmosp": 5350,
      "ensure": 5351,
      "ors,": 5352,
      "orial": 5353,
      "ar,": 5354,
      "ara": 5355,
      "ace.": 5356,
      "vet": 5357,
      "ide,": 5358,
      "cha": 5359,
      "am,": 5360,
      "absor": 5361,
      "all-": 5362,
      "haven": 5363,
      "explan": 5364,
      "gel": 5365,
      "worst": 5366,
      "ways.": 5367,
      "thing.": 5368,
      "overwhel": 5369,
      "blind": 5370,
      "phy": 5371,
      "portion": 5372,
      "posit": 5373,
      "partly": 5374,
      "calling": 5375,
      "commiss": 5376,
      "clothe": 5377,
      "architect": 5378,
      "power,": 5379,
      "decade": 5380,
      "So,": 5381,
      "Social": 5382,
      "nerv": 5383,
      "goti": 5384,
      "system.": 5385,
      "plane": 5386,
      "signed": 5387,
      "expans": 5388,
      "Comp": 5389,
      "succeed": 5390,
      "government,": 5391,
      "cultiv": 5392,
      "foods": 5393,
      "matters": 5394,
      "faster": 5395,
      "protection": 5396,
      "flowers": 5397,
      "existing": 5398,
      "expert": 5399,
      "wondered": 5400,
      "itself.": 5401,
      "stayed": 5402,
      "relationships": 5403,
      "Harvard": 5404,
      "principal": 5405,
      "define": 5406,
      "recognize": 5407,
      "sources": 5408,
      "sexual": 5409,
      "Israeli": 5410,
      "2009,": 5411,
      "Human": 5412,
      "suffer": 5413,
      "audience": 5414,
      "mechanism": 5415,
      "assumed": 5416,
      "launched": 5417,
      "College": 5418,
      "manipulator": 5419,
      "afternoon": 5420,
      "resources": 5421,
      "explained": 5422,
      "external": 5423,
      "dimens": 5424,
      "Boston": 5425,
      "theoretical": 5426,
      "stupid": 5427,
      "Ireland": 5428,
      "Zichen": 5429,
      "afraid": 5430,
      "\"There": 5431,
      "\"That's": 5432,
      "AM": 5433,
      "Bi": 5434,
      "CH": 5435,
      "E.": 5436,
      "Fed": 5437,
      "Made": 5438,
      "Sto": 5439,
      "gap": 5440,
      "hig": 5441,
      "hung": 5442,
      "nit": 5443,
      "nations": 5444,
      "sought": 5445,
      "tired": 5446,
      "wand": 5447,
      "infr": 5448,
      "ans,": 5449,
      "re-": 5450,
      "tober": 5451,
      "omi": 5452,
      "aces": 5453,
      "ading": 5454,
      "you.\"": 5455,
      "negoti": 5456,
      "commod": 5457,
      "fram": 5458,
      "ant.": 5459,
      "pled": 5460,
      "quar": 5461,
      "Indon": 5462,
      "go,": 5463,
      "boys": 5464,
      "pra": 5465,
      "Chiang": 5466,
      "phot": 5467,
      "did.": 5468,
      "afford": 5469,
      "attitude": 5470,
      "crimin": 5471,
      "ictory": 5472,
      "don’t": 5473,
      "ception": 5474,
      "happens": 5475,
      "happiness": 5476,
      "friend,": 5477,
      "ship,": 5478,
      "three-": 5479,
      "body,": 5480,
      "examples": 5481,
      "rule": 5482,
      "operating": 5483,
      "hypo": 5484,
      "Roy": 5485,
      "flower": 5486,
      "table,": 5487,
      "ences.": 5488,
      "immigr": 5489,
      "burden": 5490,
      "circle": 5491,
      "materials": 5492,
      "regarded": 5493,
      "About": 5494,
      "country,": 5495,
      "Islamic": 5496,
      "title": 5497,
      "aspects": 5498,
      "degrees": 5499,
      "female": 5500,
      "safety": 5501,
      "Catholic": 5502,
      "highest": 5503,
      "Indones": 5504,
      "GD": 5505,
      "Hill": 5506,
      "ION": 5507,
      "K.": 5508,
      "Ka": 5509,
      "PE": 5510,
      "Pen": 5511,
      "Str": 5512,
      "Women": 5513,
      "eld": 5514,
      "file": 5515,
      "ker": 5516,
      "s)": 5517,
      "tes": 5518,
      "vas": 5519,
      "vice": 5520,
      "wav": 5521,
      "thew": 5522,
      "thetic": 5523,
      "oul": 5524,
      "ess.": 5525,
      "height": 5526,
      "icts": 5527,
      "secre": 5528,
      "sector": 5529,
      "begun": 5530,
      "ace,": 5531,
      "cher": 5532,
      "conven": 5533,
      "urb": 5534,
      "soap": 5535,
      "extens": 5536,
      "ants,": 5537,
      "plus": 5538,
      "posure": 5539,
      "art,": 5540,
      "end.": 5541,
      "Health": 5542,
      "club": 5543,
      "elimin": 5544,
      "um,": 5545,
      "somewhat": 5546,
      "Chan": 5547,
      "creation": 5548,
      "Three": 5549,
      "days.": 5550,
      "coast": 5551,
      "brick": 5552,
      "intent": 5553,
      "offers": 5554,
      "ition,": 5555,
      "corp": 5556,
      "corrupt": 5557,
      "visual": 5558,
      "visited": 5559,
      "struck": 5560,
      "landing": 5561,
      "attered": 5562,
      "Associ": 5563,
      "margin": 5564,
      "maxim": 5565,
      "parad": 5566,
      "treated": 5567,
      "line,": 5568,
      "busy": 5569,
      "kinds": 5570,
      "school.": 5571,
      "join": 5572,
      "moments": 5573,
      "equival": 5574,
      "Prof": 5575,
      "lips": 5576,
      "medium": 5577,
      "bott": 5578,
      "remaining": 5579,
      "appearance": 5580,
      "discussion": 5581,
      "Jesu": 5582,
      "models": 5583,
      "scream": 5584,
      "square": 5585,
      "societies": 5586,
      "Austral": 5587,
      "fighting": 5588,
      "Satur": 5589,
      "fixed": 5590,
      "victim": 5591,
      "nineteenth": 5592,
      "ensus": 5593,
      "mathemat": 5594,
      "honest": 5595,
      "Beijing": 5596,
      "Malay": 5597,
      "October": 5598,
      "Matthew": 5599,
      "adopted": 5600,
      "February": 5601,
      "guarante": 5602,
      "\"H": 5603,
      "Mem": 5604,
      "Sem": 5605,
      "Shi": 5606,
      "Ve": 5607,
      "Viet": 5608,
      "damp": 5609,
      "fuel": 5610,
      "ib": 5611,
      "iest": 5612,
      "karm": 5613,
      "mort": 5614,
      "mask": 5615,
      "nom": 5616,
      "rust": 5617,
      "taste": 5618,
      "ved,": 5619,
      "zo": 5620,
      "“the": 5621,
      "army": 5622,
      "ite,": 5623,
      "begins": 5624,
      "ched": 5625,
      "champ": 5626,
      "vere": 5627,
      "uted": 5628,
      "iron": 5629,
      "modi": 5630,
      "moist": 5631,
      "agement": 5632,
      "agric": 5633,
      "loop": 5634,
      "extract": 5635,
      "oph": 5636,
      "pros": 5637,
      "prospect": 5638,
      "noted": 5639,
      "perman": 5640,
      "plate": 5641,
      "quir": 5642,
      "but,": 5643,
      "upper": 5644,
      "dozen": 5645,
      "bodi": 5646,
      "spin": 5647,
      "ake.": 5648,
      "Through": 5649,
      "disappeared": 5650,
      "angular": 5651,
      "sible": 5652,
      "offering": 5653,
      "oblig": 5654,
      "attribut": 5655,
      "internal": 5656,
      "background": 5657,
      "jection": 5658,
      "light.": 5659,
      "around.": 5660,
      "friends.": 5661,
      "schools": 5662,
      "Represent": 5663,
      "months,": 5664,
      "Europe.": 5665,
      "classical": 5666,
      "shook": 5667,
      "researchers": 5668,
      "money.": 5669,
      "naturally": 5670,
      "supported": 5671,
      "meetings": 5672,
      "\"You're": 5673,
      "cups": 5674,
      "costs": 5675,
      "objects": 5676,
      "destin": 5677,
      "represented": 5678,
      "finger": 5679,
      "Christianity": 5680,
      "entertain": 5681,
      "letters": 5682,
      "debt": 5683,
      "poetry": 5684,
      "ING": 5685,
      "Central": 5686,
      "century.": 5687,
      "O'Ke": 5688,
      "techniques": 5689,
      "Windows": 5690,
      "Committee": 5691,
      "stomach": 5692,
      "agricult": 5693,
      "'s.": 5694,
      "-the": 5695,
      "27": 5696,
      "35": 5697,
      "Ass": 5698,
      "IM": 5699,
      "Lad": 5700,
      "Low": 5701,
      "Mag": 5702,
      "Mother": 5703,
      "Nav": 5704,
      "Niger": 5705,
      "Offic": 5706,
      "PC": 5707,
      "Right": 5708,
      "Sand": 5709,
      "Spe": 5710,
      "Span": 5711,
      "Whe": 5712,
      "iat": 5713,
      "pitch": 5714,
      "rick": 5715,
      "til": 5716,
      "till": 5717,
      "ux": 5718,
      "uous": 5719,
      "yester": 5720,
      "‘‘": 5721,
      "an's": 5722,
      "ors.": 5723,
      "it,\"": 5724,
      "as.": 5725,
      "lets": 5726,
      "see,": 5727,
      "beer": 5728,
      "urban": 5729,
      "ulty": 5730,
      "soil": 5731,
      "ress.": 5732,
      "perce": 5733,
      "antly": 5734,
      "by,": 5735,
      "plent": 5736,
      "poem": 5737,
      "button": 5738,
      "acts": 5739,
      "prices": 5740,
      "nobody": 5741,
      "what's": 5742,
      "preser": 5743,
      "190": 5744,
      "aven": 5745,
      "crum": 5746,
      "serving": 5747,
      "desert": 5748,
      "effe": 5749,
      "chosen": 5750,
      "ology.": 5751,
      "identified": 5752,
      "20th": 5753,
      "regional": 5754,
      "reality": 5755,
      "install": 5756,
      "fewer": 5757,
      "cycle": 5758,
      "finds": 5759,
      "incredi": 5760,
      "planet": 5761,
      "Marx": 5762,
      "profound": 5763,
      "hair.": 5764,
      "refuge": 5765,
      "annual": 5766,
      "promise": 5767,
      "walls": 5768,
      "either.": 5769,
      "drew": 5770,
      "elsewhere": 5771,
      "programs": 5772,
      "bringing": 5773,
      "risks": 5774,
      "typical": 5775,
      "links": 5776,
      "Juli": 5777,
      "dressed": 5778,
      "investigation": 5779,
      "royal": 5780,
      "remarkable": 5781,
      "crisis": 5782,
      "surrounding": 5783,
      "candid": 5784,
      "century,": 5785,
      "constantly": 5786,
      "barely": 5787,
      "advantage": 5788,
      "pocket": 5789,
      "appropriate": 5790,
      "Global": 5791,
      "O'Keeffe": 5792,
      "\"In": 5793,
      "(18": 5794,
      "48": 5795,
      "Again": 5796,
      "Gl": 5797,
      "Him": 5798,
      "Iron": 5799,
      "Lingu": 5800,
      "RE": 5801,
      "Reven": 5802,
      "Rather": 5803,
      "Was": 5804,
      "cular": 5805,
      "ie,": 5806,
      "ner.": 5807,
      "oh": 5808,
      "pit": 5809,
      "s'": 5810,
      "sits": 5811,
      "tap": 5812,
      "waste": 5813,
      "yog": 5814,
      "ones,": 5815,
      "remove": 5816,
      "oring": 5817,
      "alone,": 5818,
      "arrest": 5819,
      "esh": 5820,
      "hearing": 5821,
      "beach": 5822,
      "implic": 5823,
      "amoun": 5824,
      "eter": 5825,
      "are.": 5826,
      "agency": 5827,
      "lob": 5828,
      "decor": 5829,
      "peop": 5830,
      "soph": 5831,
      "haust": 5832,
      "proto": 5833,
      "notion": 5834,
      "tea": 5835,
      "worse": 5836,
      "ments.": 5837,
      "aster": 5838,
      "igno": 5839,
      "said:": 5840,
      "assy": 5841,
      "attended": 5842,
      "desir": 5843,
      "handed": 5844,
      "books,": 5845,
      "Union": 5846,
      "light,": 5847,
      "land.": 5848,
      "feelings": 5849,
      "carefully": 5850,
      "Secur": 5851,
      "cutting": 5852,
      "love,": 5853,
      "bigger": 5854,
      "ordered": 5855,
      "classes": 5856,
      "God,": 5857,
      "memories": 5858,
      "waited": 5859,
      "Roth": 5860,
      "anything.": 5861,
      "processes": 5862,
      "imagin": 5863,
      "remembered": 5864,
      "horiz": 5865,
      "history,": 5866,
      "double": 5867,
      "cleaning": 5868,
      "winning": 5869,
      "focused": 5870,
      "attempts": 5871,
      "Trans": 5872,
      "drinking": 5873,
      "surprising": 5874,
      "contains": 5875,
      "previously": 5876,
      "Iranian": 5877,
      "Minist": 5878,
      "houses": 5879,
      "client": 5880,
      "\"No,": 5881,
      "dramatic": 5882,
      "settled": 5883,
      "terrible": 5884,
      "idelines": 5885,
      "academic": 5886,
      "colonial": 5887,
      "totally": 5888,
      "liquid": 5889,
      "\"F": 5890,
      "\"Y": 5891,
      "Bro": 5892,
      "Du": 5893,
      "Del": 5894,
      "Eva": 5895,
      "Jer": 5896,
      "M.": 5897,
      "Times": 5898,
      "Van": 5899,
      "Vol": 5900,
      "Wo": 5901,
      "bone": 5902,
      "bomb": 5903,
      "couch": 5904,
      "ec": 5905,
      "hic": 5906,
      "ibility": 5907,
      "pens": 5908,
      "s\"": 5909,
      "s?": 5910,
      "inf": 5911,
      "removed": 5912,
      "orous": 5913,
      "ings,": 5914,
      "itz": 5915,
      "lex": 5916,
      "sevent": 5917,
      "vegan": 5918,
      "root": 5919,
      "unlike": 5920,
      "unable": 5921,
      "sham": 5922,
      "shir": 5923,
      "ulpt": 5924,
      "sovere": 5925,
      "performed": 5926,
      "else.": 5927,
      "phr": 5928,
      "disput": 5929,
      "brilli": 5930,
      "ritual": 5931,
      "centuries": 5932,
      "however": 5933,
      "rent": 5934,
      "choices": 5935,
      "remote": 5936,
      "trigg": 5937,
      "angel": 5938,
      "sculpt": 5939,
      "child,": 5940,
      "generate": 5941,
      "suppose": 5942,
      "founded": 5943,
      "pression": 5944,
      "approved": 5945,
      "completed": 5946,
      "missing": 5947,
      "ricorn": 5948,
      "interests": 5949,
      "drove": 5950,
      "extended": 5951,
      "continues": 5952,
      "advanced": 5953,
      "domain": 5954,
      "fool": 5955,
      "authorities": 5956,
      "policies": 5957,
      "death.": 5958,
      "receiving": 5959,
      "properties": 5960,
      "discussed": 5961,
      "civiliz": 5962,
      "Everyone": 5963,
      "States.": 5964,
      "Teacher": 5965,
      "Poland": 5966,
      "benefits": 5967,
      "debate": 5968,
      "battery": 5969,
      "obviously": 5970,
      "mentioned": 5971,
      "corporate": 5972,
      "Capricorn": 5973,
      "molecul": 5974,
      "murder": 5975,
      "organizations": 5976,
      "accomplish": 5977,
      "budget": 5978,
      "enormous": 5979,
      "Microsoft": 5980,
      "excellent": 5981,
      "vulner": 5982,
      "Clinton": 5983,
      "Hitler": 5984,
      "Vietnam": 5985,
      "sovereign": 5986,
      "(N": 5987,
      "11,": 5988,
      "5-": 5989,
      "A,": 5990,
      "BIT": 5991,
      "Did": 5992,
      "Dex": 5993,
      "Hand": 5994,
      "Hay": 5995,
      "Jane": 5996,
      "Mi": 5997,
      "TO": 5998,
      "bart": 5999,
      "eager": 6000,
      "effici": 6001,
      "glow": 6002,
      "tact": 6003,
      "tempt": 6004,
      "twel": 6005,
      "uk": 6006,
      "ww": 6007,
      "ines.": 6008,
      "infer": 6009,
      "angry": 6010,
      "reform": 6011,
      "recall": 6012,
      "editor": 6013,
      "stable": 6014,
      "secut": 6015,
      "admir": 6016,
      "ider": 6017,
      "implement": 6018,
      "rog": 6019,
      "roof": 6020,
      "amin": 6021,
      "sustain": 6022,
      "cture": 6023,
      "modynam": 6024,
      "emin": 6025,
      "notes": 6026,
      "tears": 6027,
      "el,": 6028,
      "ives,": 6029,
      "preced": 6030,
      "eping": 6031,
      "ful,": 6032,
      "fulfill": 6033,
      "adequ": 6034,
      "desc": 6035,
      "correspond": 6036,
      "flash": 6037,
      "much.": 6038,
      "scal": 6039,
      "regions": 6040,
      "What's": 6041,
      "cheer": 6042,
      "supp": 6043,
      "surely": 6044,
      "thoughts": 6045,
      "war,": 6046,
      "warned": 6047,
      "No,": 6048,
      "streets": 6049,
      "law,": 6050,
      "mind,": 6051,
      "tests": 6052,
      "God.": 6053,
      "profit": 6054,
      "ground.": 6055,
      "characters": 6056,
      "officer": 6057,
      "allows": 6058,
      "himself.": 6059,
      "promised": 6060,
      "Work": 6061,
      "imagined": 6062,
      "silver": 6063,
      "road,": 6064,
      "property": 6065,
      "claims": 6066,
      "burst": 6067,
      "judicial": 6068,
      "alien": 6069,
      "addition,": 6070,
      "scrub": 6071,
      "2008.": 6072,
      "society.": 6073,
      "fifteen": 6074,
      "Gener": 6075,
      "convin": 6076,
      "lifet": 6077,
      "conference": 6078,
      "acknowled": 6079,
      "whisper": 6080,
      "neighbour": 6081,
      "Virgin": 6082,
      "Raley": 6083,
      "inspired": 6084,
      "Spanish": 6085,
      "plenty": 6086,
      "Revenue": 6087,
      "(4": 6088,
      "(198": 6089,
      "Bl": 6090,
      "Center": 6091,
      "EL": 6092,
      "EBIT": 6093,
      "ID": 6094,
      "Jim": 6095,
      "Men": 6096,
      "Mad": 6097,
      "Ox": 6098,
      "UK": 6099,
      "hated": 6100,
      "ious.": 6101,
      "jan": 6102,
      "jur": 6103,
      "pian": 6104,
      "pale": 6105,
      "zon": 6106,
      "¨¦": 6107,
      "eric": 6108,
      "theless,": 6109,
      "ates,": 6110,
      "oral": 6111,
      "itim": 6112,
      "itter": 6113,
      "aside": 6114,
      "icon": 6115,
      "beard": 6116,
      "achel": 6117,
      "ads": 6118,
      "chron": 6119,
      "impul": 6120,
      "utes": 6121,
      "util": 6122,
      "therap": 6123,
      "unlikely": 6124,
      "cel": 6125,
      "rip": 6126,
      "abul": 6127,
      "ares": 6128,
      "agg": 6129,
      "pel": 6130,
      "sharing": 6131,
      "extr": 6132,
      "exposure": 6133,
      "exhaust": 6134,
      "persu": 6135,
      "ist.": 6136,
      "acted": 6137,
      "myth": 6138,
      "doctor": 6139,
      "gos": 6140,
      "own,": 6141,
      "over.": 6142,
      "times.": 6143,
      "somebody": 6144,
      "anywhere": 6145,
      "thank": 6146,
      "coordin": 6147,
      "red,": 6148,
      "polog": 6149,
      "desper": 6150,
      "awk": 6151,
      "muse": 6152,
      "carri": 6153,
      "hands.": 6154,
      "goods": 6155,
      "2015": 6156,
      "drag": 6157,
      "thought.": 6158,
      "cycl": 6159,
      "engaged": 6160,
      "nights": 6161,
      "legitim": 6162,
      "arrass": 6163,
      "autism": 6164,
      "mean,": 6165,
      "Section": 6166,
      "love.": 6167,
      "Europe,": 6168,
      "falls": 6169,
      "analog": 6170,
      "anny": 6171,
      "magn": 6172,
      "ency,": 6173,
      "returning": 6174,
      "personality": 6175,
      "packed": 6176,
      "smooth": 6177,
      "touched": 6178,
      "crazy": 6179,
      "devoted": 6180,
      "banks": 6181,
      "frequency": 6182,
      "Georg": 6183,
      "Sunday": 6184,
      "secure": 6185,
      "satisf": 6186,
      "analyst": 6187,
      "folded": 6188,
      "surrounded": 6189,
      "commitment": 6190,
      "graduate": 6191,
      "adults": 6192,
      "library": 6193,
      "Jewish": 6194,
      "chicken": 6195,
      "Afghanistan": 6196,
      "obesity": 6197,
      "substantial": 6198,
      "Academy": 6199,
      "Irish": 6200,
      "sophistic": 6201,
      "convinced": 6202,
      "EBITDA": 6203,
      "\"Don't": 6204,
      "'s,": 6205,
      ".'": 6206,
      "/or": 6207,
      "400": 6208,
      "Amade": 6209,
      "Cron": 6210,
      "Dome": 6211,
      "EM": 6212,
      "Eng": 6213,
      "Hot": 6214,
      "Jour": 6215,
      "Port": 6216,
      "Pho": 6217,
      "Sur": 6218,
      "Spain": 6219,
      "Saling": 6220,
      "Ted": 6221,
      "Vern": 6222,
      "Walk": 6223,
      "city.": 6224,
      "dan": 6225,
      "done.": 6226,
      "fought": 6227,
      "gay": 6228,
      "trem": 6229,
      "u,": 6230,
      "wast": 6231,
      "era": 6232,
      "theat": 6233,
      "reas": 6234,
      "enlight": 6235,
      "alarm": 6236,
      "alone.": 6237,
      "ar.": 6238,
      "item": 6239,
      "acing": 6240,
      "accord": 6241,
      "ad,": 6242,
      "ghost": 6243,
      "losing": 6244,
      "shr": 6245,
      "ematic": 6246,
      "so-": 6247,
      "fest": 6248,
      "exped": 6249,
      "trained": 6250,
      "resid": 6251,
      "resident": 6252,
      "persist": 6253,
      "butter": 6254,
      "uster": 6255,
      "asts": 6256,
      "Helen": 6257,
      "proud": 6258,
      "were,": 6259,
      "elabor": 6260,
      "es,\"": 6261,
      "cking": 6262,
      "prem": 6263,
      "newly": 6264,
      "intense": 6265,
      "forever": 6266,
      "time-": 6267,
      "fault": 6268,
      "ian,": 6269,
      "enses": 6270,
      "buck": 6271,
      "mother.": 6272,
      "less.": 6273,
      "foundation": 6274,
      "solar": 6275,
      "Christians": 6276,
      "priest": 6277,
      "governments": 6278,
      "empire": 6279,
      "listening": 6280,
      "voices": 6281,
      "refused": 6282,
      "allowing": 6283,
      "promot": 6284,
      "describes": 6285,
      "fields": 6286,
      "advance": 6287,
      "Lee": 6288,
      "figured": 6289,
      "closely": 6290,
      "horse": 6291,
      "cognitive": 6292,
      "objective": 6293,
      "accounts": 6294,
      "definite": 6295,
      "heavily": 6296,
      "company,": 6297,
      "Berlin": 6298,
      "massive": 6299,
      "Holy": 6300,
      "fairly": 6301,
      "gentle": 6302,
      "routine": 6303,
      "Edward": 6304,
      "application": 6305,
      "2012.": 6306,
      "Caroline": 6307,
      "hanging": 6308,
      "gathered": 6309,
      "embarrass": 6310,
      "dangerous": 6311,
      "giant": 6312,
      "escape": 6313,
      "Green": 6314,
      "Street": 6315,
      "stimul": 6316,
      "amazing": 6317,
      "fierce": 6318,
      "hesit": 6319,
      "spatial": 6320,
      "scopic": 6321,
      "Pacific": 6322,
      "\"That": 6323,
      "(C": 6324,
      "(T": 6325,
      "(Fig.": 6326,
      "Brad": 6327,
      "CE": 6328,
      "Cold": 6329,
      "Find": 6330,
      "Gold": 6331,
      "Hal": 6332,
      "Kate": 6333,
      "Mor": 6334,
      "Mand": 6335,
      "Mill": 6336,
      "Mass": 6337,
      "Mick": 6338,
      "Mount": 6339,
      "NAS": 6340,
      "Nathan": 6341,
      "Oper": 6342,
      "Son": 6343,
      "Sol": 6344,
      "Vill": 6345,
      "Water": 6346,
      "bask": 6347,
      "furn": 6348,
      "fright": 6349,
      "i's": 6350,
      "mic": 6351,
      "mph": 6352,
      "rice": 6353,
      "rating": 6354,
      "sne": 6355,
      "tort": 6356,
      "tie": 6357,
      "tub": 6358,
      "wire": 6359,
      "zing": 6360,
      "“I": 6361,
      "inct": 6362,
      "ancy": 6363,
      "rever": 6364,
      "regre": 6365,
      "reward": 6366,
      "reput": 6367,
      "als.": 6368,
      "and/or": 6369,
      "ess,": 6370,
      "items": 6371,
      "asleep": 6372,
      "icious": 6373,
      "acle": 6374,
      "chant": 6375,
      "imes,": 6376,
      "sul": 6377,
      "superi": 6378,
      "abstr": 6379,
      "urs": 6380,
      "keys": 6381,
      "me.\"": 6382,
      "teeth": 6383,
      "art.": 6384,
      "aston": 6385,
      "owner": 6386,
      "ers'": 6387,
      "spark": 6388,
      "whenever": 6389,
      "crew": 6390,
      "cents": 6391,
      "low-": 6392,
      "parties": 6393,
      "air,": 6394,
      "crush": 6395,
      "flour": 6396,
      "carpet": 6397,
      "tries": 6398,
      "cess,": 6399,
      "asked,": 6400,
      "Uncle": 6401,
      "scow": 6402,
      "powder": 6403,
      "friendly": 6404,
      "pressing": 6405,
      "men.": 6406,
      "words.": 6407,
      "No.": 6408,
      "sense,": 6409,
      "Atl": 6410,
      "harder": 6411,
      "calories": 6412,
      "markets": 6413,
      "steel": 6414,
      "change.": 6415,
      "name.": 6416,
      "God's": 6417,
      "divided": 6418,
      "characteristic": 6419,
      "trading": 6420,
      "papers": 6421,
      "controlled": 6422,
      "language,": 6423,
      "silence": 6424,
      "educational": 6425,
      "Without": 6426,
      "table.": 6427,
      "colleag": 6428,
      "subjects": 6429,
      "climb": 6430,
      "confident": 6431,
      "concepts": 6432,
      "herself.": 6433,
      "aneous": 6434,
      "necessarily": 6435,
      "brothers": 6436,
      "logic": 6437,
      "selling": 6438,
      "televis": 6439,
      "Polish": 6440,
      "strip": 6441,
      "System": 6442,
      "machines": 6443,
      "extraordinary": 6444,
      "opportunities": 6445,
      "attractive": 6446,
      "First,": 6447,
      "distinction": 6448,
      "Group": 6449,
      "satisfact": 6450,
      "strategy": 6451,
      "leaned": 6452,
      "witness": 6453,
      "birds": 6454,
      "punish": 6455,
      "Torval": 6456,
      "Amanda": 6457,
      "equivalent": 6458,
      "Security": 6459,
      "Nathaniel": 6460,
      "(which": 6461,
      "1).": 6462,
      "Age": 6463,
      "Da": 6464,
      "Fore": 6465,
      "Ice": 6466,
      "Ilan": 6467,
      "Little": 6468,
      "Met": 6469,
      "Mun": 6470,
      "Py": 6471,
      "Pent": 6472,
      "aes": 6473,
      "d.": 6474,
      "hide": 6475,
      "mac": 6476,
      "sis": 6477,
      "tun": 6478,
      "thre": 6479,
      "incent": 6480,
      "theast": 6481,
      "rep": 6482,
      "alli": 6483,
      "armed": 6484,
      "icate": 6485,
      "id,": 6486,
      "liament": 6487,
      "etch": 6488,
      "pept": 6489,
      "output": 6490,
      "proof": 6491,
      "permut": 6492,
      "grass": 6493,
      "oky": 6494,
      "astru": 6495,
      "earning": 6496,
      "boom": 6497,
      "pread": 6498,
      "Ange": 6499,
      "twist": 6500,
      "brow": 6501,
      "context": 6502,
      "ing,\"": 6503,
      "specul": 6504,
      "tension": 6505,
      "And,": 6506,
      "Stu": 6507,
      "car,": 6508,
      "thinks": 6509,
      "smil": 6510,
      "scene": 6511,
      "facts": 6512,
      "father.": 6513,
      "velop": 6514,
      "starts": 6515,
      "2007": 6516,
      "courage": 6517,
      "something,": 6518,
      "charged": 6519,
      "studying": 6520,
      "insight": 6521,
      "distant": 6522,
      "bedroom": 6523,
      "group,": 6524,
      "enough,": 6525,
      "door,": 6526,
      "hair,": 6527,
      "nearby": 6528,
      "characteristics": 6529,
      "150": 6530,
      "himself,": 6531,
      "description": 6532,
      "country's": 6533,
      "supporting": 6534,
      "today,": 6535,
      "depends": 6536,
      "bene": 6537,
      "myself.": 6538,
      "husband,": 6539,
      "paying": 6540,
      "windows": 6541,
      "films": 6542,
      "declared": 6543,
      "Barack": 6544,
      "judge": 6545,
      "representing": 6546,
      "motiv": 6547,
      "secretary": 6548,
      "Everything": 6549,
      "resulting": 6550,
      "combination": 6551,
      "seriously": 6552,
      "consistent": 6553,
      "Party": 6554,
      "referred": 6555,
      "paintings": 6556,
      "relief": 6557,
      "article": 6558,
      "liberal": 6559,
      "makers": 6560,
      "Similar": 6561,
      "credit": 6562,
      "Franklin": 6563,
      "pillow": 6564,
      "iveness": 6565,
      "Today": 6566,
      "weapons": 6567,
      "Remember": 6568,
      "Sarah": 6569,
      "Later,": 6570,
      "specifically": 6571,
      "grapher": 6572,
      "ureaucr": 6573,
      "squee": 6574,
      "Whether": 6575,
      "\"N": 6576,
      "\"P": 6577,
      "2-": 6578,
      "99": 6579,
      "AD": 6580,
      "Bal": 6581,
      "Cross": 6582,
      "Four": 6583,
      "Fort": 6584,
      "Hard": 6585,
      "I.": 6586,
      "UB": 6587,
      "bits": 6588,
      "eleg": 6589,
      "fired": 6590,
      "gently": 6591,
      "hap": 6592,
      "k,": 6593,
      "lat": 6594,
      "male": 6595,
      "nast": 6596,
      "tum": 6597,
      "tape": 6598,
      "tissue": 6599,
      "wine": 6600,
      "yield": 6601,
      "thigh": 6602,
      "retain": 6603,
      "repor": 6604,
      "replaced": 6605,
      "ora": 6606,
      "ing:": 6607,
      "toile": 6608,
      "it:": 6609,
      "it?\"": 6610,
      "asp": 6611,
      "asy": 6612,
      "ica": 6613,
      "leen": 6614,
      "selection": 6615,
      "ils": 6616,
      "imit": 6617,
      "lives.": 6618,
      "likes": 6619,
      "ira": 6620,
      "unexpected": 6621,
      "suic": 6622,
      "condem": 6623,
      "conservative": 6624,
      "agan": 6625,
      "locked": 6626,
      "neut": 6627,
      "we'd": 6628,
      "pe.": 6629,
      "shore": 6630,
      "feat": 6631,
      "dign": 6632,
      "district": 6633,
      "peror": 6634,
      "pole": 6635,
      "pover": 6636,
      "quit": 6637,
      "manage": 6638,
      "ments,": 6639,
      "sheet": 6640,
      "they'll": 6641,
      "cream": 6642,
      "phones": 6643,
      "old.": 6644,
      "did,": 6645,
      "readers": 6646,
      "know.": 6647,
      "St.": 6648,
      "Stan": 6649,
      "cars": 6650,
      "athy": 6651,
      "puzz": 6652,
      "triumph": 6653,
      "handful": 6654,
      "ocaust": 6655,
      "stands": 6656,
      "shouldn't": 6657,
      "submar": 6658,
      "Force": 6659,
      "simul": 6660,
      "lands": 6661,
      "cyber": 6662,
      "facilities": 6663,
      "See": 6664,
      "humans": 6665,
      "week.": 6666,
      "steam": 6667,
      "deploy": 6668,
      "ator,": 6669,
      "increases": 6670,
      "structures": 6671,
      "promote": 6672,
      "moment.": 6673,
      "elected": 6674,
      "wall.": 6675,
      "advice": 6676,
      "wrapped": 6677,
      "general,": 6678,
      "itself,": 6679,
      "rocket": 6680,
      "Africa,": 6681,
      "definition": 6682,
      "dealing": 6683,
      "holiday": 6684,
      "brother,": 6685,
      "earlier,": 6686,
      "Buddhis": 6687,
      "competition": 6688,
      "consult": 6689,
      "southern": 6690,
      "strengthen": 6691,
      "AND": 6692,
      "housing": 6693,
      "experimental": 6694,
      "criticism": 6695,
      "railway": 6696,
      "spiritual": 6697,
      "insisted": 6698,
      "estimated": 6699,
      "doctr": 6700,
      "symptom": 6701,
      "Linux": 6702,
      "complicated": 6703,
      "phase": 6704,
      "preparing": 6705,
      "Micha": 6706,
      "Thomas": 6707,
      "nutrition": 6708,
      "procedure": 6709,
      "circumstances": 6710,
      "anthropolog": 6711,
      "nervous": 6712,
      "expansion": 6713,
      "infrastru": 6714,
      "prosper": 6715,
      "Rothbard": 6716,
      "Amadeus": 6717,
      "Journal": 6718,
      "beneath": 6719,
      "\"Why": 6720,
      "(I": 6721,
      "-B": 6722,
      "31": 6723,
      "3:": 6724,
      "Arist": 6725,
      "Bes": 6726,
      "Cult": 6727,
      "Cape": 6728,
      "Di": 6729,
      "Dian": 6730,
      "Diet": 6731,
      "Fat": 6732,
      "Gor": 6733,
      "Hong": 6734,
      "Hatt": 6735,
      "MO": 6736,
      "Post": 6737,
      "Ram": 6738,
      "Sw": 6739,
      "Shor": 6740,
      "Ver": 6741,
      "Wed": 6742,
      "baff": 6743,
      "bunch": 6744,
      "bureaucr": 6745,
      "gal": 6746,
      "hr": 6747,
      "lav": 6748,
      "mi": 6749,
      "pour": 6750,
      "pine": 6751,
      "sized": 6752,
      "ty,": 6753,
      "ty.": 6754,
      "’,": 6755,
      "thy": 6756,
      "thors": 6757,
      "resem": 6758,
      "stab": 6759,
      "als,": 6760,
      "alive": 6761,
      "algor": 6762,
      "towel": 6763,
      "leather": 6764,
      "semin": 6765,
      "admit": 6766,
      "adopt": 6767,
      "adapt": 6768,
      "etern": 6769,
      "sus": 6770,
      "youth": 6771,
      "agencies": 6772,
      "neuro": 6773,
      "shor": 6774,
      "come,": 6775,
      "used,": 6776,
      "aine": 6777,
      "opposition": 6778,
      "resc": 6779,
      "ounce": 6780,
      "ge.": 6781,
      "geomet": 6782,
      "grave": 6783,
      "ifi": 6784,
      "saving": 6785,
      "goals": 6786,
      "acks": 6787,
      "umn": 6788,
      "umin": 6789,
      "umping": 6790,
      "estin": 6791,
      "crete": 6792,
      "Thus,": 6793,
      "But,": 6794,
      "contained": 6795,
      "She's": 6796,
      "air.": 6797,
      "thrill": 6798,
      "collap": 6799,
      "colored": 6800,
      "glor": 6801,
      "glanced": 6802,
      "choo": 6803,
      "guide": 6804,
      "asks": 6805,
      "Unlike": 6806,
      "good-": 6807,
      "shoulder": 6808,
      "relax": 6809,
      "consists": 6810,
      "publish": 6811,
      "drunk": 6812,
      "ships": 6813,
      "borrow": 6814,
      "Bell": 6815,
      "limb": 6816,
      "another,": 6817,
      "Constitution": 6818,
      "aze": 6819,
      "Alter": 6820,
      "metaph": 6821,
      "ually,": 6822,
      "cript": 6823,
      "women,": 6824,
      "topic": 6825,
      "technique": 6826,
      "minds": 6827,
      "problem.": 6828,
      "purpo": 6829,
      "lots": 6830,
      "organized": 6831,
      "gging": 6832,
      "experiences": 6833,
      "Northern": 6834,
      "job,": 6835,
      "floor.": 6836,
      "practices": 6837,
      "wife.": 6838,
      "magic": 6839,
      "muscle": 6840,
      "figur": 6841,
      "campus": 6842,
      "languages": 6843,
      "reaching": 6844,
      "argued": 6845,
      "sweat": 6846,
      "\"Well,": 6847,
      "future.": 6848,
      "measures": 6849,
      "confess": 6850,
      "confidence": 6851,
      "judg": 6852,
      "Eastern": 6853,
      "Cook": 6854,
      "linked": 6855,
      "striking": 6856,
      "explore": 6857,
      "alternative": 6858,
      "mistake": 6859,
      "contributed": 6860,
      "rolling": 6861,
      "hoped": 6862,
      "Moreover,": 6863,
      "bathroom": 6864,
      "i.e.": 6865,
      "delivered": 6866,
      "copy": 6867,
      "strategic": 6868,
      "Churchill": 6869,
      "Holocaust": 6870,
      "ticket": 6871,
      "Daniel": 6872,
      "categories": 6873,
      "hidden": 6874,
      "ventilation": 6875,
      "attached": 6876,
      "sacri": 6877,
      "conventional": 6878,
      "Francisco": 6879,
      "Chicago": 6880,
      "Secretary": 6881,
      "Royal": 6882,
      "Chanel": 6883,
      "neutral": 6884,
      "algorith": 6885,
      "-time": 6886,
      "3).": 6887,
      "Bow": 6888,
      "Bab": 6889,
      "Equ": 6890,
      "Hans": 6891,
      "ST": 6892,
      "Syl": 6893,
      "Tex": 6894,
      "Turn": 6895,
      "Toky": 6896,
      "gs": 6897,
      "gif": 6898,
      "gained": 6899,
      "k.": 6900,
      "mmet": 6901,
      "mitted": 6902,
      "rance": 6903,
      "scan": 6904,
      "ti": 6905,
      "tou": 6906,
      "viv": 6907,
      "vote": 6908,
      "ye": 6909,
      "ones.": 6910,
      "rein": 6911,
      "ed-": 6912,
      "alo": 6913,
      "alleg": 6914,
      "assem": 6915,
      "icing": 6916,
      "beef": 6917,
      "entit": 6918,
      "aced": 6919,
      "adi": 6920,
      "ador": 6921,
      "thermodynam": 6922,
      "celer": 6923,
      "contrad": 6924,
      "mood": 6925,
      "excit": 6926,
      "exceed": 6927,
      "usive": 6928,
      "respir": 6929,
      "ants.": 6930,
      "worn": 6931,
      "worship": 6932,
      "doors": 6933,
      "astron": 6934,
      "cancer": 6935,
      "who,": 6936,
      "Whatever": 6937,
      "udes": 6938,
      "raising": 6939,
      "thanks": 6940,
      "didn’t": 6941,
      "red.": 6942,
      "justed": 6943,
      "ful.": 6944,
      "look.": 6945,
      "airlines": 6946,
      "interpre": 6947,
      "underlying": 6948,
      "compass": 6949,
      "worldwide": 6950,
      "subsequent": 6951,
      "writing,": 6952,
      "around,": 6953,
      "course.": 6954,
      "\"Is": 6955,
      "letting": 6956,
      "solve": 6957,
      "breathe": 6958,
      "transmission": 6959,
      "vention": 6960,
      "Contin": 6961,
      "azz": 6962,
      "ificial": 6963,
      "Also,": 6964,
      "household": 6965,
      "examine": 6966,
      "calm": 6967,
      "graphy": 6968,
      "Arth": 6969,
      "milit": 6970,
      "follows": 6971,
      "ton,": 6972,
      "law.": 6973,
      "tops": 6974,
      "placing": 6975,
      "name,": 6976,
      "extent": 6977,
      "voice,": 6978,
      "possible,": 6979,
      "traits": 6980,
      "Democr": 6981,
      "food,": 6982,
      "Prince": 6983,
      "critics": 6984,
      "figures": 6985,
      "barri": 6986,
      "commonly": 6987,
      "resulted": 6988,
      "India,": 6989,
      "concerns": 6990,
      "wrote,": 6991,
      "computers": 6992,
      "grandfather": 6993,
      "measured": 6994,
      "wooden": 6995,
      "reduction": 6996,
      "deeply": 6997,
      "networks": 6998,
      "chairs": 6999,
      "story.": 7000,
      "bags": 7001,
      "Jonson": 7002,
      "golden": 7003,
      "frequent": 7004,
      "introduction": 7005,
      "Fei": 7006,
      "suitable": 7007,
      "crucial": 7008,
      "articles": 7009,
      "patterns": 7010,
      "space,": 7011,
      "mechanical": 7012,
      "fancy": 7013,
      "lux": 7014,
      "parents,": 7015,
      "capture": 7016,
      "innov": 7017,
      "skills": 7018,
      "consequences": 7019,
      "Kenned": 7020,
      "excited": 7021,
      "electronic": 7022,
      "Defense": 7023,
      "voltage": 7024,
      "exhibition": 7025,
      "haven't": 7026,
      "Madele": 7027,
      "Hayd": 7028,
      "bartender": 7029,
      "twelve": 7030,
      "(1)": 7031,
      "-like": 7032,
      "4%": 7033,
      "?'": 7034,
      "Bern": 7035,
      "Dutch": 7036,
      "Fol": 7037,
      "Had": 7038,
      "Having": 7039,
      "Jose": 7040,
      "Nick": 7041,
      "P.": 7042,
      "Pak": 7043,
      "Ren": 7044,
      "SE": 7045,
      "Sir": 7046,
      "Sever": 7047,
      "Tha": 7048,
      "Wil": 7049,
      "cities": 7050,
      "dirt": 7051,
      "echo": 7052,
      "flights": 7053,
      "gross": 7054,
      "hart": 7055,
      "ka": 7056,
      "knot": 7057,
      "kite": 7058,
      "lon": 7059,
      "led,": 7060,
      "naked": 7061,
      "oven": 7062,
      "temporary": 7063,
      "uan": 7064,
      "uff": 7065,
      "victory": 7066,
      "ware": 7067,
      "wished": 7068,
      "’re": 7069,
      "reck": 7070,
      "stared": 7071,
      "ing-": 7072,
      "ings.": 7073,
      "ise.": 7074,
      "omer": 7075,
      "omed": 7076,
      "entre": 7077,
      "ado": 7078,
      "vehic": 7079,
      "id.": 7080,
      "forgiven": 7081,
      "amino": 7082,
      "cean": 7083,
      "with,": 7084,
      "with.": 7085,
      "conqu": 7086,
      "moon": 7087,
      "modest": 7088,
      "shru": 7089,
      "ulous": 7090,
      "frust": 7091,
      "feet.": 7092,
      "diet": 7093,
      "division": 7094,
      "me,\"": 7095,
      "tear": 7096,
      "worried": 7097,
      "grat": 7098,
      "sault": 7099,
      "ause": 7100,
      "authors": 7101,
      "straw": 7102,
      "ieth": 7103,
      "prev": 7104,
      "prene": 7105,
      "brings": 7106,
      "centers": 7107,
      "part,": 7108,
      "attle": 7109,
      "interaction": 7110,
      "itten": 7111,
      "Andrew": 7112,
      "flaw": 7113,
      "rystal": 7114,
      "jewell": 7115,
      "collabor": 7116,
      "genu": 7117,
      "athlet": 7118,
      "everybody": 7119,
      "lessly": 7120,
      "identity": 7121,
      "good.": 7122,
      "shoulders": 7123,
      "publishing": 7124,
      "marry": 7125,
      "showing": 7126,
      "system,": 7127,
      "limiting": 7128,
      "economies": 7129,
      "metabol": 7130,
      "France,": 7131,
      "planned": 7132,
      "joy": 7133,
      "slav": 7134,
      "women.": 7135,
      "morrow": 7136,
      "information.": 7137,
      "change,": 7138,
      "radical": 7139,
      "success.": 7140,
      "communities": 7141,
      "bitter": 7142,
      "culture.": 7143,
      "damn": 7144,
      "percent.": 7145,
      "mainly": 7146,
      "species": 7147,
      "minister,": 7148,
      "religion,": 7149,
      "education,": 7150,
      "short,": 7151,
      "historian": 7152,
      "period,": 7153,
      "considerable": 7154,
      "Moscow": 7155,
      "arrive": 7156,
      "providing": 7157,
      "Asia,": 7158,
      "conceptual": 7159,
      "defense": 7160,
      "recognition": 7161,
      "warming": 7162,
      "welfare": 7163,
      "mirr": 7164,
      "London.": 7165,
      "2009.": 7166,
      "psychological": 7167,
      "pushing": 7168,
      "crossed": 7169,
      "wides": 7170,
      "collected": 7171,
      "survive": 7172,
      "suffered": 7173,
      "anticip": 7174,
      "hoping": 7175,
      "briefly": 7176,
      "reveal": 7177,
      "arranged": 7178,
      "assistance": 7179,
      "pollut": 7180,
      "synthes": 7181,
      "executive": 7182,
      "challenges": 7183,
      "explor": 7184,
      "assumption": 7185,
      "scholarship": 7186,
      "advertising": 7187,
      "lifted": 7188,
      "doctors": 7189,
      "technologies": 7190,
      "Palestin": 7191,
      "ultimately": 7192,
      "recovery": 7193,
      "absence": 7194,
      "decrease": 7195,
      "script": 7196,
      "Science": 7197,
      "commission": 7198,
      "Kathr": 7199,
      "brilliant": 7200,
      "Torvalds": 7201,
      "Michael": 7202,
      "Aristot": 7203,
      "\"-": 7204,
      "$5": 7205,
      "(5": 7206,
      "1),": 7207,
      "300": 7208,
      "Ak": 7209,
      "Back": 7210,
      "Best": 7211,
      "Cal": 7212,
      "Cros": 7213,
      "EU": 7214,
      "Gard": 7215,
      "Home": 7216,
      "Kost": 7217,
      "Krystal": 7218,
      "PO": 7219,
      "Public": 7220,
      "Scott": 7221,
      "T.": 7222,
      "Tem": 7223,
      "cous": 7224,
      "city,": 7225,
      "dying": 7226,
      "dimin": 7227,
      "density": 7228,
      "djan": 7229,
      "foun": 7230,
      "fiction": 7231,
      "march": 7232,
      "o-": 7233,
      "rural": 7234,
      "rhy": 7235,
      "soup": 7236,
      "tables": 7237,
      "uct": 7238,
      "wich": 7239,
      "z,": 7240,
      "in-": 7241,
      "repair": 7242,
      "ates.": 7243,
      "ed:": 7244,
      "toler": 7245,
      "iture": 7246,
      "asing": 7247,
      "accompan": 7248,
      "veil": 7249,
      "ilit": 7250,
      "owed": 7251,
      "ay.": 7252,
      "unte": 7253,
      "you'd": 7254,
      "abri": 7255,
      "moves": 7256,
      "lover": 7257,
      "webs": 7258,
      "outs": 7259,
      "compos": 7260,
      "haz": 7261,
      "diverse": 7262,
      "proceed": 7263,
      "notably": 7264,
      "ally.": 7265,
      "owns": 7266,
      "cler": 7267,
      "overcome": 7268,
      "bless": 7269,
      "ives.": 7270,
      "ck,": 7271,
      "Thank": 7272,
      "phob": 7273,
      "brass": 7274,
      "centre": 7275,
      "intention": 7276,
      "intensity": 7277,
      "obsess": 7278,
      "affection": 7279,
      "first-": 7280,
      "crash": 7281,
      "lesson": 7282,
      "buff": 7283,
      "set,": 7284,
      "2011": 7285,
      "simult": 7286,
      "powers": 7287,
      "persons": 7288,
      "instinct": 7289,
      "brew": 7290,
      "war.": 7291,
      "publication": 7292,
      "weekend": 7293,
      "Artic": 7294,
      "lawy": 7295,
      "reason,": 7296,
      "case.": 7297,
      "girl,": 7298,
      "depth": 7299,
      "considering": 7300,
      "ator.": 7301,
      "voice.": 7302,
      "slept": 7303,
      "effectively": 7304,
      "satur": 7305,
      "portray": 7306,
      "portrait": 7307,
      "promin": 7308,
      "paper.": 7309,
      "proteins": 7310,
      "language.": 7311,
      "results.": 7312,
      "penet": 7313,
      "Orbit": 7314,
      "myself,": 7315,
      "potato": 7316,
      "arguments": 7317,
      "answered": 7318,
      "Moz": 7319,
      "Moore": 7320,
      "Adjusted": 7321,
      "claiming": 7322,
      "Brdjan": 7323,
      "privile": 7324,
      "Peterson": 7325,
      "woke": 7326,
      "records": 7327,
      "regarding": 7328,
      "retire": 7329,
      "steady": 7330,
      "lady": 7331,
      "celebrate": 7332,
      "prepare": 7333,
      "birthday": 7334,
      "Guidelines": 7335,
      "hopes": 7336,
      "cliff": 7337,
      "consciousness": 7338,
      "Republic": 7339,
      "matri": 7340,
      "encouraged": 7341,
      "occupied": 7342,
      "leadership": 7343,
      "cabin": 7344,
      "advertis": 7345,
      "mathematic": 7346,
      "soldiers": 7347,
      "obtained": 7348,
      "clinical": 7349,
      "Jeff": 7350,
      "biography": 7351,
      "linguistic": 7352,
      "California": 7353,
      "I’m": 7354,
      "inevit": 7355,
      "Children": 7356,
      "Profess": 7357,
      "amounts": 7358,
      "molecules": 7359,
      "sophisticated": 7360,
      "basket": 7361,
      "poverty": 7362,
      "Arthur": 7363,
      "Several": 7364,
      "widespread": 7365,
      "accompanied": 7366,
      "\"L": 7367,
      "(A": 7368,
      "2:": 7369,
      "2).": 7370,
      "6%": 7371,
      "75": 7372,
      "Ali": 7373,
      "BM": 7374,
      "Big": 7375,
      "BBC": 7376,
      "Cub": 7377,
      "Dar": 7378,
      "Down": 7379,
      "ED": 7380,
      "Emp": 7381,
      "Ha": 7382,
      "Kan": 7383,
      "NAT": 7384,
      "Oh,": 7385,
      "PP": 7386,
      "Rev": 7387,
      "Spr": 7388,
      "Ten": 7389,
      "Try": 7390,
      "Todd": 7391,
      "hint": 7392,
      "iation": 7393,
      "ious,": 7394,
      "mers": 7395,
      "vine": 7396,
      "wil": 7397,
      "wink": 7398,
      "“a": 7399,
      "thri": 7400,
      "thumb": 7401,
      "ines,": 7402,
      "erup": 7403,
      "recon": 7404,
      "redi": 7405,
      "ata": 7406,
      "stars": 7407,
      "stiff": 7408,
      "al-": 7409,
      "ingredi": 7410,
      "ision": 7411,
      "ardi": 7412,
      "arbit": 7413,
      "ase,": 7414,
      "etc": 7415,
      "union": 7416,
      "you?\"": 7417,
      "confirm": 7418,
      "aggress": 7419,
      "ules": 7420,
      "fever": 7421,
      "users": 7422,
      "opposed": 7423,
      "diam": 7424,
      "had,": 7425,
      "plot": 7426,
      "lla": 7427,
      "teac": 7428,
      "ists.": 7429,
      "artificial": 7430,
      "shell": 7431,
      "earned": 7432,
      "ard,": 7433,
      "pron": 7434,
      "click": 7435,
      "nose": 7436,
      "else,": 7437,
      "ish,": 7438,
      "Cho": 7439,
      "iew": 7440,
      "izz": 7441,
      "ization,": 7442,
      "uding": 7443,
      "pleased": 7444,
      "disappear": 7445,
      "bride": 7446,
      "monkey": 7447,
      "two,": 7448,
      "desired": 7449,
      "whereas": 7450,
      "ighter": 7451,
      "Andy": 7452,
      "car.": 7453,
      "caring": 7454,
      "guid": 7455,
      "America.": 7456,
      "generated": 7457,
      "friend.": 7458,
      "let's": 7459,
      "skin.": 7460,
      "passes": 7461,
      "xture": 7462,
      "small,": 7463,
      "possibilities": 7464,
      "second-": 7465,
      "Christop": 7466,
      "arrow": 7467,
      "Common": 7468,
      "women's": 7469,
      "morning.": 7470,
      "placement": 7471,
      "informed": 7472,
      "better.": 7473,
      "classic": 7474,
      "once,": 7475,
      "lists": 7476,
      "enough.": 7477,
      "hours.": 7478,
      "traveled": 7479,
      "thorough": 7480,
      "Develop": 7481,
      "experience.": 7482,
      "matter.": 7483,
      "continuous": 7484,
      "advoc": 7485,
      "Something": 7486,
      "ville": 7487,
      "probability": 7488,
      "Columb": 7489,
      "30,": 7490,
      "company.": 7491,
      "approaches": 7492,
      "horri": 7493,
      "conditions.": 7494,
      "rocks": 7495,
      "town.": 7496,
      "influenced": 7497,
      "release": 7498,
      "diction": 7499,
      "Earhart": 7500,
      "variables": 7501,
      "behaviour": 7502,
      "story,": 7503,
      "channel": 7504,
      "chapters": 7505,
      "sports": 7506,
      "Jonathan": 7507,
      "occurs": 7508,
      "located": 7509,
      "humid": 7510,
      "indicate": 7511,
      "surviv": 7512,
      "broadcast": 7513,
      "preference": 7514,
      "invas": 7515,
      "printed": 7516,
      "Pope": 7517,
      "batteries": 7518,
      "reliable": 7519,
      "lorid": 7520,
      "arrangement": 7521,
      "pollution": 7522,
      "translation": 7523,
      "constructed": 7524,
      "democratic": 7525,
      "Lisette": 7526,
      "EPUB": 7527,
      "scope": 7528,
      "Owen": 7529,
      "abandoned": 7530,
      "Meanwhile,": 7531,
      "attention.": 7532,
      "Horace": 7533,
      "University,": 7534,
      "1/2": 7535,
      "components": 7536,
      "levee": 7537,
      "karma": 7538,
      "desirable": 7539,
      "Engine": 7540,
      "Salinger": 7541,
      "NASA": 7542,
      "superior": 7543,
      "peptide": 7544,
      "Buddhism": 7545,
      "respiratory": 7546,
      "website": 7547,
      "\"M": 7548,
      "(for": 7549,
      "CI": 7550,
      "Cr": 7551,
      "Cur": 7552,
      "Der": 7553,
      "Div": 7554,
      "Ev": 7555,
      "Fri": 7556,
      "Fur": 7557,
      "Florid": 7558,
      "Gal": 7559,
      "Give": 7560,
      "Hall": 7561,
      "Jud": 7562,
      "Ky": 7563,
      "LO": 7564,
      "Lar": 7565,
      "Mont": 7566,
      "Next": 7567,
      "River": 7568,
      "Set": 7569,
      "Test": 7570,
      "Vusi": 7571,
      "Wood": 7572,
      "aer": 7573,
      "dil": 7574,
      "dot": 7575,
      "dated": 7576,
      "done,": 7577,
      "gang": 7578,
      "gender": 7579,
      "hors": 7580,
      "mes": 7581,
      "mate": 7582,
      "mour": 7583,
      "mud": 7584,
      "pants": 7585,
      "slo": 7586,
      "somet": 7587,
      "tuck": 7588,
      "vig": 7589,
      "thread": 7590,
      "theme": 7591,
      "represents": 7592,
      "toss": 7593,
      "tomorrow": 7594,
      "ise,": 7595,
      "lem": 7596,
      "lywood": 7597,
      "acy,": 7598,
      "acy.": 7599,
      "adher": 7600,
      "chose": 7601,
      "that.\"": 7602,
      "am.": 7603,
      "etc.": 7604,
      "ctic": 7605,
      "concrete": 7606,
      "agger": 7607,
      "s.”": 7608,
      "defic": 7609,
      "deeper": 7610,
      "weigh": 7611,
      "we've": 7612,
      "shake": 7613,
      "comed": 7614,
      "composition": 7615,
      "fron": 7616,
      "fears": 7617,
      "explic": 7618,
      "usal": 7619,
      "died,": 7620,
      "antig": 7621,
      "essentially": 7622,
      "action,": 7623,
      "boy,": 7624,
      "boss": 7625,
      "boost": 7626,
      "no,": 7627,
      "evident": 7628,
      "um.": 7629,
      "umber": 7630,
      "about.": 7631,
      "Thus": 7632,
      "discharge": 7633,
      "sigh": 7634,
      "ips": 7635,
      "ile,": 7636,
      "ogen": 7637,
      "interior": 7638,
      "crying": 7639,
      "evening,": 7640,
      "backs": 7641,
      "wanting": 7642,
      "genetic": 7643,
      "clever": 7644,
      "seeking": 7645,
      "handsome": 7646,
      "You're": 7647,
      "They're": 7648,
      "use.": 7649,
      "good,": 7650,
      "scattered": 7651,
      "cloth": 7652,
      "substit": 7653,
      "point.": 7654,
      "regime": 7655,
      "suppli": 7656,
      "person.": 7657,
      "unted": 7658,
      "breaking": 7659,
      "engage": 7660,
      "Howell": 7661,
      "warning": 7662,
      "transition": 7663,
      "systematic": 7664,
      "Contract": 7665,
      "Consid": 7666,
      "Also": 7667,
      "business,": 7668,
      "seconds": 7669,
      "array": 7670,
      "left,": 7671,
      "variet": 7672,
      "groups,": 7673,
      "woman.": 7674,
      "woman's": 7675,
      "responded": 7676,
      "cases,": 7677,
      "tested": 7678,
      "pursuit": 7679,
      "government.": 7680,
      "movements": 7681,
      "hours,": 7682,
      "particular,": 7683,
      "designer": 7684,
      "hiking": 7685,
      "nothing.": 7686,
      "Joe": 7687,
      "Boy": 7688,
      "electro": 7689,
      "imagination": 7690,
      "wrink": 7691,
      "camps": 7692,
      "short-": 7693,
      "sentence": 7694,
      "connections": 7695,
      "road.": 7696,
      "talent": 7697,
      "questions.": 7698,
      "Stephen": 7699,
      "ellow": 7700,
      "killing": 7701,
      "minutes,": 7702,
      "properly": 7703,
      "influential": 7704,
      "Barney": 7705,
      "gradually": 7706,
      "store,": 7707,
      "kitchen,": 7708,
      "Techn": 7709,
      "Technology": 7710,
      "Here's": 7711,
      "deliber": 7712,
      "believes": 7713,
      "exercis": 7714,
      "\"He's": 7715,
      "employed": 7716,
      "\"Are": 7717,
      "accessible": 7718,
      "dominated": 7719,
      "2008,": 7720,
      "indicated": 7721,
      "harsh": 7722,
      "shapes": 7723,
      "cards": 7724,
      "Keep": 7725,
      "pleasure": 7726,
      "sensitive": 7727,
      "fifth": 7728,
      "neglect": 7729,
      "roughly": 7730,
      "repeat": 7731,
      "accused": 7732,
      "flex": 7733,
      "space.": 7734,
      "\"Oh,": 7735,
      "same.": 7736,
      "predicted": 7737,
      "Colleen": 7738,
      "kinematic": 7739,
      "fortunately,": 7740,
      "Italy": 7741,
      "nineteen": 7742,
      "Senate": 7743,
      "soldier": 7744,
      "department": 7745,
      "shooting": 7746,
      "inches": 7747,
      "accomplished": 7748,
      "perspective": 7749,
      "assigned": 7750,
      "Today,": 7751,
      "weapon": 7752,
      "appreciate": 7753,
      "fascin": 7754,
      "Syria": 7755,
      "citizens": 7756,
      "imperial": 7757,
      "enhance": 7758,
      "collaps": 7759,
      "biotechnology": 7760,
      "curious": 7761,
      "Much": 7762,
      "pilot": 7763,
      "Expedia": 7764,
      "draft": 7765,
      "overwhelming": 7766,
      "Saturday": 7767,
      "Malaysi": 7768,
      "permanent": 7769,
      "yesterday": 7770,
      "peoples": 7771,
      "Oxford": 7772,
      "awkward": 7773,
      "Atlantic": 7774,
      "Dietary": 7775,
      "Hattie": 7776,
      "Madeleine": 7777,
      "\"Who": 7778,
      "(in": 7779,
      "(as": 7780,
      "33": 7781,
      "9%": 7782,
      "Ep": 7783,
      "Gabri": 7784,
      "HT": 7785,
      "Nob": 7786,
      "Oscar": 7787,
      "Sil": 7788,
      "Ty": 7789,
      "Tur": 7790,
      "Tru": 7791,
      "Using": 7792,
      "W.": 7793,
      "aus": 7794,
      "bol": 7795,
      "bones": 7796,
      "bilateral": 7797,
      "cod": 7798,
      "cort": 7799,
      "dirty": 7800,
      "gren": 7801,
      "iro": 7802,
      "kV": 7803,
      "nis": 7804,
      "o's": 7805,
      "rag": 7806,
      "s-": 7807,
      "tone": 7808,
      "tack": 7809,
      "vague": 7810,
      "wives": 7811,
      "ini": 7812,
      "anno": 7813,
      "theless": 7814,
      "onal": 7815,
      "onom": 7816,
      "repli": 7817,
      "edition": 7818,
      "stated": 7819,
      "stained": 7820,
      "ley,": 7821,
      "velt": 7822,
      "illy": 7823,
      "ides,": 7824,
      "forty-": 7825,
      "olly": 7826,
      "irrit": 7827,
      "units": 7828,
      "unwholesome": 7829,
      "sures": 7830,
      "withdraw": 7831,
      "terrain": 7832,
      "confin": 7833,
      "moss": 7834,
      "ne,": 7835,
      "weird": 7836,
      "we'll": 7837,
      "peel": 7838,
      "pelled": 7839,
      "shy": 7840,
      "emul": 7841,
      "illusion": 7842,
      "dia": 7843,
      "trau": 7844,
      "proposed": 7845,
      "process.": 7846,
      "meals": 7847,
      "poems": 7848,
      "ifies": 7849,
      "avin": 7850,
      "cope": 7851,
      "obsc": 7852,
      "render": 7853,
      "people's": 7854,
      "osevelt": 7855,
      "icted": 7856,
      "think,": 7857,
      "curs": 7858,
      "guil": 7859,
      "score": 7860,
      "set.": 7861,
      "writes": 7862,
      "Soon": 7863,
      "produces": 7864,
      "producing": 7865,
      "something.": 7866,
      "different.": 7867,
      "funn": 7868,
      "covering": 7869,
      "Nothing": 7870,
      "Nobel": 7871,
      "appeal": 7872,
      "Friday": 7873,
      "public.": 7874,
      "left.": 7875,
      "netic": 7876,
      "keeps": 7877,
      "girl.": 7878,
      "Marina": 7879,
      "void": 7880,
      "dining": 7881,
      "hydr": 7882,
      "expectations": 7883,
      "hibit": 7884,
      "Roosevelt": 7885,
      "attacked": 7886,
      "controver": 7887,
      "issued": 7888,
      "field.": 7889,
      "1990": 7890,
      "silent": 7891,
      "stronger": 7892,
      "photos": 7893,
      "approached": 7894,
      "imming": 7895,
      "returns": 7896,
      "sleep.": 7897,
      "messages": 7898,
      "qualities": 7899,
      "town,": 7900,
      "burg": 7901,
      "discussing": 7902,
      "temple": 7903,
      "stored": 7904,
      "Often": 7905,
      "recorded": 7906,
      "Teh": 7907,
      "dead.": 7908,
      "separated": 7909,
      "ium,": 7910,
      "storage": 7911,
      "nucle": 7912,
      "containing": 7913,
      "visitors": 7914,
      "conductance": 7915,
      "options": 7916,
      "Hugh": 7917,
      "society,": 7918,
      "Austri": 7919,
      "suffering": 7920,
      "homes": 7921,
      "emerged": 7922,
      "burning": 7923,
      "spaces": 7924,
      "valuable": 7925,
      "mixed": 7926,
      "symbolic": 7927,
      "reflected": 7928,
      "Cameron": 7929,
      "knee": 7930,
      "juice": 7931,
      "concentration": 7932,
      "Hollywood": 7933,
      "electricity": 7934,
      "pyrid": 7935,
      "duty": 7936,
      "phenomena": 7937,
      "thirty-": 7938,
      "absolutely": 7939,
      "Southern": 7940,
      "employees": 7941,
      "numerous": 7942,
      "Hurston": 7943,
      "atmosphere": 7944,
      "Federal": 7945,
      "photeric": 7946,
      "elder": 7947,
      "corpus": 7948,
      "maximum": 7949,
      "Lady": 7950,
      "Cronkite": 7951,
      "so-called": 7952,
      "colleagues": 7953,
      "Shorik": 7954,
      "Sylvia": 7955,
      "tourist": 7956,
      "entreprene": 7957,
      "jewellery": 7958,
      "saturated": 7959,
      "arbitr": 7960,
      "Further": 7961,
      "photericin": 7962,
      "\"I'll": 7963,
      "\"Where": 7964,
      "(D": 7965,
      "(2)": 7966,
      "-related": 7967,
      "2%": 7968,
      "AP": 7969,
      "Ama": 7970,
      "Aime": 7971,
      "Bas": 7972,
      "Blo": 7973,
      "Eth": 7974,
      "Fred": 7975,
      "Gates": 7976,
      "Hy": 7977,
      "Jun": 7978,
      "Lam": 7979,
      "Los": 7980,
      "Nu": 7981,
      "None": 7982,
      "PS": 7983,
      "Squ": 7984,
      "Spir": 7985,
      "Tues": 7986,
      "__": 7987,
      "b.": 7988,
      "cence": 7989,
      "caut": 7990,
      "craw": 7991,
      "f.": 7992,
      "fu": 7993,
      "fits": 7994,
      "fict": 7995,
      "jug": 7996,
      "junk": 7997,
      "l,": 7998,
      "math": 7999
    },
    "merges": [
      [
        "t",
        "h"
      ],
      [
        "i",
        "n"
      ],
      [
        "e",
        "r"
      ],
      [
        "a",
        "n"
      ],
      [
        "th",
        "e"
      ],
      [
        "o",
        "n"
      ],
      [
        "r",
        "e"
      ],
      [
        "a",
        "t"
      ],
      [
        "e",
        "n"
      ],
      [
        "e",
        "d"
      ],
      [
        "o",
        "r"
      ],
      [
        "o",
        "u"
      ],
      [
        "s",
        "t"
      ],
      [
        "a",
        "l"
      ],
      [
        "in",
        "g"
      ],
      [
        "t",
        "o"
      ],
      [
        "an",
        "d"
      ],
      [
        "o",
        "f"
      ],
      [
        "i",
        "s"
      ],
      [
        "a",
        "r"
      ],
      [
        "e",
        "s"
      ],
      [
        "i",
        "t"
      ],
      [
        "a",
        "s"
      ],
      [
        "h",
        "e"
      ],
      [
        "i",
        "c"
      ],
      [
        "l",
        "e"
      ],
      [
        "o",
        "m"
      ],
      [
        "i",
        "on"
      ],
      [
        "s",
        "e"
      ],
      [
        "b",
        "e"
      ],
      [
        "l",
        "y"
      ],
      [
        "en",
        "t"
      ],
      [
        "a",
        "c"
      ],
      [
        "a",
        "d"
      ],
      [
        "v",
        "e"
      ],
      [
        "i",
        "l"
      ],
      [
        "o",
        "w"
      ],
      [
        "i",
        "d"
      ],
      [
        "w",
        "h"
      ],
      [
        "c",
        "h"
      ],
      [
        "i",
        "m"
      ],
      [
        "f",
        "or"
      ],
      [
        "r",
        "o"
      ],
      [
        "th",
        "at"
      ],
      [
        "o",
        "l"
      ],
      [
        "v",
        "er"
      ],
      [
        "a",
        "y"
      ],
      [
        "u",
        "t"
      ],
      [
        "g",
        "h"
      ],
      [
        "l",
        "i"
      ],
      [
        "a",
        "m"
      ],
      [
        "i",
        "r"
      ],
      [
        "w",
        "as"
      ],
      [
        "o",
        "t"
      ],
      [
        "th",
        "er"
      ],
      [
        "e",
        "t"
      ],
      [
        "u",
        "n"
      ],
      [
        "i",
        "th"
      ],
      [
        "c",
        "e"
      ],
      [
        "s",
        "u"
      ],
      [
        "r",
        "i"
      ],
      [
        "y",
        "ou"
      ],
      [
        "at",
        "ion"
      ],
      [
        "a",
        "b"
      ],
      [
        "w",
        "ith"
      ],
      [
        "s",
        ","
      ],
      [
        "a",
        "re"
      ],
      [
        "c",
        "t"
      ],
      [
        "t",
        "er"
      ],
      [
        "c",
        "on"
      ],
      [
        "l",
        "d"
      ],
      [
        "m",
        "o"
      ],
      [
        "a",
        "g"
      ],
      [
        "a",
        "p"
      ],
      [
        "s",
        "."
      ],
      [
        "l",
        "o"
      ],
      [
        "T",
        "he"
      ],
      [
        "d",
        "e"
      ],
      [
        "h",
        "er"
      ],
      [
        "u",
        "r"
      ],
      [
        "n",
        "e"
      ],
      [
        "k",
        "e"
      ],
      [
        "al",
        "l"
      ],
      [
        "h",
        "is"
      ],
      [
        "w",
        "e"
      ],
      [
        "p",
        "e"
      ],
      [
        "'",
        "s"
      ],
      [
        "ou",
        "t"
      ],
      [
        "s",
        "h"
      ],
      [
        "c",
        "om"
      ],
      [
        "u",
        "l"
      ],
      [
        "e",
        "m"
      ],
      [
        "f",
        "r"
      ],
      [
        "s",
        "o"
      ],
      [
        "on",
        "e"
      ],
      [
        "f",
        "e"
      ],
      [
        "h",
        "a"
      ],
      [
        "e",
        "x"
      ],
      [
        "il",
        "l"
      ],
      [
        "gh",
        "t"
      ],
      [
        "u",
        "s"
      ],
      [
        "a",
        "in"
      ],
      [
        "o",
        "p"
      ],
      [
        "d",
        "i"
      ],
      [
        "t",
        "r"
      ],
      [
        "re",
        "s"
      ],
      [
        "ou",
        "ld"
      ],
      [
        "p",
        "ro"
      ],
      [
        "n",
        "ot"
      ],
      [
        "ou",
        "n"
      ],
      [
        "m",
        "e"
      ],
      [
        "o",
        "d"
      ],
      [
        "p",
        "er"
      ],
      [
        "at",
        "e"
      ],
      [
        "an",
        "t"
      ],
      [
        "h",
        "ad"
      ],
      [
        "b",
        "y"
      ],
      [
        "er",
        "e"
      ],
      [
        "p",
        "l"
      ],
      [
        "l",
        "l"
      ],
      [
        "ou",
        "r"
      ],
      [
        "es",
        "s"
      ],
      [
        "t",
        "e"
      ],
      [
        "p",
        "o"
      ],
      [
        "fr",
        "om"
      ],
      [
        "i",
        "st"
      ],
      [
        "q",
        "u"
      ],
      [
        "ar",
        "t"
      ],
      [
        "c",
        "i"
      ],
      [
        "g",
        "e"
      ],
      [
        "w",
        "or"
      ],
      [
        "om",
        "e"
      ],
      [
        "ha",
        "ve"
      ],
      [
        "m",
        "an"
      ],
      [
        "it",
        "y"
      ],
      [
        "b",
        "ut"
      ],
      [
        "m",
        "ent"
      ],
      [
        "g",
        "r"
      ],
      [
        "ac",
        "t"
      ],
      [
        "m",
        "y"
      ],
      [
        "u",
        "p"
      ],
      [
        "d",
        "o"
      ],
      [
        "i",
        "ve"
      ],
      [
        "s",
        "he"
      ],
      [
        "en",
        "d"
      ],
      [
        "u",
        "st"
      ],
      [
        "o",
        "k"
      ],
      [
        "i",
        "f"
      ],
      [
        "s",
        "a"
      ],
      [
        "a",
        "st"
      ],
      [
        "th",
        "is"
      ],
      [
        "e",
        "ar"
      ],
      [
        "i",
        "g"
      ],
      [
        "e",
        ","
      ],
      [
        "'",
        "t"
      ],
      [
        "al",
        "ly"
      ],
      [
        "I",
        "n"
      ],
      [
        "ar",
        "d"
      ],
      [
        "g",
        "o"
      ],
      [
        "in",
        "d"
      ],
      [
        "ac",
        "k"
      ],
      [
        "the",
        "y"
      ],
      [
        "u",
        "re"
      ],
      [
        "ow",
        "n"
      ],
      [
        "e",
        "."
      ],
      [
        "d",
        "er"
      ],
      [
        "H",
        "e"
      ],
      [
        "w",
        "ay"
      ],
      [
        "a",
        "u"
      ],
      [
        "ic",
        "h"
      ],
      [
        "b",
        "o"
      ],
      [
        "i",
        "es"
      ],
      [
        "a",
        "k"
      ],
      [
        "p",
        "r"
      ],
      [
        "o",
        "ther"
      ],
      [
        "c",
        "an"
      ],
      [
        "w",
        "ere"
      ],
      [
        "er",
        "s"
      ],
      [
        "on",
        "g"
      ],
      [
        "c",
        "l"
      ],
      [
        "or",
        "t"
      ],
      [
        "n",
        "o"
      ],
      [
        "oun",
        "d"
      ],
      [
        "e",
        "v"
      ],
      [
        "e",
        "l"
      ],
      [
        "wh",
        "o"
      ],
      [
        "o",
        "re"
      ],
      [
        "th",
        "ing"
      ],
      [
        "o",
        "ver"
      ],
      [
        "u",
        "m"
      ],
      [
        "ou",
        "gh"
      ],
      [
        "t",
        "im"
      ],
      [
        "s",
        "ome"
      ],
      [
        "the",
        "ir"
      ],
      [
        "ou",
        "s"
      ],
      [
        "wh",
        "ich"
      ],
      [
        "h",
        "as"
      ],
      [
        "n",
        "ow"
      ],
      [
        "id",
        "e"
      ],
      [
        "is",
        "h"
      ],
      [
        "I",
        "t"
      ],
      [
        "mo",
        "re"
      ],
      [
        "s",
        "p"
      ],
      [
        "es",
        ","
      ],
      [
        "sa",
        "id"
      ],
      [
        "h",
        "im"
      ],
      [
        "li",
        "ke"
      ],
      [
        "w",
        "ould"
      ],
      [
        "you",
        "r"
      ],
      [
        "i",
        "ght"
      ],
      [
        "ab",
        "out"
      ],
      [
        "b",
        "l"
      ],
      [
        "ac",
        "h"
      ],
      [
        "W",
        "h"
      ],
      [
        "y",
        ","
      ],
      [
        "it",
        "s"
      ],
      [
        "C",
        "h"
      ],
      [
        "st",
        "r"
      ],
      [
        "f",
        "f"
      ],
      [
        "ab",
        "le"
      ],
      [
        "es",
        "."
      ],
      [
        "the",
        "m"
      ],
      [
        "e",
        "ver"
      ],
      [
        "am",
        "e"
      ],
      [
        "a",
        "ke"
      ],
      [
        "y",
        "ear"
      ],
      [
        "at",
        "ed"
      ],
      [
        "w",
        "ill"
      ],
      [
        "ic",
        "al"
      ],
      [
        "e",
        "st"
      ],
      [
        "en",
        "ce"
      ],
      [
        "wh",
        "en"
      ],
      [
        "i",
        "v"
      ],
      [
        "be",
        "en"
      ],
      [
        "as",
        "s"
      ],
      [
        "c",
        "re"
      ],
      [
        "an",
        "y"
      ],
      [
        "i",
        "e"
      ],
      [
        "p",
        "t"
      ],
      [
        "c",
        "k"
      ],
      [
        "i",
        "z"
      ],
      [
        ".",
        "\""
      ],
      [
        "wh",
        "at"
      ],
      [
        "in",
        "e"
      ],
      [
        "b",
        "er"
      ],
      [
        "u",
        "d"
      ],
      [
        "n",
        "'t"
      ],
      [
        "p",
        "re"
      ],
      [
        "se",
        "l"
      ],
      [
        "p",
        "le"
      ],
      [
        "p",
        "res"
      ],
      [
        "r",
        "a"
      ],
      [
        "T",
        "h"
      ],
      [
        "in",
        "to"
      ],
      [
        "d",
        "ay"
      ],
      [
        "th",
        "an"
      ],
      [
        "wor",
        "k"
      ],
      [
        "an",
        "s"
      ],
      [
        "for",
        "m"
      ],
      [
        "1",
        "9"
      ],
      [
        "0",
        "0"
      ],
      [
        "ag",
        "e"
      ],
      [
        "ed",
        ","
      ],
      [
        "A",
        "n"
      ],
      [
        "a",
        "v"
      ],
      [
        "e",
        "p"
      ],
      [
        "ed",
        "."
      ],
      [
        "t",
        "w"
      ],
      [
        "in",
        "k"
      ],
      [
        "p",
        "h"
      ],
      [
        "c",
        "o"
      ],
      [
        "ne",
        "w"
      ],
      [
        "d",
        "is"
      ],
      [
        "ar",
        "y"
      ],
      [
        "b",
        "r"
      ],
      [
        "p",
        "ort"
      ],
      [
        "an",
        "g"
      ],
      [
        "r",
        "it"
      ],
      [
        "c",
        "ent"
      ],
      [
        "in",
        "t"
      ],
      [
        "ther",
        "e"
      ],
      [
        "c",
        "ould"
      ],
      [
        "ol",
        "d"
      ],
      [
        "an",
        "ce"
      ],
      [
        "ct",
        "ion"
      ],
      [
        "s",
        "i"
      ],
      [
        "b",
        "le"
      ],
      [
        "of",
        "f"
      ],
      [
        "o",
        "b"
      ],
      [
        "at",
        "er"
      ],
      [
        "d",
        "id"
      ],
      [
        "l",
        "ow"
      ],
      [
        "f",
        "ir"
      ],
      [
        "y",
        "."
      ],
      [
        "po",
        "s"
      ],
      [
        "B",
        "ut"
      ],
      [
        "p",
        "art"
      ],
      [
        "ac",
        "e"
      ],
      [
        "con",
        "t"
      ],
      [
        "mo",
        "st"
      ],
      [
        "op",
        "le"
      ],
      [
        "S",
        "he"
      ],
      [
        "a",
        "f"
      ],
      [
        "re",
        "d"
      ],
      [
        "j",
        "ust"
      ],
      [
        "s",
        "ay"
      ],
      [
        "f",
        "ore"
      ],
      [
        "ic",
        "k"
      ],
      [
        "ing",
        ","
      ],
      [
        "h",
        "ow"
      ],
      [
        "f",
        "ul"
      ],
      [
        "i",
        "p"
      ],
      [
        "i",
        "le"
      ],
      [
        "g",
        "et"
      ],
      [
        "s",
        "pe"
      ],
      [
        "sel",
        "f"
      ],
      [
        "o",
        "g"
      ],
      [
        "it",
        "ion"
      ],
      [
        "ig",
        "n"
      ],
      [
        "at",
        "t"
      ],
      [
        "re",
        "n"
      ],
      [
        "ic",
        "e"
      ],
      [
        "ad",
        "e"
      ],
      [
        ",",
        "\""
      ],
      [
        "pe",
        "ople"
      ],
      [
        "m",
        "er"
      ],
      [
        "fir",
        "st"
      ],
      [
        "c",
        "au"
      ],
      [
        "lo",
        "ok"
      ],
      [
        "a",
        "ir"
      ],
      [
        "re",
        "e"
      ],
      [
        "in",
        "ter"
      ],
      [
        "the",
        "n"
      ],
      [
        "c",
        "oun"
      ],
      [
        "tim",
        "e"
      ],
      [
        "c",
        "r"
      ],
      [
        "re",
        "ad"
      ],
      [
        "m",
        "on"
      ],
      [
        "un",
        "der"
      ],
      [
        "th",
        "r"
      ],
      [
        "i",
        "al"
      ],
      [
        "s",
        "er"
      ],
      [
        "il",
        "d"
      ],
      [
        "com",
        "p"
      ],
      [
        "it",
        "t"
      ],
      [
        "ur",
        "n"
      ],
      [
        "p",
        "ol"
      ],
      [
        "it",
        "e"
      ],
      [
        "al",
        "so"
      ],
      [
        "d",
        "u"
      ],
      [
        "ar",
        "k"
      ],
      [
        "be",
        "t"
      ],
      [
        "cau",
        "se"
      ],
      [
        "W",
        "e"
      ],
      [
        "tw",
        "o"
      ],
      [
        "ing",
        "."
      ],
      [
        "on",
        "ly"
      ],
      [
        "her",
        "e"
      ],
      [
        "ev",
        "en"
      ],
      [
        "b",
        "ack"
      ],
      [
        "d",
        "es"
      ],
      [
        "k",
        "now"
      ],
      [
        "ap",
        "p"
      ],
      [
        "e",
        "f"
      ],
      [
        "g",
        "re"
      ],
      [
        "t",
        "en"
      ],
      [
        "wh",
        "ere"
      ],
      [
        "f",
        "a"
      ],
      [
        "c",
        "or"
      ],
      [
        "o",
        "od"
      ],
      [
        "s",
        "y"
      ],
      [
        "o",
        "se"
      ],
      [
        "t",
        "s"
      ],
      [
        "ion",
        "s"
      ],
      [
        "a",
        "w"
      ],
      [
        "af",
        "ter"
      ],
      [
        "s",
        "on"
      ],
      [
        "or",
        "y"
      ],
      [
        "m",
        "in"
      ],
      [
        "l",
        "ong"
      ],
      [
        "v",
        "ed"
      ],
      [
        "i",
        "ly"
      ],
      [
        "ation",
        "s"
      ],
      [
        "i",
        "a"
      ],
      [
        "d",
        "own"
      ],
      [
        "i",
        "gh"
      ],
      [
        "li",
        "fe"
      ],
      [
        "w",
        "ant"
      ],
      [
        "u",
        "e"
      ],
      [
        "An",
        "d"
      ],
      [
        "f",
        "l"
      ],
      [
        "t",
        "y"
      ],
      [
        "r",
        "y"
      ],
      [
        "j",
        "e"
      ],
      [
        "S",
        "t"
      ],
      [
        "’",
        "s"
      ],
      [
        "ver",
        "y"
      ],
      [
        "I",
        "'"
      ],
      [
        "com",
        "e"
      ],
      [
        "c",
        "ol"
      ],
      [
        "c",
        "ess"
      ],
      [
        "thr",
        "ough"
      ],
      [
        "T",
        "his"
      ],
      [
        "g",
        "en"
      ],
      [
        "so",
        "ci"
      ],
      [
        "t",
        "urn"
      ],
      [
        "m",
        "u"
      ],
      [
        "a",
        "ve"
      ],
      [
        "di",
        "ff"
      ],
      [
        "be",
        "cause"
      ],
      [
        "er",
        ","
      ],
      [
        "i",
        "re"
      ],
      [
        "c",
        "ar"
      ],
      [
        "c",
        "le"
      ],
      [
        "se",
        "e"
      ],
      [
        "su",
        "r"
      ],
      [
        "ul",
        "t"
      ],
      [
        "g",
        "l"
      ],
      [
        "wor",
        "ld"
      ],
      [
        "a",
        "th"
      ],
      [
        "v",
        "ing"
      ],
      [
        "ic",
        "t"
      ],
      [
        "d",
        "on"
      ],
      [
        "p",
        "u"
      ],
      [
        "m",
        "ay"
      ],
      [
        "ch",
        "o"
      ],
      [
        "man",
        "y"
      ],
      [
        "ou",
        "ght"
      ],
      [
        "re",
        "m"
      ],
      [
        "i",
        "an"
      ],
      [
        "ever",
        "y"
      ],
      [
        "c",
        "er"
      ],
      [
        "en",
        "s"
      ],
      [
        "t",
        "ri"
      ],
      [
        "c",
        "all"
      ],
      [
        "f",
        "in"
      ],
      [
        "i",
        "ous"
      ],
      [
        "th",
        "ink"
      ],
      [
        "ri",
        "ght"
      ],
      [
        "su",
        "ch"
      ],
      [
        "c",
        "es"
      ],
      [
        "al",
        "k"
      ],
      [
        "s",
        "m"
      ],
      [
        "Ch",
        "in"
      ],
      [
        "we",
        "ll"
      ],
      [
        "p",
        "ed"
      ],
      [
        "t",
        "ing"
      ],
      [
        "l",
        "ess"
      ],
      [
        "c",
        "ur"
      ],
      [
        "h",
        "and"
      ],
      [
        "the",
        "se"
      ],
      [
        "a",
        ","
      ],
      [
        "bo",
        "ok"
      ],
      [
        "mu",
        "ch"
      ],
      [
        "g",
        "u"
      ],
      [
        "m",
        "ade"
      ],
      [
        "Y",
        "ou"
      ],
      [
        "ol",
        "og"
      ],
      [
        "ag",
        "ain"
      ],
      [
        "?",
        "\""
      ],
      [
        "l",
        "ed"
      ],
      [
        "b",
        "u"
      ],
      [
        "m",
        "ake"
      ],
      [
        "at",
        "ing"
      ],
      [
        "je",
        "ct"
      ],
      [
        "The",
        "y"
      ],
      [
        "u",
        "al"
      ],
      [
        "t",
        "ain"
      ],
      [
        "ver",
        "s"
      ],
      [
        "as",
        "k"
      ],
      [
        "id",
        "ent"
      ],
      [
        "v",
        "is"
      ],
      [
        "U",
        "n"
      ],
      [
        "c",
        "ed"
      ],
      [
        "is",
        "e"
      ],
      [
        "o",
        "c"
      ],
      [
        "u",
        "se"
      ],
      [
        "com",
        "m"
      ],
      [
        "w",
        "om"
      ],
      [
        "st",
        "and"
      ],
      [
        "be",
        "fore"
      ],
      [
        "ly",
        ","
      ],
      [
        "go",
        "od"
      ],
      [
        "li",
        "ght"
      ],
      [
        "or",
        "s"
      ],
      [
        "he",
        "ad"
      ],
      [
        "sh",
        "ould"
      ],
      [
        "an",
        "ge"
      ],
      [
        "s",
        "s"
      ],
      [
        "w",
        "ard"
      ],
      [
        "-",
        "-"
      ],
      [
        "he",
        "l"
      ],
      [
        "m",
        "ed"
      ],
      [
        "s",
        "c"
      ],
      [
        "le",
        "ct"
      ],
      [
        "f",
        "am"
      ],
      [
        "ne",
        "ed"
      ],
      [
        ")",
        "."
      ],
      [
        "year",
        "s"
      ],
      [
        "I",
        "f"
      ],
      [
        "re",
        "l"
      ],
      [
        "c",
        "lo"
      ],
      [
        "we",
        "en"
      ],
      [
        "v",
        "en"
      ],
      [
        "ar",
        "ch"
      ],
      [
        "se",
        "t"
      ],
      [
        "con",
        "d"
      ],
      [
        "a",
        "il"
      ],
      [
        "ne",
        "ver"
      ],
      [
        "c",
        "ame"
      ],
      [
        "ent",
        "s"
      ],
      [
        "n",
        "ing"
      ],
      [
        "ation",
        "al"
      ],
      [
        "is",
        "s"
      ],
      [
        "Wh",
        "en"
      ],
      [
        "diff",
        "er"
      ],
      [
        "f",
        "act"
      ],
      [
        "at",
        "es"
      ],
      [
        "way",
        "s"
      ],
      [
        "bet",
        "ween"
      ],
      [
        "ch",
        "ild"
      ],
      [
        "us",
        "ed"
      ],
      [
        "ul",
        "ar"
      ],
      [
        "A",
        "mer"
      ],
      [
        "Amer",
        "ic"
      ],
      [
        "as",
        "e"
      ],
      [
        "2",
        "0"
      ],
      [
        "su",
        "b"
      ],
      [
        "ak",
        "ing"
      ],
      [
        "F",
        "or"
      ],
      [
        "th",
        "ose"
      ],
      [
        "con",
        "s"
      ],
      [
        "is",
        "m"
      ],
      [
        "ar",
        "m"
      ],
      [
        "at",
        "ive"
      ],
      [
        "g",
        "an"
      ],
      [
        "w",
        "rit"
      ],
      [
        "ce",
        "pt"
      ],
      [
        "it",
        "ies"
      ],
      [
        "T",
        "here"
      ],
      [
        "es",
        "e"
      ],
      [
        "th",
        "ough"
      ],
      [
        "tr",
        "y"
      ],
      [
        "to",
        "o"
      ],
      [
        "er",
        "."
      ],
      [
        "said",
        "."
      ],
      [
        "st",
        "ill"
      ],
      [
        "it",
        "ed"
      ],
      [
        "l",
        "ar"
      ],
      [
        "it",
        "."
      ],
      [
        "fa",
        "ther"
      ],
      [
        "itt",
        "le"
      ],
      [
        "s",
        "im"
      ],
      [
        "e",
        "y"
      ],
      [
        "p",
        "ut"
      ],
      [
        "s",
        "ide"
      ],
      [
        "pu",
        "bl"
      ],
      [
        "str",
        "u"
      ],
      [
        "h",
        "u"
      ],
      [
        "f",
        "t"
      ],
      [
        "ad",
        "d"
      ],
      [
        "po",
        "int"
      ],
      [
        "l",
        "t"
      ],
      [
        "ve",
        "lo"
      ],
      [
        "be",
        "ing"
      ],
      [
        "as",
        "h"
      ],
      [
        "fe",
        "ct"
      ],
      [
        "h",
        "igh"
      ],
      [
        "f",
        "ri"
      ],
      [
        "ar",
        "ound"
      ],
      [
        "l",
        "ittle"
      ],
      [
        "st",
        "art"
      ],
      [
        "ur",
        "ing"
      ],
      [
        "mo",
        "ther"
      ],
      [
        "2",
        "00"
      ],
      [
        "l",
        "and"
      ],
      [
        "at",
        "ch"
      ],
      [
        "d",
        "r"
      ],
      [
        "l",
        "es"
      ],
      [
        "wh",
        "ile"
      ],
      [
        "p",
        "ow"
      ],
      [
        "re",
        "g"
      ],
      [
        "pl",
        "ay"
      ],
      [
        "at",
        "ter"
      ],
      [
        "t",
        "ake"
      ],
      [
        "ou",
        "se"
      ],
      [
        "de",
        "c"
      ],
      [
        "Wh",
        "at"
      ],
      [
        "'",
        "d"
      ],
      [
        "A",
        "s"
      ],
      [
        "S",
        "o"
      ],
      [
        "h",
        "app"
      ],
      [
        "an",
        "k"
      ],
      [
        "se",
        "em"
      ],
      [
        "s",
        "ame"
      ],
      [
        "ro",
        "om"
      ],
      [
        "pol",
        "it"
      ],
      [
        "gen",
        "er"
      ],
      [
        "don",
        "'t"
      ],
      [
        "m",
        "ar"
      ],
      [
        "c",
        "he"
      ],
      [
        "fri",
        "end"
      ],
      [
        "su",
        "p"
      ],
      [
        "e",
        "ach"
      ],
      [
        "m",
        "a"
      ],
      [
        "pe",
        "ct"
      ],
      [
        "are",
        "d"
      ],
      [
        "sh",
        "ip"
      ],
      [
        "h",
        "o"
      ],
      [
        "h",
        "ome"
      ],
      [
        "res",
        "s"
      ],
      [
        "in",
        "ce"
      ],
      [
        "c",
        "our"
      ],
      [
        ")",
        ","
      ],
      [
        "v",
        "al"
      ],
      [
        "v",
        "es"
      ],
      [
        "'",
        "re"
      ],
      [
        "did",
        "n't"
      ],
      [
        "v",
        "ie"
      ],
      [
        "in",
        "cl"
      ],
      [
        "pro",
        "du"
      ],
      [
        "do",
        "es"
      ],
      [
        "st",
        "em"
      ],
      [
        "de",
        "velo"
      ],
      [
        "fe",
        "el"
      ],
      [
        "e",
        "k"
      ],
      [
        "f",
        "ound"
      ],
      [
        "y",
        "s"
      ],
      [
        "ut",
        "ion"
      ],
      [
        "per",
        "son"
      ],
      [
        "su",
        "re"
      ],
      [
        "ri",
        "st"
      ],
      [
        "M",
        "r"
      ],
      [
        "some",
        "thing"
      ],
      [
        "re",
        "al"
      ],
      [
        "il",
        "ity"
      ],
      [
        "be",
        "li"
      ],
      [
        "pres",
        "s"
      ],
      [
        "\"",
        "I"
      ],
      [
        "v",
        "ol"
      ],
      [
        "e",
        "w"
      ],
      [
        "un",
        "t"
      ],
      [
        "le",
        "t"
      ],
      [
        "l",
        "ast"
      ],
      [
        "n",
        "er"
      ],
      [
        "in",
        "st"
      ],
      [
        "s",
        "k"
      ],
      [
        "ic",
        "s"
      ],
      [
        "ve",
        "l"
      ],
      [
        "fe",
        "w"
      ],
      [
        "per",
        "i"
      ],
      [
        "th",
        "ought"
      ],
      [
        "at",
        "ure"
      ],
      [
        "n",
        "um"
      ],
      [
        "th",
        "ree"
      ],
      [
        ".",
        "."
      ],
      [
        "g",
        "ot"
      ],
      [
        "b",
        "or"
      ],
      [
        "c",
        "y"
      ],
      [
        "differ",
        "ent"
      ],
      [
        "s",
        "ol"
      ],
      [
        "Th",
        "at"
      ],
      [
        "a",
        "."
      ],
      [
        "v",
        "id"
      ],
      [
        "f",
        "ind"
      ],
      [
        "b",
        "as"
      ],
      [
        "m",
        "ight"
      ],
      [
        "f",
        "er"
      ],
      [
        "p",
        "ar"
      ],
      [
        "b",
        "re"
      ],
      [
        "c",
        "ap"
      ],
      [
        "f",
        "un"
      ],
      [
        "m",
        "en"
      ],
      [
        "wor",
        "d"
      ],
      [
        "sh",
        "ow"
      ],
      [
        "pres",
        "ent"
      ],
      [
        "er",
        "ed"
      ],
      [
        "ch",
        "ar"
      ],
      [
        "con",
        "om"
      ],
      [
        "bo",
        "th"
      ],
      [
        "p",
        "ass"
      ],
      [
        "in",
        "cre"
      ],
      [
        "ation",
        "."
      ],
      [
        "en",
        "g"
      ],
      [
        "ing",
        "s"
      ],
      [
        "c",
        "over"
      ],
      [
        "w",
        "ater"
      ],
      [
        "vie",
        "w"
      ],
      [
        "op",
        "en"
      ],
      [
        "H",
        "ow"
      ],
      [
        "ic",
        "ally"
      ],
      [
        "ation",
        ","
      ],
      [
        "n",
        "ight"
      ],
      [
        "al",
        "ways"
      ],
      [
        "am",
        "p"
      ],
      [
        "as",
        "on"
      ],
      [
        "ion",
        "."
      ],
      [
        "B",
        "e"
      ],
      [
        "a",
        "way"
      ],
      [
        "w",
        "ar"
      ],
      [
        "d",
        "en"
      ],
      [
        "ap",
        "h"
      ],
      [
        "tr",
        "ans"
      ],
      [
        "st",
        "ud"
      ],
      [
        "M",
        "y"
      ],
      [
        "t",
        "re"
      ],
      [
        "ion",
        ","
      ],
      [
        "cho",
        "ol"
      ],
      [
        "p",
        "on"
      ],
      [
        "ci",
        "al"
      ],
      [
        "go",
        "ing"
      ],
      [
        "sy",
        "stem"
      ],
      [
        "N",
        "o"
      ],
      [
        "b",
        "ro"
      ],
      [
        "f",
        "ol"
      ],
      [
        "are",
        "n"
      ],
      [
        "l",
        "im"
      ],
      [
        "in",
        "s"
      ],
      [
        "ment",
        "s"
      ],
      [
        "p",
        "ain"
      ],
      [
        "le",
        "ad"
      ],
      [
        "x",
        "t"
      ],
      [
        "an",
        "other"
      ],
      [
        "di",
        "st"
      ],
      [
        "ou",
        "p"
      ],
      [
        "im",
        "port"
      ],
      [
        "call",
        "ed"
      ],
      [
        "b",
        "ed"
      ],
      [
        "hel",
        "p"
      ],
      [
        "it",
        ","
      ],
      [
        "ak",
        "es"
      ],
      [
        "b",
        "od"
      ],
      [
        "s",
        "en"
      ],
      [
        "v",
        "ent"
      ],
      [
        "ch",
        "n"
      ],
      [
        "e",
        "conom"
      ],
      [
        "ge",
        "st"
      ],
      [
        "sm",
        "all"
      ],
      [
        "al",
        "th"
      ],
      [
        "di",
        "re"
      ],
      [
        "ap",
        "pe"
      ],
      [
        "fam",
        "ily"
      ],
      [
[...]
