{
  "version": "1.0",
  "truncation": null,
  "padding": null,
  "added_tokens": [
    {
      "id": 0,
      "content": "<unk>",
      "single_word": false,
      "lstrip": false,
      "rstrip": false,
      "normalized": false,
      "special": true
    },
    {
      "id": 1,
      "content": "<s>",
      "single_word": false,
      "lstrip": false,
      "rstrip": false,
      "normalized": false,
      "special": true
    },
    {
      "id": 2,
      "content": "</s>",
      "single_word": false,
      "lstrip": false,
      "rstrip": false,
      "normalized": false,
      "special": true
    }
  ],
  "normalizer": null,
  "pre_tokenizer": {
    "type": "WhitespaceSplit"
  },
  "post_processor": null,
  "decoder": null,
  "model": {
    "type": "BPE",
    "dropout": null,
    "unk_token": null,
    "continuing_subword_prefix": null,
    "end_of_word_suffix": null,
    "fuse_unk": false,
    "byte_fallback": false,
    "ignore_merges": false,
    "vocab": {
      "<unk>": 0,
      "<s>": 1,
      "</s>": 2,
      "!": 3,
      "\"": 4,
      "#": 5,
      "$": 6,
      "%": 7,
      "&": 8,
      "'": 9,
      "(": 10,
      ")": 11,
      "*": 12,
      "+": 13,
      ",": 14,
      "-": 15,
      ".": 16,
      "/": 17,
      "0": 18,
      "1": 19,
      "2": 20,
      "3": 21,
      "4": 22,
      "5": 23,
      "6": 24,
      "7": 25,
      "8": 26,
      "9": 27,
      ":": 28,
      ";": 29,
      "<": 30,
      "=": 31,
      ">": 32,
      "?": 33,
      "@": 34,
      "A": 35,
      "B": 36,
      "C": 37,
      "D": 38,
      "E": 39,
      "F": 40,
      "G": 41,
      "H": 42,
      "I": 43,
      "J": 44,
      "K": 45,
      "L": 46,
      "M": 47,
      "N": 48,
      "O": 49,
      "P": 50,
      "Q": 51,
      "R": 52,
      "S": 53,
      "T": 54,
      "U": 55,
      "V": 56,
      "W": 57,
      "X": 58,
      "Y": 59,
      "Z": 60,
      "[": 61,
      "\\": 62,
      "]": 63,
      "^": 64,
      "_": 65,
      "`": 66,
      "a": 67,
      "b": 68,
      "c": 69,
      "d": 70,
      "e": 71,
      "f": 72,
      "g": 73,
      "h": 74,
      "i": 75,
      "j": 76,
      "k": 77,
      "l": 78,
      "m": 79,
      "n": 80,
      "o": 81,
      "p": 82,
      "q": 83,
      "r": 84,
      "s": 85,
      "t": 86,
      "u": 87,
      "v": 88,
      "w": 89,
      "x": 90,
      "y": 91,
      "z": 92,
      "{": 93,
      "|": 94,
      "}": 95,
      "~": 96,
      "¡": 97,
      "¢": 98,
      "£": 99,
      "¤": 100,
      "¦": 101,
      "§": 102,
      "¨": 103,
      "©": 104,
      "ª": 105,
      "­": 106,
      "®": 107,
      "¯": 108,
      "°": 109,
      "±": 110,
      "²": 111,
      "·": 112,
      "¹": 113,
      "º": 114,
      "½": 115,
      "¾": 116,
      "Á": 117,
      "È": 118,
      "Ñ": 119,
      "Ó": 120,
      "Õ": 121,
      "Ö": 122,
      "×": 123,
      "Û": 124,
      "à": 125,
      "á": 126,
      "â": 127,
      "ã": 128,
      "ä": 129,
      "å": 130,
      "ç": 131,
      "è": 132,
      "é": 133,
      "ê": 134,
      "ì": 135,
      "í": 136,
      "ó": 137,
      "÷": 138,
      "ø": 139,
      "ù": 140,
      "ú": 141,
      "ü": 142,
      "ā": 143,
      "ī": 144,
      "ū": 145,
      "ǎ": 146,
      "ǐ": 147,
      "ǔ": 148,
      "Δ": 149,
      "Ω": 150,
      "α": 151,
      "β": 152,
      "γ": 153,
      "ζ": 154,
      "θ": 155,
      "λ": 156,
      "μ": 157,
      "π": 158,
      "ρ": 159,
      "τ": 160,
      "Ё": 161,
      "Ђ": 162,
      "Є": 163,
      "Ї": 164,
      "Њ": 165,
      "Ў": 166,
      "З": 167,
      "а": 168,
      "в": 169,
      "д": 170,
      "е": 171,
      "й": 172,
      "р": 173,
      "с": 174,
      "т": 175,
      "у": 176,
      "є": 177,
      "њ": 178,
      "ќ": 179,
      "ў": 180,
      "–": 181,
      "—": 182,
      "―": 183,
      "‘": 184,
      "’": 185,
      "“": 186,
      "”": 187,
      "…": 188,
      "′": 189,
      "€": 190,
      "™": 191,
      "→": 192,
      "√": 193,
      "∶": 194,
      "≈": 195,
      "≥": 196,
      "①": 197,
      "②": 198,
      "③": 199,
      "④": 200,
      "⑥": 201,
      "─": 202,
      "○": 203,
      "、": 204,
      "。": 205,
      "〈": 206,
      "〉": 207,
      "《": 208,
      "》": 209,
      "「": 210,
      "」": 211,
      "『": 212,
      "』": 213,
      "【": 214,
      "】": 215,
      "〔": 216,
      "〕": 217,
      "・": 218,
      "一": 219,
      "丁": 220,
      "七": 221,
      "万": 222,
      "丈": 223,
      "三": 224,
      "上": 225,
      "下": 226,
      "不": 227,
      "与": 228,
      "丐": 229,
      "丑": 230,
      "专": 231,
      "且": 232,
      "世": 233,
      "丘": 234,
      "丙": 235,
      "业": 236,
      "丛": 237,
      "东": 238,
      "丝": 239,
      "丢": 240,
      "两": 241,
      "严": 242,
      "丧": 243,
      "个": 244,
      "丫": 245,
      "中": 246,
      "丰": 247,
      "串": 248,
      "临": 249,
      "丸": 250,
      "丹": 251,
      "为": 252,
      "主": 253,
      "丽": 254,
      "举": 255,
      "乂": 256,
      "乃": 257,
      "久": 258,
      "么": 259,
      "义": 260,
      "之": 261,
      "乌": 262,
      "乍": 263,
      "乎": 264,
      "乏": 265,
      "乐": 266,
      "乒": 267,
      "乓": 268,
      "乔": 269,
      "乖": 270,
      "乘": 271,
      "乙": 272,
      "乜": 273,
      "九": 274,
      "乞": 275,
      "也": 276,
      "习": 277,
      "乡": 278,
      "书": 279,
      "买": 280,
      "乱": 281,
      "乳": 282,
      "乾": 283,
      "了": 284,
      "予": 285,
      "争": 286,
      "事": 287,
      "二": 288,
      "于": 289,
      "亏": 290,
      "云": 291,
      "互": 292,
      "五": 293,
      "井": 294,
      "亘": 295,
      "亚": 296,
      "些": 297,
      "亞": 298,
      "亟": 299,
      "亡": 300,
      "亢": 301,
      "交": 302,
      "亥": 303,
      "亦": 304,
      "产": 305,
      "亨": 306,
      "亩": 307,
      "享": 308,
      "京": 309,
      "亭": 310,
      "亮": 311,
      "亲": 312,
      "亵": 313,
      "人": 314,
      "亿": 315,
      "什": 316,
      "仁": 317,
      "仄": 318,
      "仅": 319,
      "仆": 320,
      "仇": 321,
      "今": 322,
      "介": 323,
      "仍": 324,
      "从": 325,
      "仑": 326,
      "仓": 327,
      "仔": 328,
      "仕": 329,
      "他": 330,
      "仗": 331,
      "付": 332,
      "仙": 333,
      "代": 334,
      "令": 335,
      "以": 336,
      "仨": 337,
      "仪": 338,
      "们": 339,
      "仰": 340,
      "仲": 341,
      "件": 342,
      "价": 343,
      "任": 344,
      "份": 345,
      "仿": 346,
      "企": 347,
      "伊": 348,
      "伍": 349,
      "伎": 350,
      "伏": 351,
      "伐": 352,
      "休": 353,
      "众": 354,
      "优": 355,
      "伙": 356,
      "会": 357,
      "伞": 358,
      "伟": 359,
      "传": 360,
      "伤": 361,
      "伦": 362,
      "伪": 363,
      "伯": 364,
      "估": 365,
      "伴": 366,
      "伶": 367,
      "伸": 368,
      "伺": 369,
      "似": 370,
      "伽": 371,
      "但": 372,
      "位": 373,
      "低": 374,
      "住": 375,
      "佐": 376,
      "佑": 377,
      "体": 378,
      "何": 379,
      "佗": 380,
      "余": 381,
      "佛": 382,
      "作": 383,
      "佝": 384,
      "你": 385,
      "佣": 386,
      "佤": 387,
      "佩": 388,
      "佬": 389,
      "佯": 390,
      "佰": 391,
      "佳": 392,
      "佻": 393,
      "佼": 394,
      "使": 395,
      "侃": 396,
      "侄": 397,
      "侈": 398,
      "例": 399,
      "侍": 400,
      "侏": 401,
      "供": 402,
      "依": 403,
      "侠": 404,
      "侣": 405,
      "侥": 406,
      "侦": 407,
      "侧": 408,
      "侨": 409,
      "侬": 410,
      "侮": 411,
      "侯": 412,
      "侵": 413,
      "便": 414,
      "促": 415,
      "俄": 416,
      "俊": 417,
      "俏": 418,
      "俐": 419,
      "俑": 420,
      "俗": 421,
      "俘": 422,
      "俚": 423,
      "保": 424,
      "俟": 425,
      "信": 426,
      "俣": 427,
      "俨": 428,
      "俩": 429,
      "俭": 430,
      "修": 431,
      "俯": 432,
      "俱": 433,
      "俸": 434,
      "俺": 435,
      "俾": 436,
      "個": 437,
      "倌": 438,
      "倍": 439,
      "倏": 440,
      "倒": 441,
      "倔": 442,
      "倘": 443,
      "候": 444,
      "倚": 445,
      "借": 446,
      "倡": 447,
      "倦": 448,
      "倨": 449,
      "倪": 450,
      "倫": 451,
      "倭": 452,
      "债": 453,
      "值": 454,
      "倾": 455,
      "假": 456,
      "偎": 457,
      "偏": 458,
      "做": 459,
      "停": 460,
      "健": 461,
      "偶": 462,
      "偷": 463,
      "偻": 464,
      "偿": 465,
      "傀": 466,
      "傅": 467,
      "傍": 468,
      "储": 469,
      "催": 470,
      "傲": 471,
      "傻": 472,
      "像": 473,
      "僚": 474,
      "僧": 475,
      "僵": 476,
      "僻": 477,
      "儆": 478,
      "儒": 479,
      "儡": 480,
      "儿": 481,
      "兀": 482,
      "允": 483,
      "元": 484,
      "兄": 485,
      "充": 486,
      "兆": 487,
      "先": 488,
      "光": 489,
      "克": 490,
      "免": 491,
      "兑": 492,
      "兒": 493,
      "兔": 494,
      "党": 495,
      "兜": 496,
      "兢": 497,
      "入": 498,
      "內": 499,
      "全": 500,
      "八": 501,
      "公": 502,
      "六": 503,
      "兮": 504,
      "兰": 505,
      "共": 506,
      "关": 507,
      "兴": 508,
      "兵": 509,
      "其": 510,
      "具": 511,
      "典": 512,
      "兹": 513,
      "养": 514,
      "兼": 515,
      "兽": 516,
      "冀": 517,
      "内": 518,
      "冈": 519,
      "冉": 520,
      "册": 521,
      "再": 522,
      "冒": 523,
      "冕": 524,
      "冗": 525,
      "写": 526,
      "军": 527,
      "农": 528,
      "冠": 529,
      "冢": 530,
      "冤": 531,
      "冥": 532,
      "冬": 533,
      "冯": 534,
      "冰": 535,
      "冲": 536,
      "决": 537,
      "况": 538,
      "冷": 539,
      "冻": 540,
      "冽": 541,
      "净": 542,
      "凄": 543,
      "准": 544,
      "凉": 545,
      "凋": 546,
      "凌": 547,
      "减": 548,
      "凑": 549,
      "凛": 550,
      "凝": 551,
      "几": 552,
      "凡": 553,
      "凤": 554,
      "凭": 555,
      "凯": 556,
      "凰": 557,
      "凳": 558,
      "凶": 559,
      "凸": 560,
      "凹": 561,
      "出": 562,
      "击": 563,
      "函": 564,
      "凿": 565,
      "刀": 566,
      "刁": 567,
      "刃": 568,
      "分": 569,
      "切": 570,
      "刊": 571,
      "刑": 572,
      "划": 573,
      "列": 574,
      "刘": 575,
      "则": 576,
      "刚": 577,
      "创": 578,
      "初": 579,
      "删": 580,
      "判": 581,
      "刨": 582,
      "利": 583,
      "别": 584,
      "刮": 585,
      "到": 586,
      "制": 587,
      "刷": 588,
      "券": 589,
      "刹": 590,
      "刺": 591,
      "刻": 592,
      "刽": 593,
      "剁": 594,
      "剂": 595,
      "剃": 596,
      "削": 597,
      "前": 598,
      "剑": 599,
      "剔": 600,
      "剖": 601,
      "剥": 602,
      "剧": 603,
      "剩": 604,
      "剪": 605,
      "副": 606,
      "割": 607,
      "剽": 608,
      "剿": 609,
      "劇": 610,
      "劈": 611,
      "力": 612,
      "劝": 613,
      "办": 614,
      "功": 615,
      "加": 616,
      "务": 617,
      "劣": 618,
      "动": 619,
      "助": 620,
      "努": 621,
      "劫": 622,
      "励": 623,
      "劲": 624,
      "劳": 625,
      "劾": 626,
      "势": 627,
      "勃": 628,
      "勇": 629,
      "勉": 630,
      "勋": 631,
      "勒": 632,
      "勘": 633,
      "勛": 634,
      "募": 635,
      "勤": 636,
      "勺": 637,
      "勾": 638,
      "勿": 639,
      "匀": 640,
      "包": 641,
      "匆": 642,
      "匈": 643,
      "匍": 644,
      "匐": 645,
      "匕": 646,
      "化": 647,
      "北": 648,
      "匙": 649,
      "匝": 650,
      "匠": 651,
      "匡": 652,
      "匣": 653,
      "匪": 654,
      "匮": 655,
      "匹": 656,
      "区": 657,
      "医": 658,
      "匾": 659,
      "匿": 660,
      "十": 661,
      "千": 662,
      "升": 663,
      "午": 664,
      "卉": 665,
      "半": 666,
      "华": 667,
      "协": 668,
      "卑": 669,
      "卒": 670,
      "卓": 671,
      "单": 672,
      "卖": 673,
      "南": 674,
      "博": 675,
      "卜": 676,
      "占": 677,
      "卡": 678,
      "卢": 679,
      "卤": 680,
      "卦": 681,
      "卧": 682,
      "卫": 683,
      "卯": 684,
      "印": 685,
      "危": 686,
      "即": 687,
      "却": 688,
      "卵": 689,
      "卷": 690,
      "卸": 691,
      "卿": 692,
      "厂": 693,
      "厄": 694,
      "厅": 695,
      "历": 696,
      "厉": 697,
      "压": 698,
      "厌": 699,
      "厕": 700,
      "厘": 701,
      "厚": 702,
      "原": 703,
      "厢": 704,
      "厥": 705,
      "厦": 706,
      "厨": 707,
      "厩": 708,
      "厮": 709,
      "厲": 710,
      "去": 711,
      "县": 712,
      "参": 713,
      "又": 714,
      "叉": 715,
      "及": 716,
      "友": 717,
      "双": 718,
      "反": 719,
      "发": 720,
      "叔": 721,
      "取": 722,
      "受": 723,
      "变": 724,
      "叙": 725,
      "叛": 726,
      "叟": 727,
      "叠": 728,
      "口": 729,
      "古": 730,
      "句": 731,
      "另": 732,
      "叨": 733,
      "叩": 734,
      "只": 735,
      "叫": 736,
      "召": 737,
      "叭": 738,
      "叮": 739,
      "可": 740,
      "台": 741,
      "叱": 742,
      "史": 743,
      "右": 744,
      "叶": 745,
      "号": 746,
      "司": 747,
      "叹": 748,
      "叼": 749,
      "叽": 750,
      "吁": 751,
      "吃": 752,
      "各": 753,
      "吆": 754,
      "合": 755,
      "吉": 756,
      "吊": 757,
      "吋": 758,
      "同": 759,
      "名": 760,
      "后": 761,
      "吏": 762,
      "吐": 763,
      "向": 764,
      "吓": 765,
      "吕": 766,
      "吖": 767,
      "吗": 768,
      "君": 769,
      "吝": 770,
      "吞": 771,
      "吟": 772,
      "吠": 773,
      "吡": 774,
      "否": 775,
      "吧": 776,
      "吨": 777,
      "吩": 778,
      "含": 779,
      "听": 780,
      "吭": 781,
      "吮": 782,
      "启": 783,
      "吱": 784,
      "吴": 785,
      "吵": 786,
      "吸": 787,
      "吹": 788,
      "吻": 789,
      "吼": 790,
      "吽": 791,
      "吾": 792,
      "呀": 793,
      "呃": 794,
      "呆": 795,
      "呈": 796,
      "告": 797,
      "呋": 798,
      "呐": 799,
      "呓": 800,
      "呕": 801,
      "员": 802,
      "呛": 803,
      "呜": 804,
      "呢": 805,
      "呣": 806,
      "呦": 807,
      "周": 808,
      "呯": 809,
      "呱": 810,
      "呲": 811,
      "味": 812,
      "呵": 813,
      "呸": 814,
      "呻": 815,
      "呼": 816,
      "命": 817,
      "咀": 818,
      "咄": 819,
      "咆": 820,
      "咋": 821,
      "和": 822,
      "咎": 823,
      "咏": 824,
      "咐": 825,
      "咒": 826,
      "咔": 827,
      "咕": 828,
      "咖": 829,
      "咙": 830,
      "咚": 831,
      "咝": 832,
      "咣": 833,
      "咤": 834,
      "咦": 835,
      "咧": 836,
      "咨": 837,
      "咪": 838,
      "咫": 839,
      "咬": 840,
      "咯": 841,
      "咱": 842,
      "咳": 843,
      "咸": 844,
      "咽": 845,
      "咿": 846,
      "哀": 847,
      "品": 848,
      "哄": 849,
      "哆": 850,
      "哇": 851,
      "哈": 852,
      "哉": 853,
      "哌": 854,
      "响": 855,
      "哎": 856,
      "哏": 857,
      "哐": 858,
      "哑": 859,
      "哒": 860,
      "哗": 861,
      "哝": 862,
      "哞": 863,
      "哟": 864,
      "員": 865,
      "哥": 866,
      "哦": 867,
      "哧": 868,
      "哨": 869,
      "哩": 870,
      "哪": 871,
      "哭": 872,
      "哮": 873,
      "哲": 874,
      "哵": 875,
      "哺": 876,
      "哼": 877,
      "哽": 878,
      "唁": 879,
      "唆": 880,
      "唇": 881,
      "唉": 882,
      "唏": 883,
      "唐": 884,
      "唑": 885,
      "唔": 886,
      "唠": 887,
      "唤": 888,
      "唧": 889,
      "唬": 890,
      "售": 891,
      "唯": 892,
      "唱": 893,
      "唵": 894,
      "唷": 895,
      "唾": 896,
      "啃": 897,
      "啄": 898,
      "商": 899,
      "啉": 900,
      "啊": 901,
      "啐": 902,
      "啕": 903,
      "啜": 904,
      "啡": 905,
      "啤": 906,
      "啥": 907,
      "啦": 908,
      "啪": 909,
      "啬": 910,
      "啭": 911,
      "啮": 912,
      "啰": 913,
      "啶": 914,
      "啸": 915,
      "啻": 916,
      "啼": 917,
      "喀": 918,
      "喂": 919,
      "喃": 920,
      "善": 921,
      "喇": 922,
      "喉": 923,
      "喊": 924,
      "喋": 925,
      "喏": 926,
      "喑": 927,
      "喔": 928,
      "喘": 929,
      "喙": 930,
      "喜": 931,
      "喝": 932,
      "喟": 933,
      "喧": 934,
      "喱": 935,
      "喳": 936,
      "喷": 937,
      "喹": 938,
      "喻": 939,
      "喽": 940,
      "嗅": 941,
      "嗒": 942,
      "嗓": 943,
      "嗔": 944,
      "嗖": 945,
      "嗜": 946,
      "嗝": 947,
      "嗞": 948,
      "嗡": 949,
      "嗣": 950,
      "嗤": 951,
      "嗥": 952,
      "嗦": 953,
      "嗨": 954,
      "嗬": 955,
      "嗯": 956,
      "嗱": 957,
      "嗲": 958,
      "嗳": 959,
      "嗷": 960,
      "嗽": 961,
      "嘀": 962,
      "嘁": 963,
      "嘈": 964,
      "嘉": 965,
      "嘎": 966,
      "嘘": 967,
      "嘛": 968,
      "嘟": 969,
      "嘤": 970,
      "嘧": 971,
      "嘱": 972,
      "嘲": 973,
      "嘴": 974,
      "嘶": 975,
      "嘻": 976,
      "嘿": 977,
      "噌": 978,
      "噎": 979,
      "噔": 980,
      "噗": 981,
      "噘": 982,
      "噙": 983,
      "噜": 984,
      "噢": 985,
      "噤": 986,
      "器": 987,
      "噩": 988,
      "噪": 989,
      "噬": 990,
      "噱": 991,
      "噶": 992,
      "噻": 993,
      "噼": 994,
      "嚎": 995,
      "嚏": 996,
      "嚓": 997,
      "嚣": 998,
      "嚯": 999,
      "嚷": 1000,
      "嚼": 1001,
      "囊": 1002,
      "囔": 1003,
      "囚": 1004,
      "四": 1005,
      "回": 1006,
      "因": 1007,
      "团": 1008,
      "団": 1009,
      "囤": 1010,
      "囧": 1011,
      "囫": 1012,
      "园": 1013,
      "囯": 1014,
      "困": 1015,
      "囱": 1016,
      "围": 1017,
      "囵": 1018,
      "囹": 1019,
      "固": 1020,
      "国": 1021,
      "图": 1022,
      "圃": 1023,
      "圄": 1024,
      "圆": 1025,
      "圈": 1026,
      "圏": 1027,
      "團": 1028,
      "土": 1029,
      "圣": 1030,
      "在": 1031,
      "圭": 1032,
      "地": 1033,
      "场": 1034,
      "圾": 1035,
      "址": 1036,
      "均": 1037,
      "坊": 1038,
      "坍": 1039,
      "坎": 1040,
      "坏": 1041,
      "坐": 1042,
      "坑": 1043,
      "块": 1044,
      "坚": 1045,
      "坛": 1046,
      "坝": 1047,
      "坞": 1048,
      "坟": 1049,
      "坠": 1050,
      "坡": 1051,
      "坤": 1052,
      "坦": 1053,
      "坨": 1054,
      "坪": 1055,
      "坷": 1056,
      "垂": 1057,
      "垃": 1058,
      "垄": 1059,
      "型": 1060,
      "垒": 1061,
      "垛": 1062,
      "垠": 1063,
      "垢": 1064,
      "垣": 1065,
      "垦": 1066,
      "垫": 1067,
      "垭": 1068,
      "垮": 1069,
      "垱": 1070,
      "埂": 1071,
      "埃": 1072,
      "埋": 1073,
      "城": 1074,
      "埔": 1075,
      "域": 1076,
      "培": 1077,
      "基": 1078,
      "堂": 1079,
      "堆": 1080,
      "堕": 1081,
      "堞": 1082,
      "堡": 1083,
      "堤": 1084,
      "堪": 1085,
      "堰": 1086,
      "堵": 1087,
      "塌": 1088,
      "塑": 1089,
      "塔": 1090,
      "塘": 1091,
      "塞": 1092,
      "填": 1093,
      "境": 1094,
      "墅": 1095,
      "墓": 1096,
      "墙": 1097,
      "增": 1098,
      "墟": 1099,
      "墨": 1100,
      "墩": 1101,
      "壁": 1102,
      "壅": 1103,
      "壑": 1104,
      "壕": 1105,
      "壤": 1106,
      "士": 1107,
      "壮": 1108,
      "声": 1109,
      "壳": 1110,
      "壶": 1111,
      "处": 1112,
      "备": 1113,
      "复": 1114,
      "夏": 1115,
      "夕": 1116,
      "外": 1117,
      "夙": 1118,
      "多": 1119,
      "夜": 1120,
      "够": 1121,
      "大": 1122,
      "天": 1123,
      "太": 1124,
      "夫": 1125,
      "夭": 1126,
      "央": 1127,
      "夯": 1128,
      "失": 1129,
      "头": 1130,
      "夷": 1131,
      "夸": 1132,
      "夹": 1133,
      "夺": 1134,
      "奄": 1135,
      "奇": 1136,
      "奈": 1137,
      "奉": 1138,
      "奋": 1139,
      "奎": 1140,
      "奏": 1141,
      "契": 1142,
      "奔": 1143,
      "奕": 1144,
      "奖": 1145,
      "套": 1146,
      "奚": 1147,
      "奠": 1148,
      "奢": 1149,
      "奥": 1150,
      "奧": 1151,
      "女": 1152,
      "奴": 1153,
      "奶": 1154,
      "奸": 1155,
      "她": 1156,
      "好": 1157,
      "如": 1158,
      "妃": 1159,
      "妄": 1160,
      "妆": 1161,
      "妇": 1162,
      "妈": 1163,
      "妊": 1164,
      "妒": 1165,
      "妓": 1166,
      "妖": 1167,
      "妙": 1168,
      "妞": 1169,
      "妥": 1170,
      "妨": 1171,
      "妪": 1172,
      "妮": 1173,
      "妲": 1174,
      "妳": 1175,
      "妹": 1176,
      "妻": 1177,
      "姆": 1178,
      "姊": 1179,
      "始": 1180,
      "姌": 1181,
      "姐": 1182,
      "姑": 1183,
      "姓": 1184,
      "委": 1185,
      "姗": 1186,
      "姜": 1187,
      "姨": 1188,
      "姬": 1189,
      "姻": 1190,
      "姿": 1191,
      "威": 1192,
      "娃": 1193,
      "娄": 1194,
      "娅": 1195,
      "娆": 1196,
      "娇": 1197,
      "娈": 1198,
      "娓": 1199,
      "娘": 1200,
      "娜": 1201,
      "娠": 1202,
      "娩": 1203,
      "娱": 1204,
      "娴": 1205,
      "娶": 1206,
      "娼": 1207,
      "娽": 1208,
      "婆": 1209,
      "婉": 1210,
      "婊": 1211,
      "婚": 1212,
      "婪": 1213,
      "婴": 1214,
      "婶": 1215,
      "婿": 1216,
      "媒": 1217,
      "媚": 1218,
      "媞": 1219,
      "媲": 1220,
      "媳": 1221,
      "媾": 1222,
      "嫁": 1223,
      "嫂": 1224,
      "嫉": 1225,
      "嫌": 1226,
      "嫖": 1227,
      "嫩": 1228,
      "嬉": 1229,
      "孀": 1230,
      "子": 1231,
      "孑": 1232,
      "孓": 1233,
      "孔": 1234,
      "孕": 1235,
      "字": 1236,
      "存": 1237,
      "孙": 1238,
      "孚": 1239,
      "孜": 1240,
      "孝": 1241,
      "孟": 1242,
      "孢": 1243,
      "季": 1244,
      "孤": 1245,
      "学": 1246,
      "孩": 1247,
      "孪": 1248,
      "孰": 1249,
      "孱": 1250,
      "孵": 1251,
      "孺": 1252,
      "孽": 1253,
      "宁": 1254,
      "它": 1255,
      "宄": 1256,
      "宅": 1257,
      "宇": 1258,
      "守": 1259,
      "安": 1260,
      "宋": 1261,
      "完": 1262,
      "宏": 1263,
      "宕": 1264,
      "宗": 1265,
      "官": 1266,
      "宙": 1267,
      "定": 1268,
      "宛": 1269,
      "宜": 1270,
      "宝": 1271,
      "实": 1272,
      "宠": 1273,
      "审": 1274,
      "客": 1275,
      "宣": 1276,
      "室": 1277,
      "宦": 1278,
      "宪": 1279,
      "宫": 1280,
      "宰": 1281,
      "害": 1282,
      "宴": 1283,
      "宵": 1284,
      "家": 1285,
      "容": 1286,
      "宽": 1287,
      "宾": 1288,
      "宿": 1289,
      "寂": 1290,
      "寄": 1291,
      "寅": 1292,
      "密": 1293,
      "寇": 1294,
      "富": 1295,
      "寐": 1296,
      "寒": 1297,
      "寓": 1298,
      "寝": 1299,
      "寞": 1300,
      "察": 1301,
      "寡": 1302,
      "寥": 1303,
      "實": 1304,
      "寨": 1305,
      "寸": 1306,
      "对": 1307,
      "寺": 1308,
      "寻": 1309,
      "导": 1310,
      "寿": 1311,
      "封": 1312,
      "射": 1313,
      "将": 1314,
      "尉": 1315,
      "尊": 1316,
      "小": 1317,
      "少": 1318,
      "尔": 1319,
      "尖": 1320,
      "尘": 1321,
      "尚": 1322,
      "尝": 1323,
      "尤": 1324,
      "尬": 1325,
      "就": 1326,
      "尴": 1327,
      "尸": 1328,
      "尺": 1329,
      "尼": 1330,
      "尽": 1331,
      "尾": 1332,
      "尿": 1333,
      "局": 1334,
      "屁": 1335,
      "层": 1336,
      "居": 1337,
      "屈": 1338,
      "屉": 1339,
      "届": 1340,
      "屋": 1341,
      "屌": 1342,
      "屎": 1343,
      "屏": 1344,
      "屐": 1345,
      "屑": 1346,
      "展": 1347,
      "属": 1348,
      "屠": 1349,
      "屡": 1350,
      "屣": 1351,
      "履": 1352,
      "屯": 1353,
      "山": 1354,
      "屹": 1355,
      "屿": 1356,
      "岀": 1357,
      "岁": 1358,
      "岂": 1359,
      "岌": 1360,
      "岐": 1361,
      "岑": 1362,
      "岔": 1363,
      "岖": 1364,
      "岗": 1365,
      "岛": 1366,
      "岩": 1367,
      "岬": 1368,
      "岭": 1369,
      "岳": 1370,
      "岸": 1371,
      "峋": 1372,
      "峙": 1373,
      "峡": 1374,
      "峦": 1375,
      "峭": 1376,
      "峰": 1377,
      "峻": 1378,
      "崇": 1379,
      "崎": 1380,
      "崔": 1381,
      "崖": 1382,
      "崛": 1383,
      "崩": 1384,
      "崭": 1385,
      "崴": 1386,
      "崽": 1387,
      "嵌": 1388,
      "嶂": 1389,
      "嶙": 1390,
      "巅": 1391,
      "巍": 1392,
      "川": 1393,
      "州": 1394,
      "巡": 1395,
      "巢": 1396,
      "工": 1397,
      "左": 1398,
      "巧": 1399,
      "巨": 1400,
      "巩": 1401,
      "巫": 1402,
      "差": 1403,
      "巯": 1404,
      "己": 1405,
      "已": 1406,
      "巳": 1407,
      "巴": 1408,
      "巷": 1409,
      "巾": 1410,
      "币": 1411,
      "市": 1412,
      "布": 1413,
      "帅": 1414,
      "帆": 1415,
      "师": 1416,
      "希": 1417,
      "帐": 1418,
      "帕": 1419,
      "帖": 1420,
      "帘": 1421,
      "帙": 1422,
      "帚": 1423,
      "帛": 1424,
      "帜": 1425,
      "帝": 1426,
      "带": 1427,
      "帧": 1428,
      "席": 1429,
      "帮": 1430,
      "帷": 1431,
      "常": 1432,
      "帼": 1433,
      "帽": 1434,
      "幂": 1435,
      "幄": 1436,
      "幅": 1437,
      "幌": 1438,
      "幔": 1439,
      "幕": 1440,
      "幛": 1441,
      "幡": 1442,
      "幢": 1443,
      "干": 1444,
      "平": 1445,
      "年": 1446,
      "幵": 1447,
      "并": 1448,
      "幸": 1449,
      "幻": 1450,
      "幼": 1451,
      "幽": 1452,
      "广": 1453,
      "庄": 1454,
      "庆": 1455,
      "庇": 1456,
      "床": 1457,
      "序": 1458,
      "庐": 1459,
      "库": 1460,
      "应": 1461,
      "底": 1462,
      "店": 1463,
      "庙": 1464,
      "庚": 1465,
      "府": 1466,
      "庞": 1467,
      "废": 1468,
      "度": 1469,
      "座": 1470,
      "庭": 1471,
      "庶": 1472,
      "康": 1473,
      "庸": 1474,
      "廉": 1475,
      "廊": 1476,
      "廓": 1477,
      "延": 1478,
      "廷": 1479,
      "建": 1480,
      "廿": 1481,
      "开": 1482,
      "异": 1483,
      "弃": 1484,
      "弄": 1485,
      "弈": 1486,
      "弊": 1487,
      "弋": 1488,
      "式": 1489,
      "弑": 1490,
      "弓": 1491,
      "引": 1492,
      "弗": 1493,
      "弘": 1494,
      "弛": 1495,
      "弟": 1496,
      "张": 1497,
      "弥": 1498,
      "弦": 1499,
      "弧": 1500,
      "弭": 1501,
      "弯": 1502,
      "弱": 1503,
      "弹": 1504,
      "强": 1505,
      "归": 1506,
      "当": 1507,
      "录": 1508,
      "彗": 1509,
      "形": 1510,
      "彤": 1511,
      "彩": 1512,
      "彪": 1513,
      "彬": 1514,
      "彭": 1515,
      "彰": 1516,
      "影": 1517,
      "彷": 1518,
      "役": 1519,
      "彻": 1520,
      "彼": 1521,
      "往": 1522,
      "征": 1523,
      "径": 1524,
      "待": 1525,
      "很": 1526,
      "徉": 1527,
      "徊": 1528,
      "律": 1529,
      "後": 1530,
      "徐": 1531,
      "徒": 1532,
      "徕": 1533,
      "得": 1534,
      "徘": 1535,
      "徙": 1536,
      "徜": 1537,
      "御": 1538,
      "循": 1539,
      "微": 1540,
      "德": 1541,
      "徽": 1542,
      "心": 1543,
      "必": 1544,
      "忆": 1545,
      "忌": 1546,
      "忍": 1547,
      "忏": 1548,
      "忐": 1549,
      "忑": 1550,
      "忒": 1551,
      "忖": 1552,
      "志": 1553,
      "忘": 1554,
      "忙": 1555,
      "忠": 1556,
      "忡": 1557,
      "忤": 1558,
      "忧": 1559,
      "快": 1560,
      "忱": 1561,
      "念": 1562,
      "忽": 1563,
      "忿": 1564,
      "怀": 1565,
      "态": 1566,
      "怂": 1567,
      "怅": 1568,
      "怆": 1569,
      "怎": 1570,
      "怏": 1571,
      "怒": 1572,
      "怔": 1573,
      "怕": 1574,
      "怖": 1575,
      "怜": 1576,
      "思": 1577,
      "怠": 1578,
      "怡": 1579,
      "急": 1580,
      "怦": 1581,
      "性": 1582,
      "怨": 1583,
      "怪": 1584,
      "怯": 1585,
      "总": 1586,
      "恂": 1587,
      "恃": 1588,
      "恋": 1589,
      "恍": 1590,
      "恐": 1591,
      "恒": 1592,
      "恕": 1593,
      "恙": 1594,
      "恢": 1595,
      "恣": 1596,
      "恤": 1597,
      "恨": 1598,
      "恩": 1599,
      "恪": 1600,
      "恫": 1601,
      "恬": 1602,
      "恭": 1603,
      "息": 1604,
      "恰": 1605,
      "恳": 1606,
      "恶": 1607,
      "恸": 1608,
      "恹": 1609,
      "恺": 1610,
      "恻": 1611,
      "恼": 1612,
      "悄": 1613,
      "悉": 1614,
      "悍": 1615,
      "悔": 1616,
      "悖": 1617,
      "悚": 1618,
      "悟": 1619,
      "悠": 1620,
      "患": 1621,
      "悦": 1622,
      "您": 1623,
      "悬": 1624,
      "悯": 1625,
      "悲": 1626,
      "悴": 1627,
      "悸": 1628,
      "悼": 1629,
      "情": 1630,
      "惆": 1631,
      "惊": 1632,
      "惋": 1633,
      "惑": 1634,
      "惕": 1635,
      "惘": 1636,
      "惚": 1637,
      "惜": 1638,
      "惟": 1639,
      "惠": 1640,
      "惦": 1641,
      "惧": 1642,
      "惨": 1643,
      "惩": 1644,
      "惫": 1645,
      "惬": 1646,
      "惭": 1647,
      "惮": 1648,
      "惯": 1649,
      "惰": 1650,
      "想": 1651,
      "惴": 1652,
      "惶": 1653,
      "惹": 1654,
      "愁": 1655,
      "愈": 1656,
      "愉": 1657,
      "意": 1658,
      "愕": 1659,
      "愚": 1660,
      "感": 1661,
      "愠": 1662,
      "愣": 1663,
      "愤": 1664,
      "愦": 1665,
      "愧": 1666,
      "愫": 1667,
      "愿": 1668,
      "慈": 1669,
      "慌": 1670,
      "慎": 1671,
      "慑": 1672,
      "慕": 1673,
      "慢": 1674,
      "慧": 1675,
      "慨": 1676,
      "慰": 1677,
      "慵": 1678,
      "慷": 1679,
      "憋": 1680,
      "憎": 1681,
      "憔": 1682,
      "憧": 1683,
      "憩": 1684,
      "憬": 1685,
      "憾": 1686,
      "懂": 1687,
      "懈": 1688,
      "懊": 1689,
      "懑": 1690,
      "懒": 1691,
      "懦": 1692,
      "懵": 1693,
      "戈": 1694,
      "戊": 1695,
      "戍": 1696,
      "戎": 1697,
      "戏": 1698,
      "成": 1699,
      "我": 1700,
      "戒": 1701,
      "戕": 1702,
      "或": 1703,
      "戗": 1704,
      "战": 1705,
      "戚": 1706,
      "戛": 1707,
      "戟": 1708,
      "截": 1709,
      "戮": 1710,
      "戳": 1711,
      "戴": 1712,
      "户": 1713,
      "戽": 1714,
      "戾": 1715,
      "房": 1716,
      "所": 1717,
      "扁": 1718,
      "扇": 1719,
      "扈": 1720,
      "扉": 1721,
      "手": 1722,
      "才": 1723,
      "扎": 1724,
      "扑": 1725,
      "扒": 1726,
      "打": 1727,
      "扔": 1728,
      "托": 1729,
      "扛": 1730,
      "扣": 1731,
      "执": 1732,
      "扩": 1733,
      "扪": 1734,
      "扫": 1735,
      "扬": 1736,
      "扭": 1737,
      "扮": 1738,
      "扯": 1739,
      "扰": 1740,
      "扳": 1741,
      "扶": 1742,
      "批": 1743,
      "扼": 1744,
      "找": 1745,
      "承": 1746,
      "技": 1747,
      "抄": 1748,
      "抉": 1749,
      "把": 1750,
      "抑": 1751,
      "抒": 1752,
      "抓": 1753,
      "投": 1754,
      "抖": 1755,
      "抗": 1756,
      "折": 1757,
      "抚": 1758,
      "抛": 1759,
      "抠": 1760,
      "抢": 1761,
      "护": 1762,
      "报": 1763,
      "抨": 1764,
      "披": 1765,
      "抬": 1766,
      "抯": 1767,
      "抱": 1768,
      "抵": 1769,
      "抹": 1770,
      "押": 1771,
      "抽": 1772,
      "抿": 1773,
      "拂": 1774,
      "拄": 1775,
      "担": 1776,
      "拆": 1777,
      "拇": 1778,
      "拈": 1779,
      "拉": 1780,
      "拋": 1781,
      "拌": 1782,
      "拍": 1783,
      "拎": 1784,
      "拐": 1785,
      "拒": 1786,
      "拓": 1787,
      "拔": 1788,
      "拖": 1789,
      "拗": 1790,
      "拘": 1791,
      "拙": 1792,
      "招": 1793,
      "拜": 1794,
      "拟": 1795,
      "拢": 1796,
      "拣": 1797,
      "拥": 1798,
      "拦": 1799,
      "拧": 1800,
      "拨": 1801,
      "择": 1802,
      "括": 1803,
      "拭": 1804,
      "拮": 1805,
      "拯": 1806,
      "拱": 1807,
      "拳": 1808,
      "拴": 1809,
      "拷": 1810,
      "拼": 1811,
      "拽": 1812,
      "拾": 1813,
      "拿": 1814,
      "持": 1815,
      "挂": 1816,
      "指": 1817,
      "按": 1818,
      "挎": 1819,
      "挑": 1820,
      "挖": 1821,
      "挚": 1822,
      "挛": 1823,
      "挝": 1824,
      "挞": 1825,
      "挟": 1826,
      "挠": 1827,
      "挡": 1828,
      "挣": 1829,
      "挤": 1830,
      "挥": 1831,
      "挨": 1832,
      "挪": 1833,
      "挫": 1834,
      "振": 1835,
      "挲": 1836,
      "挺": 1837,
      "挽": 1838,
      "捂": 1839,
      "捅": 1840,
      "捆": 1841,
      "捉": 1842,
      "捋": 1843,
      "捍": 1844,
      "捎": 1845,
      "捏": 1846,
      "捐": 1847,
      "捕": 1848,
      "捞": 1849,
      "损": 1850,
      "捡": 1851,
      "换": 1852,
      "捣": 1853,
      "捧": 1854,
      "据": 1855,
      "捶": 1856,
      "捷": 1857,
      "捺": 1858,
      "捻": 1859,
      "掀": 1860,
      "掂": 1861,
      "授": 1862,
      "掉": 1863,
      "掌": 1864,
      "掏": 1865,
      "掐": 1866,
      "排": 1867,
      "掖": 1868,
      "掘": 1869,
      "掠": 1870,
      "探": 1871,
      "掣": 1872,
      "接": 1873,
      "控": 1874,
      "推": 1875,
      "掩": 1876,
      "措": 1877,
      "掬": 1878,
      "掰": 1879,
      "掳": 1880,
      "掴": 1881,
      "掷": 1882,
      "掸": 1883,
      "掺": 1884,
      "揄": 1885,
      "揉": 1886,
      "揍": 1887,
      "描": 1888,
      "提": 1889,
      "插": 1890,
      "握": 1891,
      "揣": 1892,
      "揩": 1893,
      "揪": 1894,
      "揭": 1895,
      "援": 1896,
      "揶": 1897,
      "揽": 1898,
      "搀": 1899,
      "搁": 1900,
      "搂": 1901,
      "搅": 1902,
      "搏": 1903,
      "搐": 1904,
      "搓": 1905,
      "搔": 1906,
      "搜": 1907,
      "搞": 1908,
      "搡": 1909,
      "搪": 1910,
      "搬": 1911,
      "搭": 1912,
      "携": 1913,
      "摁": 1914,
      "摄": 1915,
      "摆": 1916,
      "摇": 1917,
      "摈": 1918,
      "摊": 1919,
      "摒": 1920,
      "摔": 1921,
      "摘": 1922,
      "摞": 1923,
      "摧": 1924,
      "摩": 1925,
      "摸": 1926,
      "摹": 1927,
      "撂": 1928,
      "撃": 1929,
      "撅": 1930,
      "撇": 1931,
      "撑": 1932,
      "撒": 1933,
      "撕": 1934,
      "撞": 1935,
      "撤": 1936,
      "撩": 1937,
      "撬": 1938,
      "播": 1939,
      "撮": 1940,
      "撰": 1941,
      "撵": 1942,
      "撸": 1943,
      "撼": 1944,
      "擀": 1945,
      "擂": 1946,
      "擅": 1947,
      "操": 1948,
      "擎": 1949,
      "擘": 1950,
      "據": 1951,
      "擞": 1952,
      "擤": 1953,
      "擦": 1954,
      "擧": 1955,
      "攀": 1956,
      "攒": 1957,
      "攘": 1958,
      "攥": 1959,
      "攫": 1960,
      "支": 1961,
      "收": 1962,
      "攸": 1963,
      "改": 1964,
      "攻": 1965,
      "放": 1966,
      "政": 1967,
      "故": 1968,
      "效": 1969,
      "敌": 1970,
      "敎": 1971,
      "敏": 1972,
      "救": 1973,
      "敕": 1974,
      "教": 1975,
      "敛": 1976,
      "敝": 1977,
      "敞": 1978,
      "敢": 1979,
      "散": 1980,
      "敦": 1981,
      "敬": 1982,
      "数": 1983,
      "敲": 1984,
      "整": 1985,
      "敷": 1986,
      "文": 1987,
      "斋": 1988,
      "斐": 1989,
      "斑": 1990,
      "斓": 1991,
      "斗": 1992,
      "料": 1993,
      "斜": 1994,
      "斟": 1995,
      "斡": 1996,
      "斤": 1997,
      "斥": 1998,
      "斧": 1999,
      "斩": 2000,
      "断": 2001,
      "斯": 2002,
      "新": 2003,
      "方": 2004,
      "於": 2005,
      "施": 2006,
      "旁": 2007,
      "旅": 2008,
      "旋": 2009,
      "族": 2010,
      "旗": 2011,
      "无": 2012,
      "既": 2013,
      "日": 2014,
      "旦": 2015,
      "旧": 2016,
      "旨": 2017,
      "早": 2018,
      "旬": 2019,
      "旮": 2020,
      "旯": 2021,
      "旱": 2022,
      "时": 2023,
      "旷": 2024,
      "旺": 2025,
      "昂": 2026,
      "昆": 2027,
      "昊": 2028,
      "昌": 2029,
      "明": 2030,
      "昏": 2031,
      "易": 2032,
      "昔": 2033,
      "昙": 2034,
      "星": 2035,
      "映": 2036,
      "春": 2037,
      "昧": 2038,
      "昨": 2039,
      "昭": 2040,
      "是": 2041,
      "昵": 2042,
      "昼": 2043,
      "显": 2044,
      "晃": 2045,
      "晋": 2046,
      "晒": 2047,
      "晓": 2048,
      "晕": 2049,
      "晖": 2050,
      "晚": 2051,
      "晤": 2052,
      "晦": 2053,
      "晨": 2054,
      "普": 2055,
      "景": 2056,
      "晰": 2057,
      "晴": 2058,
      "晶": 2059,
      "智": 2060,
      "晾": 2061,
      "暂": 2062,
      "暄": 2063,
      "暇": 2064,
      "暑": 2065,
      "暖": 2066,
      "暗": 2067,
      "暧": 2068,
      "暨": 2069,
      "暮": 2070,
      "暴": 2071,
      "暹": 2072,
      "曙": 2073,
      "曜": 2074,
      "曝": 2075,
      "曦": 2076,
      "曰": 2077,
      "曲": 2078,
      "曳": 2079,
      "更": 2080,
      "曹": 2081,
      "曼": 2082,
      "曾": 2083,
      "替": 2084,
      "最": 2085,
      "月": 2086,
      "有": 2087,
      "朋": 2088,
      "服": 2089,
      "朔": 2090,
      "朕": 2091,
      "朗": 2092,
      "望": 2093,
      "朝": 2094,
      "期": 2095,
      "朦": 2096,
      "木": 2097,
      "未": 2098,
      "末": 2099,
      "本": 2100,
      "札": 2101,
      "术": 2102,
      "朱": 2103,
      "朴": 2104,
      "朵": 2105,
      "机": 2106,
      "朽": 2107,
      "杀": 2108,
      "杂": 2109,
      "权": 2110,
      "杆": 2111,
      "杉": 2112,
      "李": 2113,
      "杏": 2114,
      "材": 2115,
      "村": 2116,
      "杖": 2117,
      "杜": 2118,
      "杞": 2119,
      "束": 2120,
      "杠": 2121,
      "条": 2122,
      "来": 2123,
      "杨": 2124,
      "杭": 2125,
      "杯": 2126,
      "杰": 2127,
      "杳": 2128,
      "杵": 2129,
      "松": 2130,
      "板": 2131,
      "极": 2132,
      "构": 2133,
      "枋": 2134,
      "析": 2135,
      "枕": 2136,
      "林": 2137,
      "枚": 2138,
      "果": 2139,
      "枝": 2140,
      "枢": 2141,
      "枣": 2142,
      "枪": 2143,
      "枫": 2144,
      "枭": 2145,
      "枯": 2146,
      "架": 2147,
      "柄": 2148,
      "柏": 2149,
      "某": 2150,
      "柑": 2151,
      "染": 2152,
      "柔": 2153,
      "柚": 2154,
      "柜": 2155,
      "柠": 2156,
      "查": 2157,
      "柩": 2158,
      "柬": 2159,
      "柯": 2160,
      "柱": 2161,
      "柳": 2162,
      "柴": 2163,
      "査": 2164,
      "柿": 2165,
      "栀": 2166,
      "栅": 2167,
      "标": 2168,
      "栈": 2169,
      "栋": 2170,
      "栏": 2171,
      "树": 2172,
      "栓": 2173,
      "栖": 2174,
      "栗": 2175,
      "校": 2176,
      "栩": 2177,
      "株": 2178,
      "样": 2179,
      "核": 2180,
      "根": 2181,
      "格": 2182,
      "栽": 2183,
      "桀": 2184,
      "桂": 2185,
      "桃": 2186,
      "桅": 2187,
      "框": 2188,
      "案": 2189,
      "桉": 2190,
      "桌": 2191,
      "桎": 2192,
      "桐": 2193,
      "桑": 2194,
      "桓": 2195,
      "桔": 2196,
      "桠": 2197,
      "档": 2198,
      "桥": 2199,
      "桦": 2200,
      "桨": 2201,
      "桩": 2202,
      "桶": 2203,
      "梁": 2204,
      "梅": 2205,
      "梏": 2206,
      "梓": 2207,
      "梗": 2208,
      "梢": 2209,
      "梦": 2210,
      "梧": 2211,
      "梨": 2212,
      "梭": 2213,
      "梯": 2214,
      "械": 2215,
      "梳": 2216,
      "梵": 2217,
      "检": 2218,
      "棉": 2219,
      "棋": 2220,
      "棍": 2221,
      "棒": 2222,
      "棕": 2223,
      "棘": 2224,
      "棚": 2225,
      "森": 2226,
      "棱": 2227,
      "棵": 2228,
      "棺": 2229,
      "椅": 2230,
      "植": 2231,
      "椎": 2232,
      "椒": 2233,
      "椭": 2234,
      "椰": 2235,
      "楂": 2236,
      "楔": 2237,
      "楚": 2238,
      "楠": 2239,
      "楣": 2240,
      "楷": 2241,
      "楼": 2242,
      "概": 2243,
      "榄": 2244,
      "榆": 2245,
      "榈": 2246,
      "榉": 2247,
      "榔": 2248,
      "榜": 2249,
      "榨": 2250,
      "榭": 2251,
      "榴": 2252,
      "榷": 2253,
      "榻": 2254,
      "槁": 2255,
      "槃": 2256,
      "槐": 2257,
      "槛": 2258,
      "槟": 2259,
      "槭": 2260,
      "槽": 2261,
      "樟": 2262,
      "模": 2263,
      "横": 2264,
      "樱": 2265,
      "橄": 2266,
      "橇": 2267,
      "橘": 2268,
      "橙": 2269,
      "橡": 2270,
      "橱": 2271,
      "檀": 2272,
      "檐": 2273,
      "檬": 2274,
      "欠": 2275,
      "次": 2276,
      "欢": 2277,
      "欣": 2278,
      "欧": 2279,
      "欲": 2280,
      "欺": 2281,
      "款": 2282,
      "歇": 2283,
      "歉": 2284,
      "歌": 2285,
      "止": 2286,
      "正": 2287,
      "此": 2288,
      "步": 2289,
      "武": 2290,
      "歧": 2291,
      "歪": 2292,
      "歹": 2293,
      "死": 2294,
      "殃": 2295,
      "殆": 2296,
      "殉": 2297,
      "殊": 2298,
      "残": 2299,
      "殒": 2300,
      "殖": 2301,
      "殡": 2302,
      "殴": 2303,
      "段": 2304,
      "殷": 2305,
      "殿": 2306,
      "毁": 2307,
      "毅": 2308,
      "毋": 2309,
      "母": 2310,
      "毎": 2311,
      "每": 2312,
      "毒": 2313,
      "比": 2314,
      "毕": 2315,
      "毗": 2316,
      "毙": 2317,
      "毛": 2318,
      "毡": 2319,
      "毫": 2320,
      "毯": 2321,
      "氏": 2322,
      "民": 2323,
      "氓": 2324,
      "气": 2325,
      "氛": 2326,
      "氟": 2327,
      "氢": 2328,
      "氤": 2329,
      "氦": 2330,
      "氧": 2331,
      "氨": 2332,
      "氮": 2333,
      "氯": 2334,
      "氲": 2335,
      "水": 2336,
      "永": 2337,
      "汀": 2338,
      "汁": 2339,
      "求": 2340,
      "汇": 2341,
      "汉": 2342,
      "汗": 2343,
      "汛": 2344,
      "汝": 2345,
      "江": 2346,
      "池": 2347,
      "污": 2348,
      "汤": 2349,
      "汨": 2350,
      "汩": 2351,
      "汪": 2352,
      "汰": 2353,
      "汲": 2354,
      "汶": 2355,
      "汹": 2356,
      "汽": 2357,
      "沁": 2358,
      "沃": 2359,
      "沈": 2360,
      "沉": 2361,
      "沌": 2362,
      "沏": 2363,
      "沐": 2364,
      "沒": 2365,
      "沓": 2366,
      "沙": 2367,
      "沛": 2368,
      "沟": 2369,
      "没": 2370,
      "沥": 2371,
      "沦": 2372,
      "沧": 2373,
      "沫": 2374,
      "沮": 2375,
      "河": 2376,
      "沸": 2377,
      "油": 2378,
      "治": 2379,
      "沼": 2380,
      "沽": 2381,
      "沾": 2382,
      "沿": 2383,
      "泄": 2384,
      "泉": 2385,
      "泊": 2386,
      "泌": 2387,
      "泓": 2388,
      "泔": 2389,
      "法": 2390,
      "泛": 2391,
      "泞": 2392,
      "泡": 2393,
      "波": 2394,
      "泣": 2395,
      "泥": 2396,
      "注": 2397,
      "泪": 2398,
      "泮": 2399,
      "泰": 2400,
      "泱": 2401,
      "泳": 2402,
      "泵": 2403,
      "泻": 2404,
      "泼": 2405,
      "泽": 2406,
      "泾": 2407,
      "洁": 2408,
      "洋": 2409,
      "洒": 2410,
      "洗": 2411,
      "洛": 2412,
      "洞": 2413,
      "津": 2414,
      "洪": 2415,
      "洲": 2416,
      "洵": 2417,
      "活": 2418,
      "洼": 2419,
      "洽": 2420,
      "派": 2421,
      "流": 2422,
      "浃": 2423,
      "浅": 2424,
      "浆": 2425,
      "浇": 2426,
      "浊": 2427,
      "测": 2428,
      "济": 2429,
      "浏": 2430,
      "浑": 2431,
      "浓": 2432,
      "浙": 2433,
      "浣": 2434,
      "浦": 2435,
      "浩": 2436,
      "浪": 2437,
      "浮": 2438,
      "浴": 2439,
      "海": 2440,
      "浸": 2441,
      "涂": 2442,
      "涅": 2443,
      "消": 2444,
      "涉": 2445,
      "涌": 2446,
      "涎": 2447,
      "涓": 2448,
      "涕": 2449,
      "涛": 2450,
      "涝": 2451,
      "涟": 2452,
      "涡": 2453,
      "涣": 2454,
      "涤": 2455,
      "润": 2456,
      "涧": 2457,
      "涨": 2458,
      "涩": 2459,
      "涪": 2460,
      "涮": 2461,
      "涯": 2462,
      "液": 2463,
      "涵": 2464,
      "涸": 2465,
      "淀": 2466,
      "淆": 2467,
      "淇": 2468,
      "淋": 2469,
      "淌": 2470,
      "淑": 2471,
      "淘": 2472,
      "淡": 2473,
      "淤": 2474,
      "淫": 2475,
      "淬": 2476,
      "深": 2477,
      "混": 2478,
      "淹": 2479,
      "添": 2480,
      "清": 2481,
      "渊": 2482,
      "渍": 2483,
      "渎": 2484,
      "渐": 2485,
      "渔": 2486,
      "渗": 2487,
      "渝": 2488,
      "渠": 2489,
      "渡": 2490,
      "渣": 2491,
      "渥": 2492,
      "温": 2493,
      "渭": 2494,
      "港": 2495,
      "渲": 2496,
      "渴": 2497,
      "游": 2498,
      "渺": 2499,
      "湃": 2500,
      "湄": 2501,
      "湍": 2502,
      "湎": 2503,
      "湖": 2504,
      "湛": 2505,
      "湮": 2506,
      "湾": 2507,
      "湿": 2508,
      "溃": 2509,
      "溅": 2510,
      "溉": 2511,
      "源": 2512,
      "溜": 2513,
      "溢": 2514,
      "溪": 2515,
      "溯": 2516,
      "溴": 2517,
      "溶": 2518,
      "溺": 2519,
      "滋": 2520,
      "滑": 2521,
      "滔": 2522,
      "滕": 2523,
      "滚": 2524,
      "滞": 2525,
      "滟": 2526,
      "满": 2527,
      "滤": 2528,
      "滥": 2529,
      "滨": 2530,
      "滩": 2531,
      "滴": 2532,
      "漂": 2533,
      "漆": 2534,
      "漉": 2535,
      "漏": 2536,
      "漓": 2537,
      "演": 2538,
      "漠": 2539,
      "漩": 2540,
      "漪": 2541,
      "漫": 2542,
      "漱": 2543,
      "潇": 2544,
      "潋": 2545,
      "潘": 2546,
      "潜": 2547,
      "潢": 2548,
      "潦": 2549,
      "潭": 2550,
      "潮": 2551,
      "潸": 2552,
      "潺": 2553,
      "澄": 2554,
      "澈": 2555,
      "澎": 2556,
      "澜": 2557,
      "澡": 2558,
      "澳": 2559,
      "激": 2560,
      "濒": 2561,
      "濡": 2562,
      "濮": 2563,
      "瀑": 2564,
      "瀚": 2565,
      "灌": 2566,
      "火": 2567,
      "灭": 2568,
      "灯": 2569,
      "灰": 2570,
      "灵": 2571,
      "灶": 2572,
      "灸": 2573,
      "灼": 2574,
      "灾": 2575,
      "灿": 2576,
      "炉": 2577,
      "炊": 2578,
      "炎": 2579,
      "炒": 2580,
      "炖": 2581,
      "炙": 2582,
      "炝": 2583,
      "炫": 2584,
      "炬": 2585,
      "炭": 2586,
      "炮": 2587,
      "炯": 2588,
      "炷": 2589,
      "炸": 2590,
      "点": 2591,
      "為": 2592,
      "炼": 2593,
      "炽": 2594,
      "烁": 2595,
      "烂": 2596,
      "烃": 2597,
      "烈": 2598,
      "烊": 2599,
      "烘": 2600,
      "烙": 2601,
      "烛": 2602,
      "烟": 2603,
      "烤": 2604,
      "烦": 2605,
      "烧": 2606,
      "烩": 2607,
      "烫": 2608,
      "烬": 2609,
      "热": 2610,
      "烯": 2611,
      "烷": 2612,
      "烹": 2613,
      "烽": 2614,
      "焉": 2615,
      "焊": 2616,
      "焕": 2617,
      "焖": 2618,
      "焗": 2619,
      "焙": 2620,
      "焚": 2621,
      "焦": 2622,
      "焰": 2623,
      "然": 2624,
      "煌": 2625,
      "煎": 2626,
      "煞": 2627,
      "煤": 2628,
      "煥": 2629,
      "照": 2630,
      "煨": 2631,
      "煮": 2632,
      "煽": 2633,
      "熄": 2634,
      "熊": 2635,
      "熏": 2636,
      "熔": 2637,
      "熙": 2638,
      "熟": 2639,
      "熠": 2640,
      "熨": 2641,
      "熬": 2642,
      "熱": 2643,
      "燃": 2644,
      "燎": 2645,
      "燕": 2646,
      "燥": 2647,
      "燧": 2648,
      "爆": 2649,
      "爪": 2650,
      "爬": 2651,
      "爱": 2652,
      "爵": 2653,
      "父": 2654,
      "爷": 2655,
      "爸": 2656,
      "爹": 2657,
      "爽": 2658,
      "爿": 2659,
      "片": 2660,
      "版": 2661,
      "牌": 2662,
      "牍": 2663,
      "牒": 2664,
      "牙": 2665,
      "牛": 2666,
      "牟": 2667,
      "牡": 2668,
      "牢": 2669,
      "牧": 2670,
      "物": 2671,
      "牲": 2672,
      "牵": 2673,
      "特": 2674,
      "牺": 2675,
      "牻": 2676,
      "犀": 2677,
      "犁": 2678,
      "犄": 2679,
      "犊": 2680,
      "犒": 2681,
      "犬": 2682,
      "犯": 2683,
      "状": 2684,
      "犷": 2685,
      "犹": 2686,
      "狂": 2687,
      "狄": 2688,
      "狈": 2689,
      "狐": 2690,
      "狒": 2691,
      "狗": 2692,
      "狙": 2693,
      "狠": 2694,
      "狡": 2695,
      "狨": 2696,
      "狩": 2697,
      "独": 2698,
      "狭": 2699,
      "狮": 2700,
      "狱": 2701,
      "狸": 2702,
      "狼": 2703,
      "猁": 2704,
      "猎": 2705,
      "猕": 2706,
      "猖": 2707,
      "猛": 2708,
      "猜": 2709,
      "猝": 2710,
      "猞": 2711,
      "猥": 2712,
      "猩": 2713,
      "猪": 2714,
      "猫": 2715,
      "献": 2716,
      "猴": 2717,
      "猾": 2718,
      "猿": 2719,
      "獒": 2720,
      "獗": 2721,
      "獾": 2722,
      "玄": 2723,
      "率": 2724,
      "玉": 2725,
      "王": 2726,
      "玑": 2727,
      "玛": 2728,
      "玩": 2729,
      "玫": 2730,
      "玮": 2731,
      "环": 2732,
      "现": 2733,
      "玲": 2734,
      "玷": 2735,
      "玺": 2736,
      "玻": 2737,
      "珀": 2738,
      "珂": 2739,
      "珉": 2740,
      "珊": 2741,
      "珍": 2742,
      "珐": 2743,
      "珑": 2744,
      "珠": 2745,
      "珩": 2746,
      "班": 2747,
      "球": 2748,
      "琅": 2749,
      "理": 2750,
      "琐": 2751,
      "琢": 2752,
      "琥": 2753,
      "琪": 2754,
      "琰": 2755,
      "琳": 2756,
      "琴": 2757,
      "琵": 2758,
      "琶": 2759,
      "琼": 2760,
      "瑕": 2761,
      "瑙": 2762,
      "瑚": 2763,
      "瑜": 2764,
      "瑞": 2765,
      "瑟": 2766,
      "瑰": 2767,
      "璀": 2768,
      "璃": 2769,
      "璇": 2770,
      "璜": 2771,
      "璞": 2772,
      "璧": 2773,
      "璨": 2774,
      "瓜": 2775,
      "瓢": 2776,
      "瓣": 2777,
      "瓤": 2778,
      "瓦": 2779,
      "瓮": 2780,
      "瓶": 2781,
      "瓷": 2782,
      "甘": 2783,
      "甚": 2784,
      "甜": 2785,
      "生": 2786,
      "甥": 2787,
      "用": 2788,
      "甩": 2789,
      "甫": 2790,
      "甬": 2791,
      "田": 2792,
      "由": 2793,
      "甲": 2794,
      "申": 2795,
      "电": 2796,
      "甶": 2797,
      "男": 2798,
      "甸": 2799,
      "画": 2800,
      "甾": 2801,
      "畅": 2802,
      "界": 2803,
      "畏": 2804,
      "畔": 2805,
      "留": 2806,
      "畚": 2807,
      "畜": 2808,
      "略": 2809,
      "番": 2810,
      "畴": 2811,
      "畸": 2812,
      "疆": 2813,
      "疏": 2814,
      "疑": 2815,
      "疖": 2816,
      "疗": 2817,
      "疙": 2818,
      "疚": 2819,
      "疝": 2820,
      "疟": 2821,
      "疡": 2822,
      "疣": 2823,
      "疤": 2824,
      "疫": 2825,
      "疮": 2826,
      "疯": 2827,
      "疱": 2828,
      "疲": 2829,
      "疴": 2830,
      "疵": 2831,
      "疹": 2832,
      "疼": 2833,
      "疽": 2834,
      "疾": 2835,
      "痂": 2836,
      "病": 2837,
      "症": 2838,
      "痉": 2839,
      "痊": 2840,
      "痍": 2841,
      "痒": 2842,
      "痕": 2843,
      "痘": 2844,
      "痛": 2845,
      "痢": 2846,
      "痣": 2847,
      "痤": 2848,
      "痪": 2849,
      "痫": 2850,
      "痰": 2851,
      "痳": 2852,
      "痴": 2853,
      "痹": 2854,
      "痼": 2855,
      "瘀": 2856,
      "瘁": 2857,
      "瘙": 2858,
      "瘟": 2859,
      "瘠": 2860,
      "瘤": 2861,
      "瘦": 2862,
      "瘩": 2863,
      "瘪": 2864,
      "瘫": 2865,
      "瘴": 2866,
      "瘸": 2867,
      "瘾": 2868,
      "癌": 2869,
      "癖": 2870,
      "癞": 2871,
      "癣": 2872,
      "癫": 2873,
      "登": 2874,
      "白": 2875,
      "百": 2876,
      "皂": 2877,
      "的": 2878,
      "皆": 2879,
      "皇": 2880,
      "皈": 2881,
      "皑": 2882,
      "皙": 2883,
      "皮": 2884,
      "皱": 2885,
      "皿": 2886,
      "盆": 2887,
      "盈": 2888,
      "益": 2889,
      "盎": 2890,
      "盏": 2891,
      "盐": 2892,
      "监": 2893,
      "盒": 2894,
      "盔": 2895,
      "盖": 2896,
      "盗": 2897,
      "盘": 2898,
      "盛": 2899,
      "盟": 2900,
      "盥": 2901,
      "目": 2902,
      "盯": 2903,
      "盲": 2904,
      "直": 2905,
      "相": 2906,
      "盹": 2907,
      "盼": 2908,
      "盾": 2909,
      "省": 2910,
      "眉": 2911,
      "看": 2912,
      "真": 2913,
      "眠": 2914,
      "眨": 2915,
      "眩": 2916,
      "眯": 2917,
      "眶": 2918,
      "眷": 2919,
      "眸": 2920,
      "眺": 2921,
      "眼": 2922,
      "着": 2923,
      "睁": 2924,
      "睐": 2925,
      "睑": 2926,
      "睛": 2927,
      "睡": 2928,
      "督": 2929,
      "睦": 2930,
      "睫": 2931,
      "睬": 2932,
      "睹": 2933,
      "睺": 2934,
      "睽": 2935,
      "睾": 2936,
      "睿": 2937,
      "瞄": 2938,
      "瞅": 2939,
      "瞌": 2940,
      "瞎": 2941,
      "瞒": 2942,
      "瞟": 2943,
      "瞠": 2944,
      "瞥": 2945,
      "瞧": 2946,
      "瞩": 2947,
      "瞪": 2948,
      "瞬": 2949,
      "瞭": 2950,
      "瞰": 2951,
      "瞳": 2952,
      "瞻": 2953,
      "矗": 2954,
      "矛": 2955,
      "矜": 2956,
      "矢": 2957,
      "矣": 2958,
      "知": 2959,
      "矩": 2960,
      "矫": 2961,
      "短": 2962,
      "矮": 2963,
      "石": 2964,
      "矶": 2965,
      "矿": 2966,
      "码": 2967,
      "砂": 2968,
      "砌": 2969,
      "砍": 2970,
      "研": 2971,
      "砖": 2972,
      "砧": 2973,
      "砰": 2974,
      "破": 2975,
      "砸": 2976,
      "砺": 2977,
      "砾": 2978,
      "础": 2979,
      "硅": 2980,
      "硕": 2981,
      "硝": 2982,
      "硫": 2983,
      "硬": 2984,
      "确": 2985,
      "硼": 2986,
      "碌": 2987,
      "碍": 2988,
      "碎": 2989,
      "碑": 2990,
      "碗": 2991,
      "碘": 2992,
      "碟": 2993,
      "碧": 2994,
      "碰": 2995,
      "碱": 2996,
      "碲": 2997,
      "碳": 2998,
      "碴": 2999,
      "碾": 3000,
      "磁": 3001,
      "磅": 3002,
      "磋": 3003,
      "磐": 3004,
      "磕": 3005,
      "磨": 3006,
      "磴": 3007,
      "磷": 3008,
      "磺": 3009,
      "礁": 3010,
      "示": 3011,
      "礼": 3012,
      "社": 3013,
      "祀": 3014,
      "祂": 3015,
      "祆": 3016,
      "祇": 3017,
      "祈": 3018,
      "祉": 3019,
      "祖": 3020,
      "祗": 3021,
      "祛": 3022,
      "祝": 3023,
      "神": 3024,
      "祟": 3025,
      "祠": 3026,
      "祥": 3027,
      "票": 3028,
      "祭": 3029,
      "祷": 3030,
      "祸": 3031,
      "禀": 3032,
      "禁": 3033,
      "禄": 3034,
      "禅": 3035,
      "福": 3036,
      "禧": 3037,
      "禮": 3038,
      "离": 3039,
      "禽": 3040,
      "秀": 3041,
      "私": 3042,
      "秃": 3043,
      "秆": 3044,
      "秉": 3045,
      "秋": 3046,
      "种": 3047,
      "科": 3048,
      "秒": 3049,
      "秘": 3050,
      "租": 3051,
      "秤": 3052,
      "秦": 3053,
      "秩": 3054,
      "积": 3055,
      "称": 3056,
      "秸": 3057,
      "移": 3058,
      "秽": 3059,
      "稀": 3060,
      "程": 3061,
      "稍": 3062,
      "税": 3063,
      "稔": 3064,
      "稚": 3065,
      "稠": 3066,
      "稣": 3067,
      "稳": 3068,
      "稻": 3069,
      "稼": 3070,
      "稽": 3071,
      "稿": 3072,
      "穆": 3073,
      "穗": 3074,
      "穴": 3075,
      "究": 3076,
      "穷": 3077,
      "穹": 3078,
      "空": 3079,
      "穿": 3080,
      "突": 3081,
      "窃": 3082,
      "窄": 3083,
      "窍": 3084,
      "窒": 3085,
      "窖": 3086,
      "窗": 3087,
      "窘": 3088,
      "窜": 3089,
      "窝": 3090,
      "窟": 3091,
      "窥": 3092,
      "窦": 3093,
      "窿": 3094,
      "立": 3095,
      "竖": 3096,
      "站": 3097,
      "竞": 3098,
      "竟": 3099,
      "章": 3100,
      "竣": 3101,
      "童": 3102,
      "竭": 3103,
      "端": 3104,
      "竹": 3105,
      "竺": 3106,
      "竽": 3107,
      "竿": 3108,
      "笃": 3109,
      "笆": 3110,
      "笋": 3111,
      "笑": 3112,
      "笔": 3113,
      "笙": 3114,
      "笛": 3115,
      "笞": 3116,
      "笤": 3117,
      "符": 3118,
      "笨": 3119,
      "第": 3120,
      "笺": 3121,
      "笼": 3122,
      "等": 3123,
      "筋": 3124,
      "筏": 3125,
      "筐": 3126,
      "筑": 3127,
      "筒": 3128,
      "答": 3129,
      "策": 3130,
      "筛": 3131,
      "筝": 3132,
      "筷": 3133,
      "筹": 3134,
      "签": 3135,
      "简": 3136,
      "箍": 3137,
      "箔": 3138,
      "箕": 3139,
      "算": 3140,
      "管": 3141,
      "箭": 3142,
      "箱": 3143,
      "箴": 3144,
      "篇": 3145,
      "築": 3146,
      "篓": 3147,
      "篝": 3148,
      "篡": 3149,
      "篦": 3150,
      "篮": 3151,
      "篱": 3152,
      "篷": 3153,
      "簇": 3154,
      "簌": 3155,
      "簧": 3156,
      "簸": 3157,
      "簿": 3158,
      "籁": 3159,
      "籍": 3160,
      "米": 3161,
      "类": 3162,
      "籽": 3163,
      "粉": 3164,
      "粒": 3165,
      "粗": 3166,
      "粘": 3167,
      "粟": 3168,
      "粤": 3169,
      "粥": 3170,
      "粪": 3171,
      "粮": 3172,
      "粱": 3173,
      "粹": 3174,
      "粼": 3175,
      "精": 3176,
      "糅": 3177,
      "糊": 3178,
      "糕": 3179,
      "糖": 3180,
      "糗": 3181,
      "糙": 3182,
      "糜": 3183,
      "糟": 3184,
      "系": 3185,
      "約": 3186,
      "紊": 3187,
      "素": 3188,
      "索": 3189,
      "紧": 3190,
      "紫": 3191,
      "累": 3192,
      "結": 3193,
      "絮": 3194,
      "綉": 3195,
      "維": 3196,
      "緬": 3197,
      "繁": 3198,
      "纂": 3199,
      "纠": 3200,
      "红": 3201,
      "纤": 3202,
      "约": 3203,
      "级": 3204,
      "纨": 3205,
      "纪": 3206,
      "纫": 3207,
      "纬": 3208,
      "纭": 3209,
      "纯": 3210,
      "纱": 3211,
      "纲": 3212,
      "纳": 3213,
      "纵": 3214,
      "纶": 3215,
      "纷": 3216,
      "纸": 3217,
      "纹": 3218,
      "纺": 3219,
      "纽": 3220,
      "纾": 3221,
      "线": 3222,
      "练": 3223,
      "组": 3224,
      "绅": 3225,
      "细": 3226,
      "织": 3227,
      "终": 3228,
      "绊": 3229,
      "绌": 3230,
      "绍": 3231,
      "绎": 3232,
      "经": 3233,
      "绑": 3234,
      "绒": 3235,
      "结": 3236,
      "绔": 3237,
      "绕": 3238,
      "绘": 3239,
      "给": 3240,
      "绚": 3241,
      "络": 3242,
      "绝": 3243,
      "绞": 3244,
      "统": 3245,
      "绢": 3246,
      "绣": 3247,
      "绥": 3248,
      "继": 3249,
      "绩": 3250,
      "绪": 3251,
      "续": 3252,
      "绯": 3253,
      "绰": 3254,
      "绳": 3255,
      "维": 3256,
      "绵": 3257,
      "绶": 3258,
      "绷": 3259,
      "绸": 3260,
      "综": 3261,
      "绽": 3262,
      "绿": 3263,
      "缀": 3264,
      "缄": 3265,
      "缅": 3266,
      "缆": 3267,
      "缇": 3268,
      "缈": 3269,
      "缉": 3270,
      "缋": 3271,
      "缎": 3272,
      "缓": 3273,
      "缔": 3274,
      "缕": 3275,
      "编": 3276,
      "缘": 3277,
      "缚": 3278,
      "缜": 3279,
      "缝": 3280,
      "缠": 3281,
      "缤": 3282,
      "缥": 3283,
      "缩": 3284,
      "缪": 3285,
      "缭": 3286,
      "缮": 3287,
      "缰": 3288,
      "缴": 3289,
      "缸": 3290,
      "缺": 3291,
      "罂": 3292,
      "罄": 3293,
      "罐": 3294,
      "网": 3295,
      "罕": 3296,
      "罗": 3297,
      "罚": 3298,
      "罢": 3299,
      "罩": 3300,
      "罪": 3301,
      "置": 3302,
      "署": 3303,
      "罹": 3304,
      "羁": 3305,
      "羊": 3306,
      "美": 3307,
      "羔": 3308,
      "羚": 3309,
      "羞": 3310,
      "羟": 3311,
      "羡": 3312,
      "群": 3313,
      "羧": 3314,
      "羯": 3315,
      "羰": 3316,
      "羹": 3317,
      "羽": 3318,
      "翁": 3319,
      "翅": 3320,
      "翌": 3321,
      "翔": 3322,
      "翘": 3323,
      "翠": 3324,
      "翡": 3325,
      "翩": 3326,
      "翰": 3327,
      "翳": 3328,
      "翻": 3329,
      "翼": 3330,
      "耀": 3331,
      "老": 3332,
      "考": 3333,
      "耄": 3334,
      "者": 3335,
      "耋": 3336,
      "而": 3337,
      "耍": 3338,
      "耐": 3339,
      "耕": 3340,
      "耗": 3341,
      "耘": 3342,
      "耙": 3343,
      "耦": 3344,
      "耳": 3345,
      "耶": 3346,
      "耷": 3347,
      "耸": 3348,
      "耻": 3349,
      "耽": 3350,
      "耿": 3351,
      "聆": 3352,
      "聊": 3353,
      "聋": 3354,
      "职": 3355,
      "聒": 3356,
      "联": 3357,
      "聘": 3358,
      "聚": 3359,
      "聩": 3360,
      "聪": 3361,
      "肃": 3362,
      "肆": 3363,
      "肇": 3364,
      "肉": 3365,
      "肋": 3366,
      "肌": 3367,
      "肖": 3368,
      "肘": 3369,
      "肚": 3370,
      "肝": 3371,
      "肠": 3372,
      "股": 3373,
      "肢": 3374,
      "肤": 3375,
      "肥": 3376,
      "肩": 3377,
      "肪": 3378,
      "肮": 3379,
      "肯": 3380,
      "肱": 3381,
      "育": 3382,
      "肴": 3383,
      "肺": 3384,
      "肽": 3385,
      "肾": 3386,
      "肿": 3387,
      "胀": 3388,
      "胁": 3389,
      "胃": 3390,
      "胆": 3391,
      "背": 3392,
      "胎": 3393,
      "胖": 3394,
      "胚": 3395,
      "胛": 3396,
      "胜": 3397,
      "胞": 3398,
      "胡": 3399,
      "胥": 3400,
      "胧": 3401,
      "胫": 3402,
      "胭": 3403,
      "胰": 3404,
      "胱": 3405,
      "胳": 3406,
      "胴": 3407,
      "胶": 3408,
      "胸": 3409,
      "胺": 3410,
      "能": 3411,
      "脂": 3412,
      "脆": 3413,
      "脉": 3414,
      "脊": 3415,
      "脍": 3416,
      "脏": 3417,
      "脐": 3418,
      "脑": 3419,
      "脓": 3420,
      "脖": 3421,
      "脚": 3422,
      "脯": 3423,
      "脱": 3424,
      "脸": 3425,
      "脾": 3426,
      "腆": 3427,
      "腊": 3428,
      "腋": 3429,
      "腌": 3430,
      "腐": 3431,
      "腑": 3432,
      "腓": 3433,
      "腔": 3434,
      "腕": 3435,
      "腘": 3436,
      "腥": 3437,
      "腩": 3438,
      "腭": 3439,
      "腮": 3440,
      "腰": 3441,
      "腱": 3442,
      "腹": 3443,
      "腺": 3444,
      "腻": 3445,
      "腼": 3446,
      "腾": 3447,
      "腿": 3448,
      "膀": 3449,
      "膊": 3450,
      "膏": 3451,
      "膛": 3452,
      "膜": 3453,
      "膝": 3454,
      "膨": 3455,
      "膳": 3456,
      "膺": 3457,
      "臀": 3458,
      "臂": 3459,
      "臃": 3460,
      "臆": 3461,
      "臊": 3462,
      "臜": 3463,
      "臣": 3464,
      "自": 3465,
      "臭": 3466,
      "至": 3467,
      "致": 3468,
      "臻": 3469,
      "臼": 3470,
      "臾": 3471,
      "舀": 3472,
      "舅": 3473,
      "舆": 3474,
      "與": 3475,
      "舌": 3476,
      "舍": 3477,
      "舒": 3478,
      "舔": 3479,
      "舞": 3480,
      "舟": 3481,
      "航": 3482,
      "般": 3483,
      "舰": 3484,
      "舱": 3485,
      "舵": 3486,
      "舶": 3487,
      "舷": 3488,
      "船": 3489,
      "艇": 3490,
      "艘": 3491,
      "良": 3492,
      "艰": 3493,
      "色": 3494,
      "艳": 3495,
      "艺": 3496,
      "艾": 3497,
      "节": 3498,
      "芍": 3499,
      "芒": 3500,
      "芙": 3501,
      "芜": 3502,
      "芝": 3503,
      "芥": 3504,
      "芦": 3505,
      "芬": 3506,
      "芭": 3507,
      "芮": 3508,
      "芯": 3509,
      "花": 3510,
      "芳": 3511,
      "芸": 3512,
      "芹": 3513,
      "芽": 3514,
      "苍": 3515,
      "苏": 3516,
      "苒": 3517,
      "苔": 3518,
      "苗": 3519,
      "苛": 3520,
      "苜": 3521,
      "苟": 3522,
      "苣": 3523,
      "若": 3524,
      "苦": 3525,
      "苯": 3526,
      "英": 3527,
      "苷": 3528,
      "苹": 3529,
      "茁": 3530,
      "茂": 3531,
      "范": 3532,
      "茄": 3533,
      "茅": 3534,
      "茉": 3535,
      "茎": 3536,
      "茛": 3537,
      "茜": 3538,
      "茧": 3539,
      "茨": 3540,
      "茫": 3541,
      "茬": 3542,
      "茱": 3543,
      "茴": 3544,
      "茵": 3545,
      "茶": 3546,
      "茸": 3547,
      "荆": 3548,
      "草": 3549,
      "荐": 3550,
      "荒": 3551,
      "荔": 3552,
      "荚": 3553,
      "荟": 3554,
      "荡": 3555,
      "荣": 3556,
      "荧": 3557,
      "荨": 3558,
      "荪": 3559,
      "荫": 3560,
      "药": 3561,
      "荷": 3562,
      "荼": 3563,
      "荽": 3564,
      "莅": 3565,
      "莉": 3566,
      "莎": 3567,
      "莓": 3568,
      "莞": 3569,
      "莨": 3570,
      "莫": 3571,
      "莱": 3572,
      "莲": 3573,
      "莴": 3574,
      "获": 3575,
      "莹": 3576,
      "莺": 3577,
      "莽": 3578,
      "菅": 3579,
      "菇": 3580,
      "菊": 3581,
      "菌": 3582,
      "菜": 3583,
      "菝": 3584,
      "菠": 3585,
      "菩": 3586,
      "菪": 3587,
      "菱": 3588,
      "菲": 3589,
      "萃": 3590,
      "萄": 3591,
      "萌": 3592,
      "萍": 3593,
      "萎": 3594,
      "萘": 3595,
      "萜": 3596,
      "萝": 3597,
      "萤": 3598,
      "营": 3599,
      "萦": 3600,
      "萧": 3601,
      "萨": 3602,
      "萸": 3603,
      "落": 3604,
      "葆": 3605,
      "著": 3606,
      "葛": 3607,
      "葜": 3608,
      "葡": 3609,
      "董": 3610,
      "葫": 3611,
      "葬": 3612,
      "葱": 3613,
      "葵": 3614,
      "葺": 3615,
      "蒂": 3616,
      "蒋": 3617,
      "蒎": 3618,
      "蒙": 3619,
      "蒜": 3620,
      "蒲": 3621,
      "蒸": 3622,
      "蓄": 3623,
      "蓝": 3624,
      "蓟": 3625,
      "蓦": 3626,
      "蓬": 3627,
      "蓿": 3628,
      "蔑": 3629,
      "蔓": 3630,
      "蔗": 3631,
      "蔚": 3632,
      "蔡": 3633,
      "蔫": 3634,
      "蔬": 3635,
      "蔷": 3636,
      "蔻": 3637,
      "蔼": 3638,
      "蔽": 3639,
      "蕉": 3640,
      "蕊": 3641,
      "蕨": 3642,
      "蕴": 3643,
      "蕾": 3644,
      "薄": 3645,
      "薇": 3646,
      "薏": 3647,
      "薪": 3648,
      "薯": 3649,
      "薰": 3650,
      "藉": 3651,
      "藏": 3652,
      "藐": 3653,
      "藓": 3654,
      "藜": 3655,
      "藤": 3656,
      "藩": 3657,
      "藻": 3658,
      "藿": 3659,
      "蘑": 3660,
      "蘸": 3661,
      "虎": 3662,
      "虏": 3663,
      "虐": 3664,
      "虑": 3665,
      "虔": 3666,
      "虚": 3667,
      "虞": 3668,
      "虫": 3669,
      "虱": 3670,
      "虹": 3671,
      "虻": 3672,
      "虽": 3673,
      "虾": 3674,
      "蚀": 3675,
      "蚁": 3676,
      "蚂": 3677,
      "蚊": 3678,
      "蚌": 3679,
      "蚕": 3680,
      "蚱": 3681,
      "蛇": 3682,
      "蛊": 3683,
      "蛋": 3684,
      "蛎": 3685,
      "蛙": 3686,
      "蛛": 3687,
      "蛤": 3688,
      "蛭": 3689,
      "蛮": 3690,
      "蛰": 3691,
      "蛹": 3692,
      "蛾": 3693,
      "蜀": 3694,
      "蜂": 3695,
      "蜃": 3696,
      "蜇": 3697,
      "蜒": 3698,
      "蜓": 3699,
      "蜕": 3700,
      "蜗": 3701,
      "蜘": 3702,
      "蜚": 3703,
      "蜜": 3704,
      "蜡": 3705,
      "蜢": 3706,
      "蜥": 3707,
      "蜴": 3708,
      "蜷": 3709,
      "蜻": 3710,
      "蜿": 3711,
      "蝇": 3712,
      "蝉": 3713,
      "蝎": 3714,
      "蝗": 3715,
      "蝙": 3716,
      "蝠": 3717,
      "蝴": 3718,
      "蝶": 3719,
      "融": 3720,
      "螯": 3721,
      "螵": 3722,
      "螺": 3723,
      "蟀": 3724,
      "蟆": 3725,
      "蟋": 3726,
      "蟒": 3727,
      "蟠": 3728,
      "蟹": 3729,
      "蠕": 3730,
      "蠢": 3731,
      "蠹": 3732,
      "血": 3733,
      "衅": 3734,
      "行": 3735,
      "衍": 3736,
      "衔": 3737,
      "街": 3738,
      "衡": 3739,
      "衣": 3740,
      "补": 3741,
      "表": 3742,
      "衩": 3743,
      "衫": 3744,
      "衬": 3745,
      "衰": 3746,
      "衷": 3747,
      "袂": 3748,
      "袄": 3749,
      "袅": 3750,
      "袋": 3751,
      "袍": 3752,
      "袒": 3753,
      "袖": 3754,
      "袜": 3755,
      "袤": 3756,
      "被": 3757,
      "袭": 3758,
      "裁": 3759,
      "裂": 3760,
      "装": 3761,
      "裆": 3762,
      "裔": 3763,
      "裕": 3764,
      "裘": 3765,
      "裙": 3766,
      "裡": 3767,
      "裢": 3768,
      "裤": 3769,
      "裨": 3770,
      "裱": 3771,
      "裳": 3772,
      "裴": 3773,
      "裸": 3774,
      "裹": 3775,
      "裾": 3776,
      "褂": 3777,
      "褐": 3778,
      "褛": 3779,
      "褡": 3780,
      "褥": 3781,
      "褪": 3782,
      "褫": 3783,
      "褴": 3784,
      "褶": 3785,
      "襄": 3786,
      "襟": 3787,
      "西": 3788,
      "要": 3789,
      "覆": 3790,
      "親": 3791,
      "见": 3792,
      "观": 3793,
      "规": 3794,
      "觅": 3795,
      "视": 3796,
      "览": 3797,
      "觉": 3798,
      "觊": 3799,
      "觎": 3800,
      "觐": 3801,
      "觑": 3802,
      "角": 3803,
      "解": 3804,
      "觥": 3805,
      "触": 3806,
      "言": 3807,
      "記": 3808,
      "詹": 3809,
      "誉": 3810,
      "認": 3811,
      "誓": 3812,
      "警": 3813,
      "譬": 3814,
      "计": 3815,
      "订": 3816,
      "讣": 3817,
      "认": 3818,
      "讥": 3819,
      "讧": 3820,
      "讨": 3821,
      "让": 3822,
      "讪": 3823,
      "训": 3824,
      "议": 3825,
      "讯": 3826,
      "记": 3827,
      "讲": 3828,
      "讳": 3829,
      "讶": 3830,
      "许": 3831,
      "论": 3832,
      "讼": 3833,
      "讽": 3834,
      "设": 3835,
      "访": 3836,
      "诀": 3837,
      "证": 3838,
      "诂": 3839,
      "诃": 3840,
      "评": 3841,
      "诅": 3842,
      "识": 3843,
      "诈": 3844,
      "诉": 3845,
      "诊": 3846,
      "诋": 3847,
      "词": 3848,
      "译": 3849,
      "诓": 3850,
      "试": 3851,
      "诗": 3852,
      "诙": 3853,
      "诚": 3854,
      "话": 3855,
      "诞": 3856,
      "诟": 3857,
      "诠": 3858,
      "诡": 3859,
      "询": 3860,
      "诣": 3861,
      "该": 3862,
      "详": 3863,
      "诧": 3864,
      "诨": 3865,
      "诩": 3866,
      "诫": 3867,
      "语": 3868,
      "误": 3869,
      "诱": 3870,
      "诲": 3871,
      "诳": 3872,
      "说": 3873,
      "诵": 3874,
      "请": 3875,
      "诸": 3876,
      "诺": 3877,
      "读": 3878,
      "诽": 3879,
      "课": 3880,
      "诿": 3881,
      "谀": 3882,
      "谁": 3883,
      "调": 3884,
      "谄": 3885,
      "谅": 3886,
      "谆": 3887,
      "谈": 3888,
      "谊": 3889,
      "谋": 3890,
      "谍": 3891,
      "谎": 3892,
      "谐": 3893,
      "谑": 3894,
      "谓": 3895,
      "谕": 3896,
      "谙": 3897,
      "谚": 3898,
      "谛": 3899,
      "谜": 3900,
      "谟": 3901,
      "谢": 3902,
      "谣": 3903,
      "谤": 3904,
      "谥": 3905,
      "谦": 3906,
      "谧": 3907,
      "谨": 3908,
      "谩": 3909,
      "谬": 3910,
      "谭": 3911,
      "谱": 3912,
      "谴": 3913,
      "谷": 3914,
      "豁": 3915,
      "豆": 3916,
      "豉": 3917,
      "豌": 3918,
      "豚": 3919,
      "象": 3920,
      "豢": 3921,
      "豪": 3922,
      "豫": 3923,
      "豹": 3924,
      "貂": 3925,
      "貌": 3926,
      "贏": 3927,
      "贝": 3928,
      "贞": 3929,
      "负": 3930,
      "贡": 3931,
      "财": 3932,
      "责": 3933,
      "贤": 3934,
      "败": 3935,
      "账": 3936,
      "货": 3937,
      "质": 3938,
      "贩": 3939,
      "贪": 3940,
      "贫": 3941,
      "贬": 3942,
      "购": 3943,
      "贮": 3944,
      "贯": 3945,
      "贱": 3946,
      "贲": 3947,
      "贴": 3948,
      "贵": 3949,
      "贷": 3950,
      "贸": 3951,
      "费": 3952,
      "贺": 3953,
      "贼": 3954,
      "贾": 3955,
      "贿": 3956,
      "赁": 3957,
      "赂": 3958,
      "赃": 3959,
      "资": 3960,
      "赈": 3961,
      "赊": 3962,
      "赋": 3963,
      "赌": 3964,
      "赎": 3965,
      "赏": 3966,
      "赐": 3967,
      "赔": 3968,
      "赖": 3969,
      "赘": 3970,
      "赚": 3971,
      "赛": 3972,
      "赞": 3973,
      "赠": 3974,
      "赡": 3975,
      "赢": 3976,
      "赤": 3977,
      "赦": 3978,
      "赫": 3979,
      "赭": 3980,
      "走": 3981,
      "赴": 3982,
      "赵": 3983,
      "赶": 3984,
      "起": 3985,
      "趁": 3986,
      "趄": 3987,
      "超": 3988,
      "越": 3989,
      "趋": 3990,
      "趔": 3991,
      "趟": 3992,
      "趣": 3993,
      "足": 3994,
      "趴": 3995,
      "趸": 3996,
      "趺": 3997,
      "趾": 3998,
      "跃": 3999,
      "跄": 4000,
      "跋": 4001,
      "跌": 4002,
      "跎": 4003,
      "跏": 4004,
      "跑": 4005,
      "跚": 4006,
      "跛": 4007,
      "距": 4008,
      "跟": 4009,
      "跤": 4010,
      "跨": 4011,
      "跪": 4012,
      "路": 4013,
      "跳": 4014,
      "践": 4015,
      "跶": 4016,
      "跷": 4017,
      "跺": 4018,
      "跻": 4019,
      "踉": 4020,
      "踌": 4021,
      "踏": 4022,
      "踝": 4023,
      "踞": 4024,
      "踟": 4025,
      "踢": 4026,
      "踩": 4027,
      "踪": 4028,
      "踮": 4029,
      "踯": 4030,
      "踱": 4031,
      "踵": 4032,
      "踹": 4033,
      "蹂": 4034,
      "蹄": 4035,
      "蹈": 4036,
      "蹉": 4037,
      "蹊": 4038,
      "蹋": 4039,
      "蹑": 4040,
      "蹒": 4041,
      "蹓": 4042,
      "蹙": 4043,
      "蹦": 4044,
      "蹩": 4045,
      "蹬": 4046,
      "蹭": 4047,
      "蹰": 4048,
      "蹲": 4049,
      "蹴": 4050,
      "蹿": 4051,
      "躁": 4052,
      "躅": 4053,
      "躇": 4054,
      "躏": 4055,
      "身": 4056,
      "躬": 4057,
      "躯": 4058,
      "躲": 4059,
      "躺": 4060,
      "车": 4061,
      "轧": 4062,
      "轨": 4063,
      "轩": 4064,
      "轫": 4065,
      "转": 4066,
      "轮": 4067,
      "软": 4068,
      "轰": 4069,
      "轴": 4070,
      "轶": 4071,
      "轻": 4072,
      "载": 4073,
      "轾": 4074,
      "轿": 4075,
      "较": 4076,
      "辄": 4077,
      "辅": 4078,
      "辆": 4079,
      "辈": 4080,
      "辉": 4081,
      "辊": 4082,
      "辍": 4083,
      "辐": 4084,
      "辑": 4085,
      "输": 4086,
      "辕": 4087,
      "辖": 4088,
      "辗": 4089,
      "辘": 4090,
      "辙": 4091,
      "辚": 4092,
      "辛": 4093,
      "辜": 4094,
      "辞": 4095,
      "辟": 4096,
      "辣": 4097,
      "辨": 4098,
      "辩": 4099,
      "辫": 4100,
      "辰": 4101,
      "辱": 4102,
      "边": 4103,
      "辽": 4104,
      "达": 4105,
      "迀": 4106,
      "迁": 4107,
      "迂": 4108,
      "迄": 4109,
      "迅": 4110,
      "过": 4111,
      "迈": 4112,
      "迎": 4113,
      "运": 4114,
      "近": 4115,
      "返": 4116,
      "还": 4117,
      "这": 4118,
      "进": 4119,
      "远": 4120,
      "违": 4121,
      "连": 4122,
      "迟": 4123,
      "迤": 4124,
      "迥": 4125,
      "迦": 4126,
      "迩": 4127,
      "迪": 4128,
      "迫": 4129,
      "迭": 4130,
      "述": 4131,
      "迷": 4132,
      "迸": 4133,
      "迹": 4134,
      "追": 4135,
      "退": 4136,
      "送": 4137,
      "适": 4138,
      "逃": 4139,
      "逅": 4140,
      "逆": 4141,
      "选": 4142,
      "逊": 4143,
      "逍": 4144,
      "透": 4145,
      "逐": 4146,
      "递": 4147,
      "途": 4148,
      "逖": 4149,
      "逗": 4150,
      "通": 4151,
      "逛": 4152,
      "逝": 4153,
      "逞": 4154,
      "速": 4155,
      "造": 4156,
      "逢": 4157,
      "逦": 4158,
      "逮": 4159,
      "逵": 4160,
      "逸": 4161,
      "逻": 4162,
      "逼": 4163,
      "逾": 4164,
      "遁": 4165,
      "遂": 4166,
      "遇": 4167,
      "遍": 4168,
      "遏": 4169,
      "遐": 4170,
      "遑": 4171,
      "道": 4172,
      "遗": 4173,
      "遛": 4174,
      "遞": 4175,
      "遢": 4176,
      "遣": 4177,
      "遥": 4178,
      "遨": 4179,
      "遭": 4180,
      "遮": 4181,
      "遵": 4182,
      "避": 4183,
      "邀": 4184,
      "邂": 4185,
      "邃": 4186,
      "邈": 4187,
      "邋": 4188,
      "邑": 4189,
      "邓": 4190,
      "邢": 4191,
      "那": 4192,
      "邦": 4193,
      "邪": 4194,
      "邮": 4195,
      "邱": 4196,
      "邸": 4197,
      "邻": 4198,
      "郁": 4199,
      "郊": 4200,
      "郎": 4201,
      "郑": 4202,
      "郝": 4203,
      "郡": 4204,
      "部": 4205,
      "郭": 4206,
      "都": 4207,
      "鄂": 4208,
      "鄙": 4209,
      "酊": 4210,
      "酋": 4211,
      "酌": 4212,
      "配": 4213,
      "酐": 4214,
      "酒": 4215,
      "酗": 4216,
      "酚": 4217,
      "酝": 4218,
      "酣": 4219,
      "酥": 4220,
      "酩": 4221,
      "酪": 4222,
      "酬": 4223,
      "酮": 4224,
      "酯": 4225,
      "酰": 4226,
      "酱": 4227,
      "酵": 4228,
      "酶": 4229,
      "酷": 4230,
      "酸": 4231,
      "酿": 4232,
      "醇": 4233,
      "醉": 4234,
      "醋": 4235,
      "醌": 4236,
      "醒": 4237,
      "醚": 4238,
      "醛": 4239,
      "醺": 4240,
      "釆": 4241,
      "采": 4242,
      "釉": 4243,
      "释": 4244,
      "里": 4245,
      "重": 4246,
      "野": 4247,
      "量": 4248,
      "金": 4249,
      "釜": 4250,
      "鉴": 4251,
      "錄": 4252,
      "鎓": 4253,
      "针": 4254,
      "钉": 4255,
      "钒": 4256,
      "钓": 4257,
      "钙": 4258,
      "钛": 4259,
      "钝": 4260,
      "钞": 4261,
      "钟": 4262,
      "钠": 4263,
      "钢": 4264,
      "钥": 4265,
      "钦": 4266,
      "钨": 4267,
      "钩": 4268,
      "钮": 4269,
      "钯": 4270,
      "钱": 4271,
      "钳": 4272,
      "钴": 4273,
      "钵": 4274,
      "钹": 4275,
      "钻": 4276,
      "钾": 4277,
      "铀": 4278,
      "铁": 4279,
      "铂": 4280,
      "铃": 4281,
      "铅": 4282,
      "铎": 4283,
      "铐": 4284,
      "铛": 4285,
      "铜": 4286,
      "铝": 4287,
      "铬": 4288,
      "铭": 4289,
      "铰": 4290,
      "铲": 4291,
      "铳": 4292,
      "铵": 4293,
      "银": 4294,
      "铸": 4295,
      "铺": 4296,
      "链": 4297,
      "铿": 4298,
      "销": 4299,
      "锁": 4300,
      "锂": 4301,
      "锃": 4302,
      "锄": 4303,
      "锅": 4304,
      "锈": 4305,
      "锉": 4306,
      "锋": 4307,
      "锌": 4308,
      "锏": 4309,
      "锐": 4310,
      "锑": 4311,
      "锒": 4312,
      "错": 4313,
      "锚": 4314,
      "锡": 4315,
      "锢": 4316,
      "锣": 4317,
      "锤": 4318,
      "锥": 4319,
      "锦": 4320,
      "锭": 4321,
      "键": 4322,
      "锯": 4323,
      "锰": 4324,
      "锵": 4325,
      "锹": 4326,
      "锻": 4327,
      "镀": 4328,
      "镁": 4329,
      "镇": 4330,
      "镉": 4331,
      "镊": 4332,
      "镌": 4333,
      "镍": 4334,
      "镑": 4335,
      "镖": 4336,
      "镜": 4337,
      "镣": 4338,
      "镫": 4339,
      "镭": 4340,
      "镯": 4341,
      "镰": 4342,
      "镳": 4343,
      "镶": 4344,
      "长": 4345,
      "门": 4346,
      "闩": 4347,
      "闪": 4348,
      "闭": 4349,
      "问": 4350,
      "闯": 4351,
      "闰": 4352,
      "闲": 4353,
      "间": 4354,
      "闷": 4355,
      "闸": 4356,
      "闹": 4357,
      "闺": 4358,
      "闻": 4359,
      "阀": 4360,
      "阁": 4361,
      "阅": 4362,
      "阈": 4363,
      "阉": 4364,
      "阎": 4365,
      "阐": 4366,
      "阑": 4367,
      "阒": 4368,
      "阔": 4369,
      "阖": 4370,
      "阗": 4371,
      "队": 4372,
      "阪": 4373,
      "阱": 4374,
      "防": 4375,
      "阳": 4376,
      "阴": 4377,
      "阵": 4378,
      "阶": 4379,
      "阻": 4380,
      "阿": 4381,
      "陀": 4382,
      "附": 4383,
      "际": 4384,
      "陆": 4385,
      "陇": 4386,
      "陈": 4387,
      "陋": 4388,
      "陌": 4389,
      "降": 4390,
      "限": 4391,
      "陕": 4392,
      "陚": 4393,
      "陛": 4394,
      "陡": 4395,
      "院": 4396,
      "除": 4397,
      "陨": 4398,
      "险": 4399,
      "陪": 4400,
      "陲": 4401,
      "陵": 4402,
      "陶": 4403,
      "陷": 4404,
      "隅": 4405,
      "隆": 4406,
      "随": 4407,
      "隐": 4408,
      "隔": 4409,
      "隘": 4410,
      "隙": 4411,
      "障": 4412,
      "隧": 4413,
      "隶": 4414,
      "隽": 4415,
      "难": 4416,
      "雀": 4417,
      "雄": 4418,
      "雅": 4419,
      "集": 4420,
      "雇": 4421,
      "雉": 4422,
      "雌": 4423,
      "雍": 4424,
      "雏": 4425,
      "雕": 4426,
      "雙": 4427,
      "雨": 4428,
      "雪": 4429,
      "雯": 4430,
      "零": 4431,
      "雷": 4432,
      "雾": 4433,
      "需": 4434,
      "霄": 4435,
      "震": 4436,
      "霉": 4437,
      "霍": 4438,
      "霎": 4439,
      "霏": 4440,
      "霓": 4441,
      "霜": 4442,
      "霞": 4443,
      "霭": 4444,
      "露": 4445,
      "霸": 4446,
      "霾": 4447,
      "青": 4448,
      "靓": 4449,
      "静": 4450,
      "非": 4451,
      "靠": 4452,
      "靡": 4453,
      "面": 4454,
      "革": 4455,
      "靴": 4456,
      "靶": 4457,
      "靼": 4458,
      "鞋": 4459,
      "鞍": 4460,
      "鞑": 4461,
      "鞘": 4462,
      "鞠": 4463,
      "鞭": 4464,
      "韦": 4465,
      "韧": 4466,
      "韩": 4467,
      "韬": 4468,
      "音": 4469,
      "韵": 4470,
      "頓": 4471,
      "页": 4472,
      "顶": 4473,
      "顷": 4474,
      "项": 4475,
      "顺": 4476,
      "须": 4477,
      "顽": 4478,
      "顾": 4479,
      "顿": 4480,
      "颁": 4481,
      "颂": 4482,
      "预": 4483,
      "颅": 4484,
      "领": 4485,
      "颇": 4486,
      "颈": 4487,
      "颊": 4488,
      "颌": 4489,
      "颏": 4490,
      "颐": 4491,
      "频": 4492,
      "颓": 4493,
      "颔": 4494,
      "颖": 4495,
      "颗": 4496,
      "题": 4497,
      "颚": 4498,
      "颜": 4499,
      "额": 4500,
      "颞": 4501,
      "颠": 4502,
      "颤": 4503,
      "颧": 4504,
      "风": 4505,
      "飒": 4506,
      "飓": 4507,
      "飕": 4508,
      "飘": 4509,
      "飙": 4510,
      "飞": 4511,
      "食": 4512,
      "飢": 4513,
      "飾": 4514,
      "餍": 4515,
      "餐": 4516,
      "餮": 4517,
      "饕": 4518,
      "饥": 4519,
      "饪": 4520,
      "饭": 4521,
      "饮": 4522,
      "饯": 4523,
      "饰": 4524,
      "饱": 4525,
      "饲": 4526,
      "饵": 4527,
      "饶": 4528,
      "饺": 4529,
      "饼": 4530,
      "饿": 4531,
      "馁": 4532,
      "馅": 4533,
      "馆": 4534,
      "馈": 4535,
      "馊": 4536,
      "馏": 4537,
      "馑": 4538,
      "首": 4539,
      "香": 4540,
      "馥": 4541,
      "馨": 4542,
      "马": 4543,
      "驭": 4544,
      "驮": 4545,
      "驯": 4546,
      "驰": 4547,
      "驱": 4548,
      "驳": 4549,
      "驴": 4550,
      "驶": 4551,
      "驻": 4552,
      "驼": 4553,
      "驾": 4554,
      "驿": 4555,
      "骁": 4556,
      "骂": 4557,
      "骄": 4558,
      "骆": 4559,
      "骇": 4560,
      "骋": 4561,
      "验": 4562,
      "骏": 4563,
      "骑": 4564,
      "骗": 4565,
      "骚": 4566,
      "骛": 4567,
      "骜": 4568,
      "骟": 4569,
      "骡": 4570,
      "骤": 4571,
      "骨": 4572,
      "骰": 4573,
      "骶": 4574,
      "骷": 4575,
      "骸": 4576,
      "骼": 4577,
      "髂": 4578,
      "髅": 4579,
      "髋": 4580,
      "髓": 4581,
      "高": 4582,
      "髙": 4583,
      "髦": 4584,
      "髯": 4585,
      "髻": 4586,
      "鬃": 4587,
      "鬓": 4588,
      "鬣": 4589,
      "鬼": 4590,
      "魁": 4591,
      "魂": 4592,
      "魄": 4593,
      "魅": 4594,
      "魆": 4595,
      "魇": 4596,
      "魏": 4597,
      "魔": 4598,
      "鱼": 4599,
      "鱿": 4600,
      "鲁": 4601,
      "鲈": 4602,
      "鲍": 4603,
      "鲑": 4604,
      "鲜": 4605,
      "鲠": 4606,
      "鲨": 4607,
      "鲱": 4608,
      "鲶": 4609,
      "鲸": 4610,
      "鲼": 4611,
      "鳃": 4612,
      "鳄": 4613,
      "鳌": 4614,
      "鳐": 4615,
      "鳕": 4616,
      "鳗": 4617,
      "鳝": 4618,
      "鳞": 4619,
      "鳟": 4620,
      "鸟": 4621,
      "鸠": 4622,
      "鸡": 4623,
      "鸢": 4624,
      "鸣": 4625,
      "鸥": 4626,
      "鸦": 4627,
      "鸬": 4628,
      "鸭": 4629,
      "鸯": 4630,
      "鸰": 4631,
      "鸳": 4632,
      "鸷": 4633,
      "鸸": 4634,
      "鸽": 4635,
      "鸿": 4636,
      "鹃": 4637,
      "鹅": 4638,
      "鹉": 4639,
      "鹊": 4640,
      "鹋": 4641,
      "鹗": 4642,
      "鹚": 4643,
      "鹞": 4644,
      "鹦": 4645,
      "鹫": 4646,
      "鹰": 4647,
      "鹿": 4648,
      "麋": 4649,
      "麓": 4650,
      "麟": 4651,
      "麦": 4652,
      "麸": 4653,
      "麻": 4654,
      "黄": 4655,
      "黍": 4656,
      "黎": 4657,
      "黏": 4658,
      "黑": 4659,
      "默": 4660,
      "黛": 4661,
      "黝": 4662,
      "黠": 4663,
      "黢": 4664,
      "黧": 4665,
      "黯": 4666,
      "鼎": 4667,
      "鼓": 4668,
      "鼠": 4669,
      "鼬": 4670,
      "鼹": 4671,
      "鼻": 4672,
      "鼾": 4673,
      "齐": 4674,
      "齿": 4675,
      "龃": 4676,
      "龄": 4677,
      "龅": 4678,
      "龇": 4679,
      "龈": 4680,
      "龉": 4681,
      "龊": 4682,
      "龌": 4683,
      "龙": 4684,
      "龛": 4685,
      "龟": 4686,
      "！": 4687,
      "％": 4688,
      "＆": 4689,
      "（": 4690,
      "）": 4691,
      "，": 4692,
      "－": 4693,
      "．": 4694,
      "／": 4695,
      "０": 4696,
      "１": 4697,
      "２": 4698,
      "３": 4699,
      "４": 4700,
      "６": 4701,
      "７": 4702,
      "８": 4703,
      "９": 4704,
      "：": 4705,
      "；": 4706,
      "＜": 4707,
      "＞": 4708,
      "？": 4709,
      "Ｇ": 4710,
      "［": 4711,
      "］": 4712,
      "｛": 4713,
      "｝": 4714,
      "～": 4715,
      "￡": 4716,
      "th": 4717,
      "in": 4718,
      "er": 4719,
      "an": 4720,
      "the": 4721,
      "on": 4722,
      "re": 4723,
      "at": 4724,
      "en": 4725,
      "ed": 4726,
      "or": 4727,
      "ou": 4728,
      "st": 4729,
      "al": 4730,
      "ing": 4731,
      "to": 4732,
      "and": 4733,
      "of": 4734,
      "is": 4735,
      "ar": 4736,
      "es": 4737,
      "it": 4738,
      "as": 4739,
      "he": 4740,
      "ic": 4741,
      "le": 4742,
      "om": 4743,
      "ion": 4744,
      "se": 4745,
      "be": 4746,
      "ac": 4747,
      "ly": 4748,
      "ent": 4749,
      "ad": 4750,
      "ve": 4751,
      "il": 4752,
      "ow": 4753,
      "id": 4754,
      "wh": 4755,
      "ch": 4756,
      "im": 4757,
      "ro": 4758,
      "for": 4759,
      "that": 4760,
      "ol": 4761,
      "ay": 4762,
      "ver": 4763,
      "ut": 4764,
      "am": 4765,
      "li": 4766,
      "gh": 4767,
      "ir": 4768,
      "was": 4769,
      "ot": 4770,
      "et": 4771,
      "ther": 4772,
      "un": 4773,
      "ith": 4774,
      "ce": 4775,
      "ri": 4776,
      "su": 4777,
      "ation": 4778,
      "you": 4779,
      "ab": 4780,
      "with": 4781,
      "ter": 4782,
      "are": 4783,
      "ct": 4784,
      "s,": 4785,
      "con": 4786,
      "el": 4787,
      "mo": 4788,
      "ag": 4789,
      "ap": 4790,
      "s.": 4791,
      "ld": 4792,
      "lo": 4793,
      "The": 4794,
      "ur": 4795,
      "her": 4796,
      "ne": 4797,
      "de": 4798,
      "all": 4799,
      "ke": 4800,
      "his": 4801,
      "'s": 4802,
      "com": 4803,
      "sh": 4804,
      "out": 4805,
      "pe": 4806,
      "ul": 4807,
      "一个": 4808,
      "em": 4809,
      "fr": 4810,
      "ha": 4811,
      "so": 4812,
      "ex": 4813,
      "us": 4814,
      "one": 4815,
      "ill": 4816,
      "ght": 4817,
      "ain": 4818,
      "if": 4819,
      "we": 4820,
      "op": 4821,
      "tr": 4822,
      "res": 4823,
      "ould": 4824,
      "我们": 4825,
      "pro": 4826,
      "not": 4827,
      "od": 4828,
      "ist": 4829,
      "oun": 4830,
      "e,": 4831,
      "per": 4832,
      "ant": 4833,
      "by": 4834,
      "had": 4835,
      "pl": 4836,
      "e.": 4837,
      "ere": 4838,
      "our": 4839,
      "他们": 4840,
      "ess": 4841,
      "po": 4842,
      "from": 4843,
      "art": 4844,
      "qu": 4845,
      "ate": 4846,
      "fe": 4847,
      "wor": 4848,
      "have": 4849,
      "man": 4850,
      "me": 4851,
      "ity": 4852,
      "ci": 4853,
      "but": 4854,
      "ment": 4855,
      "gr": 4856,
      "act": 4857,
      "up": 4858,
      "do": 4859,
      "my": 4860,
      "ome": 4861,
      "ive": 4862,
      "ok": 4863,
      "she": 4864,
      "00": 4865,
      "end": 4866,
      "ind": 4867,
      "19": 4868,
      "ig": 4869,
      "ust": 4870,
      "ge": 4871,
      "ast": 4872,
      "te": 4873,
      "sa": 4874,
      "this": 4875,
      "ear": 4876,
      "ard": 4877,
      "ies": 4878,
      "In": 4879,
      "'t": 4880,
      "ally": 4881,
      "go": 4882,
      "ack": 4883,
      "der": 4884,
      "they": 4885,
      "ure": 4886,
      "own": 4887,
      "ak": 4888,
      "au": 4889,
      "ich": 4890,
      "way": 4891,
      "other": 4892,
      "pr": 4893,
      "He": 4894,
      "bo": 4895,
      "can": 4896,
      "ong": 4897,
      "ort": 4898,
      "ers": 4899,
      "自己": 4900,
      "cl": 4901,
      "were": 4902,
      "。”": 4903,
      "no": 4904,
      "ev": 4905,
      "，他": 4906,
      "ound": 4907,
      "，我": 4908,
      "iv": 4909,
      "um": 4910,
      "ore": 4911,
      "没有": 4912,
      "who": 4913,
      "thing": 4914,
      "over": 4915,
      "，这": 4916,
      "ough": 4917,
      "，但": 4918,
      "tim": 4919,
      "their": 4920,
      "some": 4921,
      "ous": 4922,
      "has": 4923,
      "which": 4924,
      "now": 4925,
      "ide": 4926,
      "sp": 4927,
      "ish": 4928,
      "ell": 4929,
      "It": 4930,
      "more": 4931,
      "him": 4932,
      "said": 4933,
      "like": 4934,
      "es,": 4935,
      "可以": 4936,
      "would": 4937,
      "your": 4938,
      "ight": 4939,
      "——": 4940,
      "about": 4941,
      "bl": 4942,
      "Ch": 4943,
      "ach": 4944,
      "Wh": 4945,
      "ud": 4946,
      "its": 4947,
      "y,": 4948,
      "est": 4949,
      "ra": 4950,
      "..": 4951,
      "able": 4952,
      "什么": 4953,
      "them": 4954,
      "ever": 4955,
      "ame": 4956,
      "year": 4957,
      "ical": 4958,
      "ated": 4959,
      "ence": 4960,
      "ake": 4961,
      "es.": 4962,
      "will": 4963,
      "sel": 4964,
      "when": 4965,
      "ck": 4966,
      "di": 4967,
      "ass": 4968,
      "been": 4969,
      "iz": 4970,
      "cre": 4971,
      "any": 4972,
      "pt": 4973,
      "ine": 4974,
      "ber": 4975,
      "，而": 4976,
      "ang": 4977,
      "他的": 4978,
      "what": 4979,
      "int": 4980,
      "了。": 4981,
      "comp": 4982,
      "af": 4983,
      "n't": 4984,
      "Th": 4985,
      ".\"": 4986,
      "str": 4987,
      "An": 4988,
      "ep": 4989,
      "av": 4990,
      "ans": 4991,
      "into": 4992,
      "than": 4993,
      "work": 4994,
      "day": 4995,
      "pre": 4996,
      "form": 4997,
      "age": 4998,
      "ef": 4999,
      "tw": 5000,
      "ed,": 5001,
      "ll": 5002,
      "ph": 5003,
      "ary": 5004,
      "fer": 5005,
      "ink": 5006,
      "co": 5007,
      "pres": 5008,
      "port": 5009,
      "ed.": 5010,
      "这个": 5011,
      "new": 5012,
      "dis": 5013,
      "rit": 5014,
      "br": 5015,
      "cent": 5016,
      "，在": 5017,
      "old": 5018,
      "si": 5019,
      "could": 5020,
      "ob": 5021,
      "ance": 5022,
      "ction": 5023,
      "ble": 5024,
      "因为": 5025,
      "可能": 5026,
      "20": 5027,
      "ace": 5028,
      "fir": 5029,
      "ater": 5030,
      "low": 5031,
      "ip": 5032,
      "did": 5033,
      "这些": 5034,
      "vi": 5035,
      "pos": 5036,
      "y.": 5037,
      "But": 5038,
      "美国": 5039,
      "part": 5040,
      "red": 5041,
      "She": 5042,
      "cont": 5043,
      "there": 5044,
      "most": 5045,
      "ople": 5046,
      "如果": 5047,
      "ick": 5048,
      "的。": 5049,
      "的人": 5050,
      "just": 5051,
      "say": 5052,
      "ing,": 5053,
      "how": 5054,
      "og": 5055,
      "不是": 5056,
      "ign": 5057,
      "，她": 5058,
      "get": 5059,
      "的一": 5060,
      "ade": 5061,
      "ile": 5062,
      "att": 5063,
      "self": 5064,
      "ren": 5065,
      "ice": 5066,
      "ition": 5067,
      "ful": 5068,
      "就是": 5069,
      "mer": 5070,
      "spe": 5071,
      "已经": 5072,
      "people": 5073,
      "fa": 5074,
      "off": 5075,
      "first": 5076,
      "cau": 5077,
      "开始": 5078,
      "的时": 5079,
      "look": 5080,
      "ple": 5081,
      "说，": 5082,
      "200": 5083,
      "ree": 5084,
      "inter": 5085,
      "coun": 5086,
      "then": 5087,
      "cr": 5088,
      "time": 5089,
      "read": 5090,
      "mon": 5091,
      ",\"": 5092,
      "under": 5093,
      "thr": 5094,
      "ew": 5095,
      "ser": 5096,
      "urn": 5097,
      "ild": 5098,
      "pol": 5099,
      "ark": 5100,
      "itt": 5101,
      "ial": 5102,
      "了一": 5103,
      "du": 5104,
      "ite": 5105,
      "also": 5106,
      "fore": 5107,
      "知道": 5108,
      "我的": 5109,
      "bet": 5110,
      "研究": 5111,
      "cause": 5112,
      "two": 5113,
      "的，": 5114,
      "ing.": 5115,
      "only": 5116,
      "des": 5117,
      "back": 5118,
      "app": 5119,
      "even": 5120,
      "这样": 5121,
      "know": 5122,
      "here": 5123,
      "son": 5124,
      "ood": 5125,
      "时，": 5126,
      "gre": 5127,
      "ten": 5128,
      "ose": 5129,
      "cor": 5130,
      "生活": 5131,
      "ia": 5132,
      "sy": 5133,
      "fl": 5134,
      "，并": 5135,
      "air": 5136,
      "问题": 5137,
      "ts": 5138,
      "ions": 5139,
      "min": 5140,
      "ory": 5141,
      "after": 5142,
      "aw": 5143,
      "We": 5144,
      "ily": 5145,
      "St": 5146,
      "ry": 5147,
      "ved": 5148,
      "ations": 5149,
      "And": 5150,
      "ue": 5151,
      "现在": 5152,
      "long": 5153,
      "igh": 5154,
      "down": 5155,
      "want": 5156,
      "where": 5157,
      "ty": 5158,
      "国家": 5159,
      "’s": 5160,
      "这种": 5161,
      "very": 5162,
      "工作": 5163,
      "I'": 5164,
      "col": 5165,
      "come": 5166,
      "soci": 5167,
      "cess": 5168,
      "--": 5169,
      "dif": 5170,
      "through": 5171,
      "ire": 5172,
      "sm": 5173,
      "或者": 5174,
      "This": 5175,
      "gen": 5176,
      "turn": 5177,
      "需要": 5178,
      "ave": 5179,
      "然后": 5180,
      "uch": 5181,
      "ian": 5182,
      "je": 5183,
      "ict": 5184,
      "到了": 5185,
      "，”": 5186,
      "because": 5187,
      "ath": 5188,
      "gl": 5189,
      "ult": 5190,
      "cle": 5191,
      "er,": 5192,
      "sur": 5193,
      "see": 5194,
      "book": 5195,
      "world": 5196,
      "世界": 5197,
      "，那": 5198,
      "don": 5199,
      "cho": 5200,
      "ving": 5201,
      "car": 5202,
      "may": 5203,
      "一种": 5204,
      "pu": 5205,
      "rem": 5206,
      "many": 5207,
      "其他": 5208,
      "ought": 5209,
      "她的": 5210,
      "ens": 5211,
      "认为": 5212,
      "every": 5213,
      "ped": 5214,
      "fin": 5215,
      "cer": 5216,
      "tri": 5217,
      "10": 5218,
      "一些": 5219,
      "call": 5220,
      "一样": 5221,
      "right": 5222,
      "made": 5223,
      "think": 5224,
      "ces": 5225,
      "such": 5226,
      "alk": 5227,
      "自己的": 5228,
      "Chin": 5229,
      "起来": 5230,
      "gu": 5231,
      "ting": 5232,
      "cur": 5233,
      "？”": 5234,
      "olog": 5235,
      "hand": 5236,
      "以及": 5237,
      "these": 5238,
      "You": 5239,
      "much": 5240,
      "a,": 5241,
      "again": 5242,
      "?\"": 5243,
      "bu": 5244,
      "的时候": 5245,
      "孩子": 5246,
      "less": 5247,
      "ating": 5248,
      "所有": 5249,
      "make": 5250,
      "ual": 5251,
      "use": 5252,
      "vers": 5253,
      "：“": 5254,
      "中的": 5255,
      "Un": 5256,
      "tain": 5257,
      "中国": 5258,
      "社会": 5259,
      "They": 5260,
      "ject": 5261,
      "led": 5262,
      "，你": 5263,
      "well": 5264,
      "那些": 5265,
      "ask": 5266,
      "ident": 5267,
      "oc": 5268,
      "ise": 5269,
      "它们": 5270,
      "上，": 5271,
      "comm": 5272,
      "，但是": 5273,
      "ced": 5274,
      "ward": 5275,
      "stand": 5276,
      "wom": 5277,
      "人的": 5278,
      "ors": 5279,
      "before": 5280,
      "ly,": 5281,
      "good": 5282,
      "时间": 5283,
      "ss": 5284,
      "light": 5285,
      "中，": 5286,
      "head": 5287,
      "hel": 5288,
      "should": 5289,
      "med": 5290,
      "sc": 5291,
      "说。": 5292,
      "人们": 5293,
      "lect": 5294,
      "fam": 5295,
      "years": 5296,
      ").": 5297,
      "rel": 5298,
      "need": 5299,
      "If": 5300,
      "，不": 5301,
      "但是": 5302,
      "clo": 5303,
      "ven": 5304,
      "vis": 5305,
      "进行": 5306,
      "arch": 5307,
      "ational": 5308,
      "ail": 5309,
      "任何": 5310,
      "ie": 5311,
      "ween": 5312,
      "的是": 5313,
      "set": 5314,
      "cond": 5315,
      "上的": 5316,
      "，也": 5317,
      "ning": 5318,
      "never": 5319,
      "iss": 5320,
      "ents": 5321,
      "came": 5322,
      "不同": 5323,
      "ates": 5324,
      "通过": 5325,
      "发现": 5326,
      "fact": 5327,
      "When": 5328,
      "还是": 5329,
      "你的": 5330,
      "ways": 5331,
      "Amer": 5332,
      "了，": 5333,
      "Americ": 5334,
      "between": 5335,
      "18": 5336,
      "For": 5337,
      "child": 5338,
      "ular": 5339,
      "used": 5340,
      "differ": 5341,
      "公司": 5342,
      "ism": 5343,
      "ase": 5344,
      "后，": 5345,
      "这一": 5346,
      "arm": 5347,
      "aking": 5348,
      "sub": 5349,
      "ative": 5350,
      "cons": 5351,
      "those": 5352,
      "ran": 5353,
      "）。": 5354,
      "ins": 5355,
      "gan": 5356,
      "重要": 5357,
      "ese": 5358,
      "cept": 5359,
      "stud": 5360,
      "ited": 5361,
      "writ": 5362,
      "成为": 5363,
      "though": 5364,
      "try": 5365,
      "too": 5366,
      "ey": 5367,
      "said.": 5368,
      "lar": 5369,
      "ities": 5370,
      "father": 5371,
      "it.": 5372,
      "一次": 5373,
      "不会": 5374,
      "大的": 5375,
      "er.": 5376,
      "still": 5377,
      "ittle": 5378,
      "sim": 5379,
      "部分": 5380,
      "There": 5381,
      "add": 5382,
      "ash": 5383,
      "hu": 5384,
      "put": 5385,
      "stru": 5386,
      "publ": 5387,
      "ft": 5388,
      "还有": 5389,
      "，因为": 5390,
      "point": 5391,
      "velo": 5392,
      "being": 5393,
      "fect": 5394,
      "high": 5395,
      "，他们": 5396,
      "ific": 5397,
      "使用": 5398,
      "fri": 5399,
      "around": 5400,
      "uring": 5401,
      "政府": 5402,
      "start": 5403,
      "life": 5404,
      "little": 5405,
      "atch": 5406,
      "主义": 5407,
      "mother": 5408,
      "land": 5409,
      "ress": 5410,
      "As": 5411,
      "“我": 5412,
      "ious": 5413,
      "，我们": 5414,
      "vel": 5415,
      "pow": 5416,
      "let": 5417,
      "while": 5418,
      "reg": 5419,
      "的事": 5420,
      "ouse": 5421,
      "So": 5422,
      "atter": 5423,
      "play": 5424,
      "对于": 5425,
      "take": 5426,
      "dec": 5427,
      "What": 5428,
      "dr": 5429,
      "ma": 5430,
      "che": 5431,
      "'d": 5432,
      "happ": 5433,
      "经济": 5434,
      "seem": 5435,
      "room": 5436,
      "polit": 5437,
      "same": 5438,
      "非常": 5439,
      "那个": 5440,
      "，就": 5441,
      "les": 5442,
      "mar": 5443,
      "gener": 5444,
      "政治": 5445,
      "don't": 5446,
      "12": 5447,
      "东西": 5448,
      "，然后": 5449,
      "each": 5450,
      "sup": 5451,
      "friend": 5452,
      "所以": 5453,
      "pect": 5454,
      "看到": 5455,
      "ship": 5456,
      "15": 5457,
      "ared": 5458,
      "地方": 5459,
      "来的": 5460,
      "ince": 5461,
      "ho": 5462,
      "cour": 5463,
      "”。": 5464,
      "rist": 5465,
      "),": 5466,
      "父亲": 5467,
      "val": 5468,
      "ves": 5469,
      "ys": 5470,
      "ek": 5471,
      "'re": 5472,
      "fi": 5473,
      "didn't": 5474,
      "incl": 5475,
      "stem": 5476,
      "produ": 5477,
      "does": 5478,
      "develo": 5479,
      "feel": 5480,
      "ner": 5481,
      "ution": 5482,
      "bod": 5483,
      "found": 5484,
      "喜欢": 5485,
      "person": 5486,
      "ility": 5487,
      "很多": 5488,
      "Mr": 5489,
      "sure": 5490,
      "real": 5491,
      "something": 5492,
      "dist": 5493,
      "一起": 5494,
      "都是": 5495,
      "beli": 5496,
      "vol": 5497,
      "一直": 5498,
      "\"I": 5499,
      "unt": 5500,
      "影响": 5501,
      "ics": 5502,
      "ds": 5503,
      "之间": 5504,
      "发生": 5505,
      "尽管": 5506,
      "inst": 5507,
      "cy": 5508,
      "是一个": 5509,
      "last": 5510,
      "ature": 5511,
      "peri": 5512,
      "few": 5513,
      "两个": 5514,
      "num": 5515,
      "thought": 5516,
      "方法": 5517,
      "作为": 5518,
      "bor": 5519,
      "got": 5520,
      "three": 5521,
      "方式": 5522,
      "That": 5523,
      "a.": 5524,
      "Al": 5525,
      "sk": 5526,
      "different": 5527,
      "告诉": 5528,
      "find": 5529,
      "能够": 5530,
      "leg": 5531,
      "bas": 5532,
      "par": 5533,
      "sol": 5534,
      "eng": 5535,
      "bre": 5536,
      "might": 5537,
      "只是": 5538,
      "sul": 5539,
      "来，": 5540,
      "cap": 5541,
      "fun": 5542,
      "应该": 5543,
      "press": 5544,
      "men": 5545,
      "包括": 5546,
      "char": 5547,
      "000": 5548,
      "show": 5549,
      "conom": 5550,
      "both": 5551,
      "ings": 5552,
      "pass": 5553,
      "好的": 5554,
      "incre": 5555,
      "amp": 5556,
      "ation.": 5557,
      "他们的": 5558,
      "How": 5559,
      "side": 5560,
      "大学": 5561,
      "cover": 5562,
      "里，": 5563,
      "My": 5564,
      "然而": 5565,
      "英国": 5566,
      "fic": 5567,
      "water": 5568,
      "open": 5569,
      "view": 5570,
      "night": 5571,
      "ason": 5572,
      "aph": 5573,
      "觉得": 5574,
      "ation,": 5575,
      "许多": 5576,
      "方面": 5577,
      "always": 5578,
      "ion.": 5579,
      "den": 5580,
      "chool": 5581,
      "away": 5582,
      "war": 5583,
      "aren": 5584,
      "No": 5585,
      "lif": 5586,
      "lim": 5587,
      "朋友": 5588,
      "trans": 5589,
      "ion,": 5590,
      "pon": 5591,
      "cial": 5592,
      "bro": 5593,
      "fol": 5594,
      "不能": 5595,
      "going": 5596,
      "system": 5597,
      "里的": 5598,
      "ments": 5599,
      "，一": 5600,
      "tre": 5601,
      "Con": 5602,
      "pain": 5603,
      "lead": 5604,
      "，而且": 5605,
      "xt": 5606,
      "ank": 5607,
      "oup": 5608,
      "如何": 5609,
      "another": 5610,
      "present": 5611,
      "为了": 5612,
      "信息": 5613,
      "甚至": 5614,
      "11": 5615,
      "chn": 5616,
      "sen": 5617,
      "import": 5618,
      "called": 5619,
      "az": 5620,
      "vent": 5621,
      "akes": 5622,
      "help": 5623,
      "bed": 5624,
      "个人": 5625,
      "fre": 5626,
      "发展": 5627,
      "it,": 5628,
      "ider": 5629,
      "存在": 5630,
      "198": 5631,
      "199": 5632,
      "power": 5633,
      "提供": 5634,
      "最后": 5635,
      "alth": 5636,
      "econom": 5637,
      "ted": 5638,
      "At": 5639,
      "chan": 5640,
      "social": 5641,
      "small": 5642,
      "fac": 5643,
      "uro": 5644,
      "母亲": 5645,
      "family": 5646,
      "det": 5647,
      "ines": 5648,
      "appe": 5649,
      "eas": 5650,
      "irl": 5651,
      "如此": 5652,
      "世纪": 5653,
      "希望": 5654,
      "ross": 5655,
      "我们的": 5656,
      "gest": 5657,
      "On": 5658,
      "kn": 5659,
      "是一": 5660,
      "great": 5661,
      "关于": 5662,
      "met": 5663,
      "ng": 5664,
      "quest": 5665,
      "dire": 5666,
      "ically": 5667,
      "serv": 5668,
      "ember": 5669,
      "often": 5670,
      "must": 5671,
      "went": 5672,
      "appro": 5673,
      "主要": 5674,
      "关系": 5675,
      "选择": 5676,
      "30": 5677,
      "run": 5678,
      "lig": 5679,
      "ural": 5680,
      "giv": 5681,
      "Christ": 5682,
      "hist": 5683,
      "感觉": 5684,
      "ized": 5685,
      "50": 5686,
      "ually": 5687,
      "完全": 5688,
      "without": 5689,
      "sing": 5690,
      "tell": 5691,
      "bus": 5692,
      "kind": 5693,
      "search": 5694,
      "ished": 5695,
      "Ar": 5696,
      "house": 5697,
      "ton": 5698,
      "之前": 5699,
      "因此": 5700,
      "情况": 5701,
      "来。": 5702,
      "second": 5703,
      "care": 5704,
      "pri": 5705,
      "第一": 5706,
      "，是": 5707,
      "possi": 5708,
      "said,": 5709,
      "public": 5710,
      "told": 5711,
      "clear": 5712,
      "....": 5713,
      "aut": 5714,
      "hard": 5715,
      "jo": 5716,
      "school": 5717,
      "plan": 5718,
      "ly.": 5719,
      "只有": 5720,
      "exam": 5721,
      "Se": 5722,
      "ub": 5723,
      "fort": 5724,
      "talk": 5725,
      "arr": 5726,
      "sign": 5727,
      "won": 5728,
      "nor": 5729,
      "美元": 5730,
      "，有": 5731,
      "New": 5732,
      "ists": 5733,
      "contin": 5734,
      "故事": 5735,
      "next": 5736,
      "学家": 5737,
      "mean": 5738,
      "ivers": 5739,
      "later": 5740,
      "不过": 5741,
      "graph": 5742,
      "number": 5743,
      "Be": 5744,
      "during": 5745,
      "艺术": 5746,
      "），": 5747,
      "sit": 5748,
      "上。": 5749,
      "His": 5750,
      "emp": 5751,
      "gover": 5752,
      "过去": 5753,
      "exp": 5754,
      "human": 5755,
      "sl": 5756,
      "之后": 5757,
      "left": 5758,
      "To": 5759,
      "cal": 5760,
      "必须": 5761,
      "的话": 5762,
      "week": 5763,
      "grow": 5764,
      "political": 5765,
      "net": 5766,
      "并不": 5767,
      "includ": 5768,
      "mil": 5769,
      "best": 5770,
      "Com": 5771,
      "ned": 5772,
      "sum": 5773,
      "var": 5774,
      "prov": 5775,
      "develop": 5776,
      "是在": 5777,
      "正在": 5778,
      "stre": 5779,
      "it's": 5780,
      "uck": 5781,
      "产生": 5782,
      "young": 5783,
      "nment": 5784,
      "ric": 5785,
      "人。": 5786,
      "得到": 5787,
      "虽然": 5788,
      "children": 5789,
      "follow": 5790,
      "Af": 5791,
      "bal": 5792,
      "ness": 5793,
      "chang": 5794,
      "cri": 5795,
      "China": 5796,
      "ied": 5797,
      "took": 5798,
      "14": 5799,
      "law": 5800,
      "Euro": 5801,
      "Mar": 5802,
      "怎么": 5803,
      "ably": 5804,
      "until": 5805,
      "En": 5806,
      "行为": 5807,
      "American": 5808,
      "since": 5809,
      "ug": 5810,
      "rest": 5811,
      "I'm": 5812,
      "cut": 5813,
      "“你": 5814,
      "really": 5815,
      "keep": 5816,
      "历史": 5817,
      "group": 5818,
      "cord": 5819,
      "决定": 5820,
      "1.": 5821,
      "性的": 5822,
      "ories": 5823,
      "top": 5824,
      "place": 5825,
      "home": 5826,
      "，它": 5827,
      "love": 5828,
      "women": 5829,
      "ling": 5830,
      "mark": 5831,
      "196": 5832,
      "against": 5833,
      "four": 5834,
      "自由": 5835,
      "Europe": 5836,
      "miss": 5837,
      "似乎": 5838,
      "partic": 5839,
      "month": 5840,
      "ures": 5841,
      "感到": 5842,
      "这是": 5843,
      "那样": 5844,
      "mor": 5845,
      "resul": 5846,
      "16": 5847,
      "Re": 5848,
      "技术": 5849,
      "年的": 5850,
      "reason": 5851,
      "ement": 5852,
      "plac": 5853,
      "ern": 5854,
      "big": 5855,
      "ont": 5856,
      "far": 5857,
      "woman": 5858,
      "dri": 5859,
      "national": 5860,
      "ize": 5861,
      "blem": 5862,
      "certain": 5863,
      "rad": 5864,
      "omet": 5865,
      "增长": 5866,
      "年，": 5867,
      "gin": 5868,
      "其中": 5869,
      "组织": 5870,
      "cas": 5871,
      "结果": 5872,
      "inform": 5873,
      "respon": 5874,
      "子。": 5875,
      "bit": 5876,
      "也是": 5877,
      "mill": 5878,
      "nam": 5879,
      "同时": 5880,
      "ste": 5881,
      "techn": 5882,
      "better": 5883,
      "hal": 5884,
      "io": 5885,
      "获得": 5886,
      "outh": 5887,
      "由于": 5888,
      "ext": 5889,
      "girl": 5890,
      "成了": 5891,
      "接受": 5892,
      "understand": 5893,
      "important": 5894,
      "wind": 5895,
      "ages": 5896,
      "things": 5897,
      "body": 5898,
      "mind": 5899,
      "order": 5900,
      "It's": 5901,
      "197": 5902,
      "turned": 5903,
      "13": 5904,
      "Her": 5905,
      "运动": 5906,
      "ity,": 5907,
      "...": 5908,
      "interest": 5909,
      "blo": 5910,
      "ost": 5911,
      "总统": 5912,
      "更多": 5913,
      "，“": 5914,
      "，以": 5915,
      "sci": 5916,
      "class": 5917,
      "dro": 5918,
      "地区": 5919,
      "电影": 5920,
      "ever,": 5921,
      "walk": 5922,
      "无法": 5923,
      "时候": 5924,
      "第二": 5925,
      "，从": 5926,
      "dep": 5927,
      "known": 5928,
      "有一": 5929,
      "ivid": 5930,
      "为什么": 5931,
      "iness": 5932,
      "ers,": 5933,
      "problem": 5934,
      "erg": 5935,
      "atic": 5936,
      "ired": 5937,
      "mom": 5938,
      "ator": 5939,
      "oper": 5940,
      "augh": 5941,
      "once": 5942,
      "变得": 5943,
      "同样": 5944,
      "）的": 5945,
      "suc": 5946,
      "ather": 5947,
      "lear": 5948,
      "se,": 5949,
      "become": 5950,
      "ris": 5951,
      "commun": 5952,
      "itch": 5953,
      "list": 5954,
      "作品": 5955,
      "设计": 5956,
      "iter": 5957,
      "test": 5958,
      "iet": 5959,
      "的大": 5960,
      "ity.": 5961,
      "如果你": 5962,
      "face": 5963,
      "pur": 5964,
      "人类": 5965,
      "来自": 5966,
      "als": 5967,
      "consider": 5968,
      "God": 5969,
      "line": 5970,
      "语言": 5971,
      "sever": 5972,
      "改变": 5973,
      "系统": 5974,
      "那么": 5975,
      "，当": 5976,
      "ars": 5977,
      "，并且": 5978,
      "One": 5979,
      "vo": 5980,
      "的小": 5981,
      "说：“": 5982,
      "这么": 5983,
      "ale": 5984,
      "comple": 5985,
      "有些": 5986,
      "word": 5987,
      "large": 5988,
      "几个": 5989,
      "ah": 5990,
      "之一": 5991,
      "ices": 5992,
      "ying": 5993,
      "人，": 5994,
      "想要": 5995,
      "是否": 5996,
      "enough": 5997,
      "raw": 5998,
      "Mr.": 5999,
      "whe": 6000,
      "”的": 6001,
      "计划": 6002,
      "imes": 6003,
      "出现": 6004,
      "欧洲": 6005,
      "looked": 6006,
      "ology": 6007,
      "government": 6008,
      "mem": 6009,
      "原因": 6010,
      "子，": 6011,
      "step": 6012,
      "17": 6013,
      "move": 6014,
      "ready": 6015,
      "这样的": 6016,
      "acter": 6017,
      "door": 6018,
      "saw": 6019,
      "ient": 6020,
      "prof": 6021,
      "eld": 6022,
      "Brit": 6023,
      "中心": 6024,
      "新的": 6025,
      "Ro": 6026,
      "意识": 6027,
      "marri": 6028,
      "Jo": 6029,
      "cult": 6030,
      "吗？": 6031,
      "道。": 6032,
      "en,": 6033,
      "und": 6034,
      "direct": 6035,
      "'ll": 6036,
      "uc": 6037,
      "令人": 6038,
      "家庭": 6039,
      "hy": 6040,
      "pat": 6041,
      "ord": 6042,
      "pop": 6043,
      "出了": 6044,
      "理论": 6045,
      "equ": 6046,
      "give": 6047,
      "wa": 6048,
      "年轻": 6049,
      "色的": 6050,
      "organ": 6051,
      "hair": 6052,
      "increas": 6053,
      "dam": 6054,
      "ither": 6055,
      "lot": 6056,
      "理解": 6057,
      "report": 6058,
      "is,": 6059,
      "sho": 6060,
      "past": 6061,
      "帮助": 6062,
      "成功": 6063,
      "and,": 6064,
      "expect": 6065,
      "gether": 6066,
      "stat": 6067,
      "health": 6068,
      "vest": 6069,
      "hour": 6070,
      "继续": 6071,
      "empt": 6072,
      "在这": 6073,
      "shall": 6074,
      "S.": 6075,
      "early": 6076,
      "half": 6077,
      "research": 6078,
      "particular": 6079,
      "ush": 6080,
      "就会": 6081,
      "elt": 6082,
      "ended": 6083,
      "wanted": 6084,
      "De": 6085,
      "knew": 6086,
      "数据": 6087,
      "来说": 6088,
      "mod": 6089,
      "ained": 6090,
      "Pr": 6091,
      "paren": 6092,
      "的“": 6093,
      "ional": 6094,
      "near": 6095,
      "mone": 6096,
      "文化": 6097,
      "法律": 6098,
      "aps": 6099,
      "ground": 6100,
      "action": 6101,
      "活动": 6102,
      "trave": 6103,
      "pris": 6104,
      "struct": 6105,
      "possible": 6106,
      "him.": 6107,
      "sle": 6108,
      "在那": 6109,
      "thor": 6110,
      "After": 6111,
      "ron": 6112,
      "斯特": 6113,
      "ital": 6114,
      "ude": 6115,
      "具有": 6116,
      "离开": 6117,
      "宗教": 6118,
      "ann": 6119,
      "together": 6120,
      "科学": 6121,
      "effect": 6122,
      "fall": 6123,
      "是个": 6124,
      "term": 6125,
      "支持": 6126,
      "la": 6127,
      "watch": 6128,
      "Chinese": 6129,
      "分析": 6130,
      "总是": 6131,
      "简单": 6132,
      "fil": 6133,
      "下，": 6134,
      "多数": 6135,
      "安全": 6136,
      "character": 6137,
      "Engl": 6138,
      "Fr": 6139,
      "过程": 6140,
      "通常": 6141,
      "became": 6142,
      "ute": 6143,
      "ability": 6144,
      "hom": 6145,
      "声音": 6146,
      "行动": 6147,
      "，所以": 6148,
      "position": 6149,
      "2.": 6150,
      "事实": 6151,
      "ago": 6152,
      "ately": 6153,
      "design": 6154,
      "sat": 6155,
      "相信": 6156,
      "hold": 6157,
      "他在": 6158,
      "作用": 6159,
      "要求": 6160,
      "ref": 6161,
      "arter": 6162,
      "change": 6163,
      "Is": 6164,
      "food": 6165,
      "几乎": 6166,
      "thir": 6167,
      "ers.": 6168,
      "anal": 6169,
      "sug": 6170,
      "offic": 6171,
      "happen": 6172,
      "Le": 6173,
      "cu": 6174,
      "me.": 6175,
      "began": 6176,
      "，这些": 6177,
      "five": 6178,
      "注意": 6179,
      "ama": 6180,
      "percent": 6181,
      "says": 6182,
      "making": 6183,
      "t,": 6184,
      "里。": 6185,
      "stop": 6186,
      "almost": 6187,
      "allow": 6188,
      ",000": 6189,
      "gn": 6190,
      "国际": 6191,
      "time,": 6192,
      "United": 6193,
      "了一个": 6194,
      "ered": 6195,
      "on,": 6196,
      "countri": 6197,
      "Ex": 6198,
      "最终": 6199,
      "aken": 6200,
      "Bo": 6201,
      "ply": 6202,
      "sw": 6203,
      "仍然": 6204,
      "trad": 6205,
      "nat": 6206,
      "年代": 6207,
      "why": 6208,
      "Nor": 6209,
      "mid": 6210,
      "呢？": 6211,
      "itive": 6212,
      "experi": 6213,
      "boy": 6214,
      "准备": 6215,
      "印度": 6216,
      "妈妈": 6217,
      "整个": 6218,
      "ond": 6219,
      "toward": 6220,
      "por": 6221,
      "变化": 6222,
      "巴马": 6223,
      "among": 6224,
      "me,": 6225,
      "using": 6226,
      "que": 6227,
      "Ger": 6228,
      "dat": 6229,
      "aring": 6230,
      "live": 6231,
      "comes": 6232,
      "prom": 6233,
      "himself": 6234,
      "Wor": 6235,
      "实际": 6236,
      "说，“": 6237,
      "build": 6238,
      "example": 6239,
      "25": 6240,
      "Ob": 6241,
      "Sh": 6242,
      "matter": 6243,
      "考虑": 6244,
      "requ": 6245,
      "flu": 6246,
      "它的": 6247,
      "seen": 6248,
      "ided": 6249,
      "tract": 6250,
      "felt": 6251,
      "ger": 6252,
      "mi": 6253,
      "比如": 6254,
      "nothing": 6255,
      "女人": 6256,
      "的地方": 6257,
      "ets": 6258,
      "job": 6259,
      "main": 6260,
      "新闻": 6261,
      "them.": 6262,
      "jor": 6263,
      "lip": 6264,
      "attack": 6265,
      "ff": 6266,
      "lin": 6267,
      "特别": 6268,
      "least": 6269,
      "continu": 6270,
      "出的": 6271,
      "好像": 6272,
      "让我": 6273,
      "ime": 6274,
      "一点": 6275,
      "全球": 6276,
      "面的": 6277,
      "front": 6278,
      "moment": 6279,
      "文学": 6280,
      "父母": 6281,
      "along": 6282,
      "ele": 6283,
      "各种": 6284,
      "，即": 6285,
      "angu": 6286,
      "contro": 6287,
      "descri": 6288,
      "pap": 6289,
      "网络": 6290,
      "的事情": 6291,
      "band": 6292,
      "ividual": 6293,
      "flo": 6294,
      "vil": 6295,
      "有关": 6296,
      "，或者": 6297,
      "espe": 6298,
      "project": 6299,
      "plic": 6300,
      "anything": 6301,
      "3.": 6302,
      "U.": 6303,
      "aim": 6304,
      "eve": 6305,
      "健康": 6306,
      "process": 6307,
      "country": 6308,
      "hot": 6309,
      "在一": 6310,
      "女孩": 6311,
      "当然": 6312,
      "真正": 6313,
      "issu": 6314,
      "minist": 6315,
      "不同的": 6316,
      "IS": 6317,
      "保持": 6318,
      "报告": 6319,
      "收入": 6320,
      "的一个": 6321,
      "spect": 6322,
      "including": 6323,
      "的时间": 6324,
      "liter": 6325,
      "vir": 6326,
      "也不": 6327,
      "也许": 6328,
      "奥巴马": 6329,
      "容易": 6330,
      "调查": 6331,
      "stit": 6332,
      "coming": 6333,
      "194": 6334,
      "pract": 6335,
      "looking": 6336,
      "eyes": 6337,
      "ove": 6338,
      "建立": 6339,
      "解释": 6340,
      "cell": 6341,
      "ribut": 6342,
      "rather": 6343,
      "，那么": 6344,
      "elect": 6345,
      "战争": 6346,
      "看着": 6347,
      "crit": 6348,
      "wall": 6349,
      "wif": 6350,
      "旅行": 6351,
      "adv": 6352,
      "pho": 6353,
      "ible": 6354,
      "yet": 6355,
      "基督": 6356,
      "就像": 6357,
      "support": 6358,
      "mag": 6359,
      "意义": 6360,
      "直到": 6361,
      "tow": 6362,
      "you're": 6363,
      "tra": 6364,
      "individual": 6365,
      "拥有": 6366,
      "眼睛": 6367,
      "观点": 6368,
      "dom": 6369,
      "mus": 6370,
      "nal": 6371,
      "pul": 6372,
      "ants": 6373,
      "economic": 6374,
      "ometimes": 6375,
      "several": 6376,
      "fig": 6377,
      "ral": 6378,
      "表示": 6379,
      "invest": 6380,
      "on.": 6381,
      "se.": 6382,
      "I'd": 6383,
      "free": 6384,
      "学习": 6385,
      "thod": 6386,
      "today": 6387,
      "Or": 6388,
      "分钟": 6389,
      "having": 6390,
      "tru": 6391,
      "Col": 6392,
      "bi": 6393,
      "”，": 6394,
      "ised": 6395,
      "ides": 6396,
      "major": 6397,
      "All": 6398,
      "usu": 6399,
      "了解": 6400,
      "服务": 6401,
      "six": 6402,
      "seemed": 6403,
      "Some": 6404,
      "fast": 6405,
      "pret": 6406,
      "控制": 6407,
      "能力": 6408,
      "across": 6409,
      "imag": 6410,
      "wasn't": 6411,
      "prote": 6412,
      "product": 6413,
      "中。": 6414,
      "学校": 6415,
      "小时": 6416,
      "马克": 6417,
      "plain": 6418,
      "depend": 6419,
      "ged": 6420,
      "创造": 6421,
      "当时": 6422,
      "，对": 6423,
      "relig": 6424,
      "ured": 6425,
      "remember": 6426,
      "Car": 6427,
      "hind": 6428,
      "nes": 6429,
      "wr": 6430,
      "教育": 6431,
      "经常": 6432,
      "项目": 6433,
      "level": 6434,
      "begin": 6435,
      "information": 6436,
      "bar": 6437,
      "flow": 6438,
      "meet": 6439,
      "不要": 6440,
      "spec": 6441,
      "fo": 6442,
      "success": 6443,
      "whether": 6444,
      "\"The": 6445,
      "Ste": 6446,
      "camp": 6447,
      "作家": 6448,
      "基本": 6449,
      "罗斯": 6450,
      "one.": 6451,
      "prob": 6452,
      "ment.": 6453,
      "ies,": 6454,
      "general": 6455,
      "U.S.": 6456,
      "\"You": 6457,
      "langu": 6458,
      "ping": 6459,
      "sil": 6460,
      "根据": 6461,
      "身体": 6462,
      "进入": 6463,
      "activ": 6464,
      "black": 6465,
      "strong": 6466,
      "t.": 6467,
      "后来": 6468,
      "定的": 6469,
      "表现": 6470,
      "reach": 6471,
      "gram": 6472,
      "days": 6473,
      "close": 6474,
      "glo": 6475,
      "kid": 6476,
      "怎样": 6477,
      "，以及": 6478,
      "already": 6479,
      "le,": 6480,
      "author": 6481,
      "vious": 6482,
      "sal": 6483,
      "今天": 6484,
      "common": 6485,
      "istic": 6486,
      "given": 6487,
      "政策": 6488,
      "曾经": 6489,
      "的东西": 6490,
      "ences": 6491,
      "ential": 6492,
      "living": 6493,
      "ance,": 6494,
      "ax": 6495,
      "ben": 6496,
      "non": 6497,
      "name": 6498,
      "pen": 6499,
      "不知道": 6500,
      "在一起": 6501,
      "来说，": 6502,
      "educ": 6503,
      "exist": 6504,
      "one,": 6505,
      "business": 6506,
      "Pro": 6507,
      "受到": 6508,
      "处理": 6509,
      "aged": 6510,
      "asked": 6511,
      "relation": 6512,
      "Not": 6513,
      "lay": 6514,
      "sent": 6515,
      "环境": 6516,
      "男人": 6517,
      "in,": 6518,
      "ury": 6519,
      "short": 6520,
      "ence,": 6521,
      "Then": 6522,
      "电话": 6523,
      "conne": 6524,
      "key": 6525,
      "cially": 6526,
      "medi": 6527,
      "photo": 6528,
      "With": 6529,
      "West": 6530,
      "bers": 6531,
      "cus": 6532,
      "学生": 6533,
      "ster": 6534,
      "road": 6535,
      "ety": 6536,
      "2008": 6537,
      "polic": 6538,
      "os": 6539,
      "出版": 6540,
      "利亚": 6541,
      "Indi": 6542,
      "These": 6543,
      "based": 6544,
      "努力": 6545,
      "管理": 6546,
      "讨论": 6547,
      "Inter": 6548,
      "Pres": 6549,
      "bot": 6550,
      "cup": 6551,
      "either": 6552,
      "另一": 6553,
      "him,": 6554,
      "hi": 6555,
      "makes": 6556,
      "sof": 6557,
      "sound": 6558,
      "tal": 6559,
      "一般": 6560,
      "增加": 6561,
      "机会": 6562,
      "white": 6563,
      "unch": 6564,
      "Now": 6565,
      "US": 6566,
      "mal": 6567,
      "mand": 6568,
      "taken": 6569,
      "大多数": 6570,
      "子的": 6571,
      "or,": 6572,
      "，他的": 6573,
      "king": 6574,
      "late": 6575,
      "事情": 6576,
      "随着": 6577,
      "beaut": 6578,
      "remain": 6579,
      "field": 6580,
      "slow": 6581,
      "去。": 6582,
      "另外": 6583,
      "in.": 6584,
      "started": 6585,
      "Ad": 6586,
      "Br": 6587,
      "table": 6588,
      "上帝": 6589,
      "例如": 6590,
      "导致": 6591,
      "照片": 6592,
      "电视": 6593,
      "quarter": 6594,
      "company": 6595,
      "full": 6596,
      "mp": 6597,
      "头发": 6598,
      "时代": 6599,
      "ization": 6600,
      "believe": 6601,
      "Pet": 6602,
      "wide": 6603,
      "传统": 6604,
      "吗？”": 6605,
      "在他": 6606,
      "找到": 6607,
      "更加": 6608,
      "机构": 6609,
      "都会": 6610,
      "iting": 6611,
      "event": 6612,
      "，把": 6613,
      "behind": 6614,
      "ending": 6615,
      "question": 6616,
      "approach": 6617,
      "看起来": 6618,
      "age,": 6619,
      "indust": 6620,
      "60": 6621,
      "Ph": 6622,
      "pie": 6623,
      "意味": 6624,
      "自然": 6625,
      "that,": 6626,
      "curren": 6627,
      "subject": 6628,
      "histor": 6629,
      "wer": 6630,
      "的那": 6631,
      "精神": 6632,
      "认识": 6633,
      "sty": 6634,
      "concer": 6635,
      "195": 6636,
      "ives": 6637,
      "cogn": 6638,
      "iversity": 6639,
      "By": 6640,
      "目标": 6641,
      "cost": 6642,
      "fail": 6643,
      "dle": 6644,
      "sun": 6645,
      "》（": 6646,
      "纽约": 6647,
      "结束": 6648,
      "耶稣": 6649,
      "story": 6650,
      "myself": 6651,
      "名字": 6652,
      "计算": 6653,
      "证明": 6654,
      "ouch": 6655,
      "heart": 6656,
      "within": 6657,
      "，这个": 6658,
      "之间的": 6659,
      "break": 6660,
      "Ge": 6661,
      "bad": 6662,
      "坐在": 6663,
      "结构": 6664,
      "her.": 6665,
      "million": 6666,
      "Li": 6667,
      "一位": 6668,
      "以前": 6669,
      "形式": 6670,
      "空间": 6671,
      "offer": 6672,
      "condition": 6673,
      "life.": 6674,
      "fill": 6675,
      "hus": 6676,
      "不可": 6677,
      "女性": 6678,
      "ined": 6679,
      "loy": 6680,
      "can't": 6681,
      "English": 6682,
      "dre": 6683,
      "pot": 6684,
      "是我": 6685,
      "，还": 6686,
      "ones": 6687,
      "means": 6688,
      "others": 6689,
      "time.": 6690,
      "的时候，": 6691,
      "她们": 6692,
      "市场": 6693,
      "ows": 6694,
      "death": 6695,
      "post": 6696,
      "themsel": 6697,
      "cret": 6698,
      "everything": 6699,
      "sense": 6700,
      "确定": 6701,
      "量的": 6702,
      "an,": 6703,
      "draw": 6704,
      "hood": 6705,
      "丈夫": 6706,
      "不得": 6707,
      "者的": 6708,
      "至少": 6709,
      "enc": 6710,
      "age.": 6711,
      "express": 6712,
      "method": 6713,
      "day,": 6714,
      "bir": 6715,
      "ier": 6716,
      "us,": 6717,
      "一定": 6718,
      "生命": 6719,
      "相关": 6720,
      "argu": 6721,
      "ilar": 6722,
      "abl": 6723,
      "2009": 6724,
      "ca": 6725,
      "dark": 6726,
      "了。”": 6727,
      "价值": 6728,
      "内容": 6729,
      "城市": 6730,
      "将会": 6731,
      "每个": 6732,
      "解决": 6733,
      "，如果": 6734,
      "exper": 6735,
      "pose": 6736,
      "，这种": 6737,
      "natural": 6738,
      "haps": 6739,
      "先生": 6740,
      "rece": 6741,
      "ork": 6742,
      "tom": 6743,
      "Ac": 6744,
      "wro": 6745,
      "！”": 6746,
      "，可": 6747,
      "s.\"": 6748,
      "period": 6749,
      "money": 6750,
      "Ap": 6751,
      "Har": 6752,
      "Of": 6753,
      "清楚": 6754,
      "ote": 6755,
      "posed": 6756,
      "问题。": 6757,
      "wonder": 6758,
      "cording": 6759,
      "aid": 6760,
      "a's": 6761,
      "kill": 6762,
      "round": 6763,
      "一切": 6764,
      "房间": 6765,
      "有人": 6766,
      "inci": 6767,
      "stood": 6768,
      "dest": 6769,
      "likely": 6770,
      "object": 6771,
      "deter": 6772,
      "Mo": 6773,
      "Tr": 6774,
      "下的": 6775,
      "state": 6776,
      "ies.": 6777,
      "fully": 6778,
      "Obama": 6779,
      "产品": 6780,
      "小的": 6781,
      "经历": 6782,
      "ons": 6783,
      "......": 6784,
      "4.": 6785,
      "spo": 6786,
      "回到": 6787,
      "很快": 6788,
      "表明": 6789,
      "or.": 6790,
      "ford": 6791,
      "可能会": 6792,
      "利用": 6793,
      "基础": 6794,
      "让人": 6795,
      "，还有": 6796,
      "appear": 6797,
      "下来": 6798,
      "唯一": 6799,
      "妻子": 6800,
      "描述": 6801,
      "某些": 6802,
      "联系": 6803,
      "return": 6804,
      "accoun": 6805,
      "itting": 6806,
      "Joh": 6807,
      "pay": 6808,
      "sch": 6809,
      "出来": 6810,
      "德国": 6811,
      "的最": 6812,
      "直接": 6813,
      "真的": 6814,
      "领域": 6815,
      "itself": 6816,
      "lost": 6817,
      "whole": 6818,
      "says.": 6819,
      "swe": 6820,
      "一下": 6821,
      "并没有": 6822,
      "汽车": 6823,
      "重新": 6824,
      "除了": 6825,
      "moved": 6826,
      "ence.": 6827,
      "，”他": 6828,
      "suggest": 6829,
      "在我": 6830,
      "食物": 6831,
      "phil": 6832,
      "colle": 6833,
      "data": 6834,
      "Bar": 6835,
      "sed": 6836,
      "之后，": 6837,
      "力的": 6838,
      "小说": 6839,
      "并且": 6840,
      "我想": 6841,
      "贸易": 6842,
      "ctions": 6843,
      "minut": 6844,
      "York": 6845,
      "fut": 6846,
      "完成": 6847,
      "时期": 6848,
      "第一次": 6849,
      "recent": 6850,
      "someone": 6851,
      "doesn't": 6852,
      "personal": 6853,
      "parents": 6854,
      "sleep": 6855,
      "吸引": 6856,
      "明白": 6857,
      "travel": 6858,
      "countries": 6859,
      "意味着": 6860,
      "Rus": 6861,
      "case": 6862,
      "pict": 6863,
      "yl": 6864,
      "仅仅": 6865,
      "放在": 6866,
      "ently": 6867,
      "quick": 6868,
      "complete": 6869,
      "South": 6870,
      "row": 6871,
      "事件": 6872,
      "代表": 6873,
      "着一": 6874,
      "accept": 6875,
      "moder": 6876,
      "apter": 6877,
      "fric": 6878,
      "efore": 6879,
      "trying": 6880,
      "market": 6881,
      "jour": 6882,
      "mater": 6883,
      "pack": 6884,
      "其它": 6885,
      "程度": 6886,
      "soon": 6887,
      "train": 6888,
      "working": 6889,
      "所有的": 6890,
      "development": 6891,
      "President": 6892,
      "War": 6893,
      "hor": 6894,
      "mess": 6895,
      "sometimes": 6896,
      "ues": 6897,
      "反应": 6898,
      "每天": 6899,
      "reat": 6900,
      "orig": 6901,
      "rock": 6902,
      "whose": 6903,
      "spir": 6904,
      "World": 6905,
      "Even": 6906,
      "gg": 6907,
      "而言": 6908,
      "proper": 6909,
      "times": 6910,
      "idea": 6911,
      "comput": 6912,
      "special": 6913,
      "especially": 6914,
      "’t": 6915,
      "不到": 6916,
      "不断": 6917,
      "严重": 6918,
      "人员": 6919,
      "形成": 6920,
      "而且": 6921,
      "invol": 6922,
      "claim": 6923,
      "decis": 6924,
      "rid": 6925,
      "tro": 6926,
      "taking": 6927,
      "星期": 6928,
      "th,": 6929,
      "imp": 6930,
      "clim": 6931,
      "bur": 6932,
      "fur": 6933,
      "mis": 6934,
      "尤其": 6935,
      "是什么": 6936,
      "有一个": 6937,
      "法国": 6938,
      "uni": 6939,
      "urch": 6940,
      "qual": 6941,
      "couldn't": 6942,
      "study": 6943,
      "town": 6944,
      "40": 6945,
      "Do": 6946,
      "Pe": 6947,
      "sid": 6948,
      "weight": 6949,
      "speak": 6950,
      "思想": 6951,
      "无论": 6952,
      "试图": 6953,
      "超过": 6954,
      "，一个": 6955,
      "ane": 6956,
      "itary": 6957,
      "her,": 6958,
      "British": 6959,
      "probably": 6960,
      "future": 6961,
      "y-": 6962,
      "动物": 6963,
      "参加": 6964,
      "概念": 6965,
      "衣服": 6966,
      "ate,": 6967,
      "vert": 6968,
      "suf": 6969,
      "grand": 6970,
      "John": 6971,
      "bill": 6972,
      "sist": 6973,
      "本书": 6974,
      "知识": 6975,
      "音乐": 6976,
      "example,": 6977,
      "Afric": 6978,
      "Pl": 6979,
      "也会": 6980,
      "充满": 6981,
      "性。": 6982,
      "想象": 6983,
      "斯坦": 6984,
      "条件": 6985,
      "用于": 6986,
      "ung": 6987,
      "words": 6988,
      "upon": 6989,
      "，而是": 6990,
      "simple": 6991,
      "course": 6992,
      "film": 6993,
      "媒体": 6994,
      "比较": 6995,
      "influ": 6996,
      "ingly": 6997,
      "heard": 6998,
      "decl": 6999,
      "defin": 7000,
      "bert": 7001,
      "ia,": 7002,
      "cir": 7003,
      "dou": 7004,
      "oso": 7005,
      "力。": 7006,
      "尼亚": 7007,
      "stay": 7008,
      "he'd": 7009,
      "else": 7010,
      "meas": 7011,
      "udd": 7012,
      "discus": 7013,
      "I've": 7014,
      "third": 7015,
      "win": 7016,
      "anim": 7017,
      "ried": 7018,
      "program": 7019,
      "scient": 7020,
      "model": 7021,
      "Asi": 7022,
      "Co": 7023,
      "May": 7024,
      "三个": 7025,
      "会议": 7026,
      "只要": 7027,
      "后的": 7028,
      "或许": 7029,
      "clean": 7030,
      "'ve": 7031,
      "他。": 7032,
      "回答": 7033,
      "永远": 7034,
      "conf": 7035,
      "concept": 7036,
      "ape": 7037,
      "aughter": 7038,
      "material": 7039,
      "意思": 7040,
      "越来": 7041,
      "rele": 7042,
      "heav": 7043,
      "deal": 7044,
      "actually": 7045,
      "discover": 7046,
      "II": 7047,
      "hol": 7048,
      "wood": 7049,
      "比赛": 7050,
      "ellow": 7051,
      "bring": 7052,
      "born": 7053,
      "relationship": 7054,
      "husband": 7055,
      "越来越": 7056,
      "Jap": 7057,
      "fav": 7058,
      "ham": 7059,
      "ians": 7060,
      "mun": 7061,
      "上去": 7062,
      "位置": 7063,
      "想法": 7064,
      "突然": 7065,
      "表达": 7066,
      "，如": 7067,
      "ames": 7068,
      "herself": 7069,
      "ived": 7070,
      "compan": 7071,
      "States": 7072,
      "diffic": 7073,
      "重要的": 7074,
      "bility": 7075,
      "jud": 7076,
      "ks": 7077,
      "并不是": 7078,
      "某种": 7079,
      "inc": 7080,
      "represent": 7081,
      "leave": 7082,
      "doing": 7083,
      "fire": 7084,
      "sn": 7085,
      "关注": 7086,
      "另一个": 7087,
      "才能": 7088,
      "自身": 7089,
      "，其": 7090,
      "respect": 7091,
      "civil": 7092,
      "ally,": 7093,
      "years,": 7094,
      "result": 7095,
      "German": 7096,
      "Gr": 7097,
      "Jes": 7098,
      "tem": 7099,
      "兴趣": 7100,
      "首先": 7101,
      "log": 7102,
      "ney": 7103,
      "ulation": 7104,
      "princi": 7105,
      "，这样": 7106,
      "profess": 7107,
      "control": 7108,
      "East": 7109,
      "eight": 7110,
      "gave": 7111,
      "oid": 7112,
      "pick": 7113,
      "上了": 7114,
      "制作": 7115,
      "日本": 7116,
      "男孩": 7117,
      "anc": 7118,
      "all,": 7119,
      "ateg": 7120,
      "193": 7121,
      "news": 7122,
      "typ": 7123,
      "simply": 7124,
      "习惯": 7125,
      "厨房": 7126,
      "委员": 7127,
      "持续": 7128,
      "的、": 7129,
      "necess": 7130,
      "ples": 7131,
      "intel": 7132,
      "history": 7133,
      "usually": 7134,
      "eat": 7135,
      "ked": 7136,
      "成员": 7137,
      "的地": 7138,
      "这里": 7139,
      "避免": 7140,
      "，让": 7141,
      "sequ": 7142,
      "kept": 7143,
      "board": 7144,
      "similar": 7145,
      "current": 7146,
      "1,": 7147,
      "Man": 7148,
      "cou": 7149,
      "年前": 7150,
      "ency": 7151,
      "dream": 7152,
      "ded": 7153,
      "done": 7154,
      "lack": 7155,
      "不再": 7156,
      "保护": 7157,
      "大部分": 7158,
      "en.": 7159,
      "leav": 7160,
      "quite": 7161,
      "however,": 7162,
      "tradition": 7163,
      "mot": 7164,
      "即使": 7165,
      "女儿": 7166,
      "愿意": 7167,
      "电子": 7168,
      "的生活": 7169,
      "ination": 7170,
      "al,": 7171,
      "neigh": 7172,
      "self-": 7173,
      "IT": 7174,
      "使得": 7175,
      "减少": 7176,
      "出生": 7177,
      "带来": 7178,
      "有时": 7179,
      "爸爸": 7180,
      "现代": 7181,
      "记录": 7182,
      "deep": 7183,
      "outside": 7184,
      "2012": 7185,
      "---": 7186,
      "brother": 7187,
      "growth": 7188,
      "mission": 7189,
      "CO": 7190,
      "参与": 7191,
      "子里": 7192,
      "对我": 7193,
      "带着": 7194,
      "说明": 7195,
      "那里": 7196,
      "，用": 7197,
      "al.": 7198,
      "entire": 7199,
      "idence": 7200,
      "grad": 7201,
      "While": 7202,
      "longer": 7203,
      "wife": 7204,
      "specific": 7205,
      "AT": 7206,
      "foc": 7207,
      "i,": 7208,
      "spr": 7209,
      "我在": 7210,
      "文件": 7211,
      "的研究": 7212,
      "肯定": 7213,
      "enter": 7214,
      "et,": 7215,
      "local": 7216,
      "duct": 7217,
      "philoso": 7218,
      "Par": 7219,
      "mit": 7220,
      "pan": 7221,
      "warm": 7222,
      "加入": 7223,
      "尝试": 7224,
      "工程": 7225,
      "recogn": 7226,
      "comfort": 7227,
      "e,\"": 7228,
      "phys": 7229,
      "attempt": 7230,
      "foreign": 7231,
      "Stat": 7232,
      "However,": 7233,
      "晚上": 7234,
      "最近": 7235,
      "说话": 7236,
      "store": 7237,
      "ention": 7238,
      "2010": 7239,
      "friends": 7240,
      "single": 7241,
      "drop": 7242,
      "origin": 7243,
      "cise": 7244,
      "ler": 7245,
      "任务": 7246,
      "公共": 7247,
      "，要": 7248,
      "force": 7249,
      "def": 7250,
      "yourself": 7251,
      "famil": 7252,
      "modern": 7253,
      "dict": 7254,
      "link": 7255,
      "psy": 7256,
      "二十": 7257,
      "作者": 7258,
      "植物": 7259,
      "达到": 7260,
      "道，": 7261,
      "arri": 7262,
      "ley": 7263,
      "acy": 7264,
      "that's": 7265,
      "prim": 7266,
      "knowled": 7267,
      "months": 7268,
      "global": 7269,
      "Fran": 7270,
      "sour": 7271,
      "力量": 7272,
      "称为": 7273,
      "记得": 7274,
      "roll": 7275,
      "apart": 7276,
      "space": 7277,
      "them,": 7278,
      "day.": 7279,
      "situ": 7280,
      "undred": 7281,
      "viron": 7282,
      "difficult": 7283,
      "Ber": 7284,
      "Don": 7285,
      "Mark": 7286,
      "i-": 7287,
      "的方式": 7288,
      "航空": 7289,
      "ice.": 7290,
      "secur": 7291,
      "true": 7292,
      "ure,": 7293,
      "network": 7294,
      "wrote": 7295,
      "Lon": 7296,
      "ru": 7297,
      "”（": 7298,
      "ange": 7299,
      "oud": 7300,
      "secret": 7301,
      "abor": 7302,
      "plant": 7303,
      "president": 7304,
      "fair": 7305,
      "ological": 7306,
      "Japan": 7307,
      "Every": 7308,
      "专家": 7309,
      "从来": 7310,
      "伦敦": 7311,
      "类似": 7312,
      "，尽管": 7313,
      "，包括": 7314,
      "energ": 7315,
      "stories": 7316,
      "iful": 7317,
      "establ": 7318,
      "inste": 7319,
      "意识到": 7320,
      "bon": 7321,
      "ball": 7322,
      "kitch": 7323,
      "pet": 7324,
      "因素": 7325,
      "期间": 7326,
      "都在": 7327,
      "sex": 7328,
      "perhaps": 7329,
      "ment,": 7330,
      "North": 7331,
      "委员会": 7332,
      "%。": 7333,
      "24": 7334,
      "Ear": 7335,
      "Te": 7336,
      "bri": 7337,
      "hundred": 7338,
      "mir": 7339,
      "smo": 7340,
      "scre": 7341,
      "事。": 7342,
      "体系": 7343,
      "治疗": 7344,
      "状态": 7345,
      "看看": 7346,
      "havi": 7347,
      "tele": 7348,
      "way.": 7349,
      "cannot": 7350,
      "counter": 7351,
      "reading": 7352,
      "belief": 7353,
      "treat": 7354,
      "priv": 7355,
      "更多的": 7356,
      "!\"": 7357,
      "Ju": 7358,
      "din": 7359,
      "div": 7360,
      "ze": 7361,
      "在一个": 7362,
      "有的": 7363,
      "确实": 7364,
      "，甚至": 7365,
      "atory": 7366,
      "sto": 7367,
      "ations.": 7368,
      "s,\"": 7369,
      "box": 7370,
      "spent": 7371,
      "University": 7372,
      "wo": 7373,
      "于是": 7374,
      "十分": 7375,
      "坚持": 7376,
      "记忆": 7377,
      "，将": 7378,
      "enjo": 7379,
      "ali": 7380,
      "ased": 7381,
      "military": 7382,
      "\"We": 7383,
      "5年": 7384,
      "aver": 7385,
      "dol": 7386,
      "nature": 7387,
      "sort": 7388,
      "takes": 7389,
      "听到": 7390,
      "多少": 7391,
      "时的": 7392,
      "模式": 7393,
      "点。": 7394,
      "生产": 7395,
      "苹果": 7396,
      "held": 7397,
      "le.": 7398,
      "share": 7399,
      "redu": 7400,
      "hands": 7401,
      "easy": 7402,
      "window": 7403,
      "cra": 7404,
      "touch": 7405,
      "婚姻": 7406,
      "引起": 7407,
      "或是": 7408,
      "比亚": 7409,
      "经过": 7410,
      "hear": 7411,
      "way,": 7412,
      "Why": 7413,
      "起来。": 7414,
      "，不过": 7415,
      "vision": 7416,
      "Ab": 7417,
      "Cl": 7418,
      "Face": 7419,
      "bab": 7420,
      "tend": 7421,
      "wed": 7422,
      "只能": 7423,
      "相当": 7424,
      "穿着": 7425,
      "ret": 7426,
      "ate.": 7427,
      "environ": 7428,
      "bel": 7429,
      "iment": 7430,
      "perfect": 7431,
      "avail": 7432,
      "European": 7433,
      "hours": 7434,
      "Pol": 7435,
      "Tra": 7436,
      "bow": 7437,
      "fing": 7438,
      "ix": 7439,
      "ror": 7440,
      "一步": 7441,
      "上面": 7442,
      "人物": 7443,
      "建议": 7444,
      "心理": 7445,
      "攻击": 7446,
      "机器": 7447,
      "网站": 7448,
      "enth": 7449,
      "brain": 7450,
      "getting": 7451,
      "，就像": 7452,
      "function": 7453,
      "vari": 7454,
      "London": 7455,
      "instead": 7456,
      "daughter": 7457,
      "laugh": 7458,
      "――": 7459,
      "太阳": 7460,
      "快乐": 7461,
      "明显": 7462,
      "领导": 7463,
      "dev": 7464,
      "twent": 7465,
      "drink": 7466,
      "learn": 7467,
      "analys": 7468,
      "Me": 7469,
      "hab": 7470,
      "下降": 7471,
      "从未": 7472,
      "和其他": 7473,
      "显示": 7474,
      "有着": 7475,
      "结婚": 7476,
      "者。": 7477,
      "范围": 7478,
      "难以": 7479,
      "面对": 7480,
      "dead": 7481,
      "century": 7482,
      "following": 7483,
      "p.": 7484,
      "uri": 7485,
      "一天": 7486,
      "别人": 7487,
      "打开": 7488,
      "游戏": 7489,
      "目前": 7490,
      "着，": 7491,
      "细胞": 7492,
      "阅读": 7493,
      "ense": 7494,
      "associ": 7495,
      "illi": 7496,
      "former": 7497,
      "Christian": 7498,
      "foot": 7499,
      "bank": 7500,
      "fish": 7501,
      "path": 7502,
      "有效": 7503,
      "西方": 7504,
      "ats": 7505,
      "separ": 7506,
      "above": 7507,
      "deli": 7508,
      "died": 7509,
      "0.": 7510,
      "Ne": 7511,
      "亿美元": 7512,
      "学院": 7513,
      "着。": 7514,
      "ances": 7515,
      "ened": 7516,
      "chi": 7517,
      "except": 7518,
      "ified": 7519,
      "evol": 7520,
      "ashing": 7521,
      "believ": 7522,
      "paper": 7523,
      "Facebook": 7524,
      "2,": 7525,
      "cot": 7526,
      "narr": 7527,
      "ration": 7528,
      "克里": 7529,
      "多的": 7530,
      "希腊": 7531,
      "特殊": 7532,
      "独立": 7533,
      "stri": 7534,
      "books": 7535,
      "world.": 7536,
      "themselves": 7537,
      "-year": 7538,
      "100": 7539,
      "6年": 7540,
      "bes": 7541,
      "cul": 7542,
      "city": 7543,
      "da": 7544,
      "其实": 7545,
      "复杂": 7546,
      "投资": 7547,
      "系列": 7548,
      "观察": 7549,
      "chair": 7550,
      "lived": 7551,
      "shop": 7552,
      "exer": 7553,
      "firm": 7554,
      "tried": 7555,
      "decided": 7556,
      "Russi": 7557,
      "rup": 7558,
      "发表": 7559,
      "根本": 7560,
      "道：“": 7561,
      "behavi": 7562,
      "agre": 7563,
      "odd": 7564,
      "ure.": 7565,
      "intro": 7566,
      "inside": 7567,
      "provide": 7568,
      "blood": 7569,
      "ordin": 7570,
      "official": 7571,
      "mas": 7572,
      "医生": 7573,
      "当我": 7574,
      "担心": 7575,
      "疾病": 7576,
      "的手": 7577,
      "的影响": 7578,
      "stor": 7579,
      "一个人": 7580,
      "itted": 7581,
      "written": 7582,
      "Dav": 7583,
      "mult": 7584,
      "家的": 7585,
      "杂志": 7586,
      "那种": 7587,
      "革命": 7588,
      "，和": 7589,
      "，它们": 7590,
      "stant": 7591,
      "is.": 7592,
      "lying": 7593,
      "novel": 7594,
      "surpris": 7595,
      "music": 7596,
      "mb": 7597,
      "一条": 7598,
      "体的": 7599,
      "儿子": 7600,
      "思考": 7601,
      "罗马": 7602,
      "行的": 7603,
      "里面": 7604,
      "长的": 7605,
      "comb": 7606,
      "explain": 7607,
      "brought": 7608,
      "looks": 7609,
      "regard": 7610,
      "developed": 7611,
      "increase": 7612,
      "signific": 7613,
      "communic": 7614,
      "\".": 7615,
      "70": 7616,
      "Go": 7617,
      "Mus": 7618,
      "Sy": 7619,
      "gas": 7620,
      "ps": 7621,
      "ring": 7622,
      "咖啡": 7623,
      "基因": 7624,
      "她在": 7625,
      "好。": 7626,
      "当地": 7627,
      "拉克": 7628,
      "有点": 7629,
      "第三": 7630,
      "造成": 7631,
      "都不": 7632,
      "限制": 7633,
      "）和": 7634,
      "ising": 7635,
      "uses": 7636,
      "的人。": 7637,
      "writing": 7638,
      "addition": 7639,
      "continued": 7640,
      "available": 7641,
      "Jon": 7642,
      "他是": 7643,
      "挑战": 7644,
      "毫无": 7645,
      "用的": 7646,
      "相互": 7647,
      "约翰": 7648,
      "距离": 7649,
      "，因此": 7650,
      "according": 7651,
      "chall": 7652,
      "up.": 7653,
      "now,": 7654,
      "ensive": 7655,
      "一样。": 7656,
      "seems": 7657,
      "7年": 7658,
      "rul": 7659,
      "text": 7660,
      "共同": 7661,
      "提出": 7662,
      "数字": 7663,
      "斯·": 7664,
      "的工作": 7665,
      "，其中": 7666,
      "lies": 7667,
      "exact": 7668,
      "dog": 7669,
      "teen": 7670,
      "stead": 7671,
      "expected": 7672,
      "middle": 7673,
      "90": 7674,
      "eth": 7675,
      "ior": 7676,
      "主题": 7677,
      "华盛": 7678,
      "去了": 7679,
      "，可以": 7680,
      "els": 7681,
      "ull": 7682,
      "，这是": 7683,
      "ideas": 7684,
      "sport": 7685,
      "izing": 7686,
      "create": 7687,
      "contain": 7688,
      "That's": 7689,
      "Geor": 7690,
      "sion": 7691,
      "tic": 7692,
      "方向": 7693,
      "满足": 7694,
      "阶级": 7695,
      "chapter": 7696,
      "team": 7697,
      "avoid": 7698,
      "孩子们": 7699,
      "needs": 7700,
      "Isra": 7701,
      "华盛顿": 7702,
      "80": 7703,
      "cust": 7704,
      "mic": 7705,
      "nu": 7706,
      "tle": 7707,
      "压力": 7708,
      "学的": 7709,
      "彼得": 7710,
      "痛苦": 7711,
      "色列": 7712,
      "过的": 7713,
      "，大": 7714,
      "，比如": 7715,
      "ery": 7716,
      "impro": 7717,
      "super": 7718,
      "trade": 7719,
      "e.\"": 7720,
      "\"What": 7721,
      "Hu": 7722,
      "cold": 7723,
      "squ": 7724,
      "tar": 7725,
      "到的": 7726,
      "原则": 7727,
      "合作": 7728,
      "必要": 7729,
      "承认": 7730,
      "理由": 7731,
      "风格": 7732,
      "stra": 7733,
      "fear": 7734,
      "due": 7735,
      "feeling": 7736,
      "life,": 7737,
      "appeared": 7738,
      "bag": 7739,
      "ox": 7740,
      "件事": 7741,
      "早期": 7742,
      "来到": 7743,
      "目的": 7744,
      "自我": 7745,
      "让他": 7746,
      "，同时": 7747,
      "ilities": 7748,
      "risk": 7749,
      "beautiful": 7750,
      "further": 7751,
      "21": 7752,
      "Rep": 7753,
      "dden": 7754,
      "ially": 7755,
      "生物": 7756,
      "，没有": 7757,
      "ice,": 7758,
      "earli": 7759,
      "ously": 7760,
      "ance.": 7761,
      "range": 7762,
      "instit": 7763,
      "employ": 7764,
      "Po": 7765,
      "Your": 7766,
      "cam": 7767,
      "dress": 7768,
      "oil": 7769,
      "人都": 7770,
      "你们": 7771,
      "办公": 7772,
      "接着": 7773,
      "正是": 7774,
      "star": 7775,
      "et.": 7776,
      "sudden": 7777,
      "manag": 7778,
      "rench": 7779,
      "finan": 7780,
      "visit": 7781,
      "wrong": 7782,
      "\"A": 7783,
      "House": 7784,
      "tin": 7785,
      "价格": 7786,
      "克斯": 7787,
      "尔·": 7788,
      "拒绝": 7789,
      "斯林": 7790,
      "电脑": 7791,
      "足够": 7792,
      "身上": 7793,
      "init": 7794,
      "eral": 7795,
      "reven": 7796,
      "although": 7797,
      "bey": 7798,
      "worked": 7799,
      "detail": 7800,
      "9年": 7801,
      "Fig": 7802,
      "Sm": 7803,
      "信仰": 7804,
      "写作": 7805,
      "反对": 7806,
      "常常": 7807,
      "英语": 7808,
      "错误": 7809,
      "thes": 7810,
      "onto": 7811,
      "arily": 7812,
      "convers": 7813,
      "ify": 7814,
      "say,": 7815,
      "，”她": 7816,
      "again.": 7817,
      "skin": 7818,
      "schol": 7819,
      "mach": 7820,
      "s:": 7821,
      "之外": 7822,
      "实现": 7823,
      "属于": 7824,
      "手机": 7825,
      "时，我": 7826,
      "水平": 7827,
      "，却": 7828,
      "immedi": 7829,
      "ively": 7830,
      "phone": 7831,
      "buy": 7832,
      "struction": 7833,
      "published": 7834,
      "letter": 7835,
      "6.": 7836,
      "Kore": 7837,
      "ding": 7838,
      "fat": 7839,
      "gun": 7840,
      "lad": 7841,
      "以色列": 7842,
      "住在": 7843,
      "寻找": 7844,
      "标准": 7845,
      "现实": 7846,
      "给了": 7847,
      "速度": 7848,
      "非洲": 7849,
      "，与": 7850,
      "ine.": 7851,
      "ountain": 7852,
      "serious": 7853,
      "国家的": 7854,
      "occur": 7855,
      "married": 7856,
      "benef": 7857,
      "Rom": 7858,
      "gold": 7859,
      "pite": 7860,
      "rain": 7861,
      "scr": 7862,
      "亚洲": 7863,
      "以为": 7864,
      "就可以": 7865,
      "式的": 7866,
      "很少": 7867,
      "很难": 7868,
      "文明": 7869,
      "材料": 7870,
      "ony": 7871,
      "alter": 7872,
      "ations,": 7873,
      "conduct": 7874,
      "up,": 7875,
      "teach": 7876,
      "美国的": 7877,
      "，她的": 7878,
      "glass": 7879,
      "thinking": 7880,
      "connect": 7881,
      "Travel": 7882,
      "Budd": 7883,
      "IN": 7884,
      "card": 7885,
      "gone": 7886,
      "har": 7887,
      "us.": 7888,
      "zz": 7889,
      "个月": 7890,
      "依然": 7891,
      "做出": 7892,
      "岁的": 7893,
      "时，他": 7894,
      "银行": 7895,
      "access": 7896,
      "forward": 7897,
      "pressure": 7898,
      "可能是": 7899,
      "America": 7900,
      "morning": 7901,
      "building": 7902,
      "language": 7903,
      "不得不": 7904,
      "couple": 7905,
      "23": 7906,
      "Here": 7907,
      "cross": 7908,
      "不仅": 7909,
      "位于": 7910,
      "同时，": 7911,
      "她。": 7912,
      "学者": 7913,
      "我不": 7914,
      "消失": 7915,
      "的《": 7916,
      "穆斯林": 7917,
      "记者": 7918,
      "部门": 7919,
      "部队": 7920,
      "ine,": 7921,
      "ering": 7922,
      "moving": 7923,
      "loc": 7924,
      "media": 7925,
      "include": 7926,
      "voice": 7927,
      "domin": 7928,
      "energy": 7929,
      "SA": 7930,
      "hop": 7931,
      "pair": 7932,
      "sor": 7933,
      "去世": 7934,
      "实验": 7935,
      "就在": 7936,
      "指出": 7937,
      "，为": 7938,
      "role": 7939,
      "，我的": 7940,
      "years.": 7941,
      "push": 7942,
      "consci": 7943,
      "particularly": 7944,
      "Apple": 7945,
      "People": 7946,
      "Muslim": 7947,
      "custom": 7948,
      "Mon": 7949,
      "hum": 7950,
      "ik": 7951,
      "人口": 7952,
      "会有": 7953,
      "吧。": 7954,
      "奥运": 7955,
      "广告": 7956,
      "怀疑": 7957,
      "训练": 7958,
      "酒店": 7959,
      "附近": 7960,
      "风险": 7961,
      "，就是": 7962,
      "ening": 7963,
      "deb": 7964,
      "west": 7965,
      "frequ": 7966,
      "explo": 7967,
      "stream": 7968,
      "hydro": 7969,
      "\"S": 7970,
      "\"He": 7971,
      "%的": 7972,
      "7.": 7973,
      "Per": 7974,
      "Part": 7975,
      "bs": 7976,
      "做的": 7977,
      "危险": 7978,
      "开发": 7979,
      "我。": 7980,
      "的故事": 7981,
      "站在": 7982,
      "ert": 7983,
      "total": 7984,
      "out,": 7985,
      "opt": 7986,
      "ount": 7987,
      "ends": 7988,
      "indic": 7989,
      "ishing": 7990,
      "cked": 7991,
      "portun": 7992,
      "maybe": 7993,
      "introdu": 7994,
      "Can": 7995,
      "DA": 7996,
      "Lo": 7997,
      "dang": 7998,
      "gy": 7999,
      "ium": 8000,
      "mber": 8001,
      "rap": 8002,
      "uff": 8003,
      "一名": 8004,
      "头。": 8005,
      "家人": 8006,
      "最好": 8007,
      "的方法": 8008,
      "看见": 8009,
      "联合": 8010,
      "都有": 8011,
      "record": 8012,
      "edom": 8013,
      "orn": 8014,
      "ctor": 8015,
      "ift": 8016,
      "poet": 8017,
      "meant": 8018,
      "aff": 8019,
      "affect": 8020,
      "collect": 8021,
      "everyone": 8022,
      "normal": 8023,
      "experience": 8024,
      "真正的": 8025,
      "pretty": 8026,
      "2年": 8027,
      "8年": 8028,
      "Mic": 8029,
      "Washing": 8030,
      "gar": 8031,
      "ges": 8032,
      "r.": 8033,
      "“我们": 8034,
      "变成": 8035,
      "妇女": 8036,
      "蛋白": 8037,
      "评论": 8038,
      "阶段": 8039,
      "heat": 8040,
      "acher": 8041,
      "ent,": 8042,
      "ilt": 8043,
      "lied": 8044,
      "mental": 8045,
      "，而不是": 8046,
      "works": 8047,
      "viol": 8048,
      "Although": 8049,
      "Britain": 8050,
      "policy": 8051,
      "security": 8052,
      "Fin": 8053,
      "Gu": 8054,
      "Sun": 8055,
      "一只": 8056,
      "人民": 8057,
      "再次": 8058,
      "威胁": 8059,
      "文章": 8060,
      "组成": 8061,
      "起了": 8062,
      "）、": 8063,
      "，又": 8064,
      "andom": 8065,
      "he's": 8066,
      "extra": 8067,
      "man,": 8068,
      "ousand": 8069,
      "sell": 8070,
      "societ": 8071,
      "surv": 8072,
      "summer": 8073,
      "Carol": 8074,
      "doub": 8075,
      "straight": 8076,
      "Fe": 8077,
      "Gree": 8078,
      "失败": 8079,
      "普遍": 8080,
      "正确": 8081,
      "演讲": 8082,
      "物质": 8083,
      "相似": 8084,
      "色。": 8085,
      "负责": 8086,
      "，像": 8087,
      "cele": 8088,
      "opportun": 8089,
      "blue": 8090,
      "year,": 8091,
      "effort": 8092,
      "central": 8093,
      "broad": 8094,
      "growing": 8095,
      "members": 8096,
      "terms": 8097,
      "实际上": 8098,
      "piece": 8099,
      "Washington": 8100,
      "500": 8101,
      "Fir": 8102,
      "Ke": 8103,
      "ech": 8104,
      "jack": 8105,
      "rate": 8106,
      "专业": 8107,
      "伊朗": 8108,
      "制度": 8109,
      "在他的": 8110,
      "大约": 8111,
      "安娜": 8112,
      "定义": 8113,
      "布尔": 8114,
      "房子": 8115,
      "教授": 8116,
      "是“": 8117,
      "这次": 8118,
      "随机": 8119,
      "，每": 8120,
      "adem": 8121,
      "you'll": 8122,
      "out.": 8123,
      "gets": 8124,
      "technology": 8125,
      "Phil": 8126,
      "knowledge": 8127,
      "Tri": 8128,
      "athe": 8129,
      "mist": 8130,
      "mouth": 8131,
      "ux": 8132,
      "也没有": 8133,
      "发出": 8134,
      "名的": 8135,
      "季度": 8136,
      "家里": 8137,
      "工业": 8138,
      "未来": 8139,
      "本身": 8140,
      "机械": 8141,
      "权利": 8142,
      "的问题": 8143,
      "相比": 8144,
      "表面": 8145,
      "让你": 8146,
      "身份": 8147,
      "飞机": 8148,
      "imin": 8149,
      "all.": 8150,
      "shap": 8151,
      "goes": 8152,
      "various": 8153,
      "account": 8154,
      "private": 8155,
      "enjoy": 8156,
      "dollar": 8157,
      "Aust": 8158,
      "French": 8159,
      "Many": 8160,
      "Red": 8161,
      "cis": 8162,
      "ging": 8163,
      "rich": 8164,
      "为“": 8165,
      "制造": 8166,
      "奇怪": 8167,
      "年龄": 8168,
      "提高": 8169,
      "是一种": 8170,
      "现象": 8171,
      "空降": 8172,
      "这位": 8173,
      "attract": 8174,
      "aling": 8175,
      "arian": 8176,
      "ic,": 8177,
      "whom": 8178,
      "loved": 8179,
      "demand": 8180,
      "she'd": 8181,
      "anyone": 8182,
      "compet": 8183,
      "prefer": 8184,
      "apped": 8185,
      "green": 8186,
      "standing": 8187,
      "consist": 8188,
      "easily": 8189,
      "From": 8190,
      "birth": 8191,
      "philosoph": 8192,
      "\"W": 8193,
      "NA": 8194,
      "ban": 8195,
      "hur": 8196,
      "功能": 8197,
      "商业": 8198,
      "多。": 8199,
      "批评": 8200,
      "效果": 8201,
      "显然": 8202,
      "普通": 8203,
      "营养": 8204,
      "spot": 8205,
      "ption": 8206,
      "work.": 8207,
      "previous": 8208,
      "formed": 8209,
      "contribut": 8210,
      "needed": 8211,
      "course,": 8212,
      "responsi": 8213,
      "popular": 8214,
      "kids": 8215,
      "Ho": 8216,
      "Just": 8217,
      "gain": 8218,
      "ns": 8219,
      "random": 8220,
      "一年": 8221,
      "广泛": 8222,
      "prep": 8223,
      "higher": 8224,
      "running": 8225,
      "figure": 8226,
      "David": 8227,
      "First": 8228,
      "-in": 8229,
      "3年": 8230,
      "lines": 8231,
      "mass": 8232,
      "o,": 8233,
      "一段": 8234,
      "俄罗斯": 8235,
      "值得": 8236,
      "创作": 8237,
      "发布": 8238,
      "大家": 8239,
      "大量": 8240,
      "建筑": 8241,
      "很有": 8242,
      "最好的": 8243,
      "神经": 8244,
      "行。": 8245,
      "thousand": 8246,
      "inv": 8247,
      "refer": 8248,
      "stage": 8249,
      "that.": 8250,
      "atever": 8251,
      "I'll": 8252,
      "中国的": 8253,
      "value": 8254,
      "leading": 8255,
      "minutes": 8256,
      "financial": 8257,
      "4年": 8258,
      "Our": 8259,
      "cast": 8260,
      "不可能": 8261,
      "分子": 8262,
      "句话": 8263,
      "回家": 8264,
      "战略": 8265,
      "的原因": 8266,
      "社交": 8267,
      "资源": 8268,
      "逐渐": 8269,
      "，使": 8270,
      "er's": 8271,
      "ene": 8272,
      "worth": 8273,
      "print": 8274,
      "attention": 8275,
      "final": 8276,
      "factor": 8277,
      "decision": 8278,
      "beyond": 8279,
      "22": 8280,
      "5.": 8281,
      "ge,": 8282,
      "mine": 8283,
      "sens": 8284,
      "保证": 8285,
      "出来。": 8286,
      "呼吸": 8287,
      "地位": 8288,
      "态度": 8289,
      "有了": 8290,
      "调整": 8291,
      "边的": 8292,
      "ache": 8293,
      "administ": 8294,
      "suit": 8295,
      "poor": 8296,
      "pleas": 8297,
      "world,": 8298,
      "hosp": 8299,
      "later,": 8300,
      "5%": 8301,
      "Long": 8302,
      "Law": 8303,
      "cit": 8304,
      "del": 8305,
      "不在": 8306,
      "关键": 8307,
      "圣经": 8308,
      "生的": 8309,
      "相同": 8310,
      "稳定": 8311,
      "说的": 8312,
      "雷达": 8313,
      "antic": 8314,
      "audi": 8315,
      "saying": 8316,
      "fact,": 8317,
      "happy": 8318,
      "meaning": 8319,
      "results": 8320,
      "walked": 8321,
      "investig": 8322,
      "determin": 8323,
      "neighbor": 8324,
      ",”": 8325,
      "Other": 8326,
      "ken": 8327,
      "同意": 8328,
      "地。": 8329,
      "大脑": 8330,
      "官员": 8331,
      "就能": 8332,
      "影片": 8333,
      "漂亮": 8334,
      "玛丽": 8335,
      "经验": 8336,
      "verse": 8337,
      "univers": 8338,
      "you.": 8339,
      "international": 8340,
      "served": 8341,
      "write": 8342,
      "hotel": 8343,
      "A.": 8344,
      "nut": 8345,
      "pal": 8346,
      "ry,": 8347,
      "sou": 8348,
      "sess": 8349,
      "vill": 8350,
      "伊斯": 8351,
      "公众": 8352,
      "公寓": 8353,
      "公开": 8354,
      "冲突": 8355,
      "制定": 8356,
      "圣诞": 8357,
      "展示": 8358,
      "幸福": 8359,
      "是因为": 8360,
      "最大的": 8361,
      "的前": 8362,
      "的新": 8363,
      "的声音": 8364,
      "threat": 8365,
      "independ": 8366,
      "ana": 8367,
      "stren": 8368,
      "lives": 8369,
      "thern": 8370,
      "neg": 8371,
      "的一些": 8372,
      "trip": 8373,
      "的是，": 8374,
      "hope": 8375,
      "然而，": 8376,
      "opened": 8377,
      "empor": 8378,
      "increased": 8379,
      "happened": 8380,
      "Western": 8381,
      "favor": 8382,
      "temper": 8383,
      "significant": 8384,
      "办公室": 8385,
      "DI": 8386,
      "fif": 8387,
      "gress": 8388,
      "sitting": 8389,
      "xim": 8390,
      "企业": 8391,
      "和我": 8392,
      "心。": 8393,
      "死亡": 8394,
      "的特": 8395,
      "真实": 8396,
      "终于": 8397,
      "统治": 8398,
      "过。": 8399,
      "需求": 8400,
      "online": 8401,
      "offe": 8402,
      "area": 8403,
      "emerg": 8404,
      "docu": 8405,
      "coll": 8406,
      "世界上": 8407,
      "talking": 8408,
      "nearly": 8409,
      "journal": 8410,
      ".”": 8411,
      "Iran": 8412,
      "Sp": 8413,
      "ming": 8414,
      "ning,": 8415,
      "rare": 8416,
      "uit": 8417,
      "去，": 8418,
      "回忆": 8419,
      "物。": 8420,
      "特·": 8421,
      "采用": 8422,
      "，或": 8423,
      "inet": 8424,
      "theory": 8425,
      "alle": 8426,
      "ary,": 8427,
      "omen": 8428,
      "seven": 8429,
      "ops": 8430,
      "astic": 8431,
      "answer": 8432,
      "forms": 8433,
      "2014": 8434,
      "faith": 8435,
      "一样，": 8436,
      "played": 8437,
      "freedom": 8438,
      "powerful": 8439,
      "C.": 8440,
      "Hen": 8441,
      "aur": 8442,
      "bly": 8443,
      "gent": 8444,
      "ves.": 8445,
      "下了": 8446,
      "亨利": 8447,
      "人和": 8448,
      "取得": 8449,
      "完美": 8450,
      "对象": 8451,
      "慢慢": 8452,
      "报纸": 8453,
      "某个": 8454,
      "正常": 8455,
      "相反": 8456,
      "秘密": 8457,
      "还在": 8458,
      "therefore": 8459,
      "contr": 8460,
      "die": 8461,
      "created": 8462,
      "cook": 8463,
      "content": 8464,
      "，”我": 8465,
      "finally": 8466,
      "主义的": 8467,
      "host": 8468,
      "changes": 8469,
      "Gen": 8470,
      "More": 8471,
      "bing": 8472,
      "mast": 8473,
      "ny": 8474,
      "uel": 8475,
      "下。": 8476,
      "也有": 8477,
      "仿佛": 8478,
      "兄弟": 8479,
      "周围": 8480,
      "哈里": 8481,
      "国的": 8482,
      "恐惧": 8483,
      "把它": 8484,
      "拍摄": 8485,
      "样的": 8486,
      "电池": 8487,
      "看上去": 8488,
      "程序": 8489,
      "规模": 8490,
      "设备": 8491,
      "资料": 8492,
      "，现在": 8493,
      "stick": 8494,
      "image": 8495,
      "there,": 8496,
      "wear": 8497,
      "wouldn't": 8498,
      "then,": 8499,
      "ia.": 8500,
      "decad": 8501,
      "learned": 8502,
      "之一。": 8503,
      "patient": 8504,
      "require": 8505,
      "literary": 8506,
      "soft": 8507,
      "physical": 8508,
      "psych": 8509,
      "celebr": 8510,
      "streng": 8511,
      "1年": 8512,
      "Res": 8513,
      "bright": 8514,
      "mad": 8515,
      "uary": 8516,
      "不管": 8517,
      "中间": 8518,
      "享受": 8519,
      "免疫": 8520,
      "军事": 8521,
      "军队": 8522,
      "包含": 8523,
      "哲学": 8524,
      "型的": 8525,
      "微笑": 8526,
      "爱的": 8527,
      "用户": 8528,
      "第一个": 8529,
      "认知": 8530,
      "迅速": 8531,
      "这就是": 8532,
      "那时": 8533,
      "食品": 8534,
      "高的": 8535,
      "atures": 8536,
      "below": 8537,
      "chain": 8538,
      "ump": 8539,
      "ell,": 8540,
      "there's": 8541,
      "grew": 8542,
      "type": 8543,
      "carry": 8544,
      "students": 8545,
      "away.": 8546,
      "painting": 8547,
      "pati": 8548,
      "26": 8549,
      "Let": 8550,
      "bul": 8551,
      "iqu": 8552,
      "他对": 8553,
      "会的": 8554,
      "克林": 8555,
      "化的": 8556,
      "多么": 8557,
      "想到": 8558,
      "方案": 8559,
      "用来": 8560,
      "竞争": 8561,
      "脂肪": 8562,
      "问。": 8563,
      "面前": 8564,
      "roy": 8565,
      "ay,": 8566,
      "mocr": 8567,
      "emot": 8568,
      "command": 8569,
      "公司的": 8570,
      "address": 8571,
      "basic": 8572,
      "complex": 8573,
      "culture": 8574,
      "picture": 8575,
      "quickly": 8576,
      "Don't": 8577,
      "rupt": 8578,
      "28": 8579,
      "3-": 8580,
      "Eli": 8581,
      "dy": 8582,
      "i.": 8583,
      "van": 8584,
      "办法": 8585,
      "十年": 8586,
      "变量": 8587,
      "同比": 8588,
      "机场": 8589,
      "权力": 8590,
      "老师": 8591,
      "适合": 8592,
      "采取": 8593,
      "面。": 8594,
      "，尤其": 8595,
      "itude": 8596,
      "utter": 8597,
      "ceed": 8598,
      "cies": 8599,
      "relative": 8600,
      "fresh": 8601,
      "Because": 8602,
      "considered": 8603,
      "基督教": 8604,
      "kitchen": 8605,
      "burn": 8606,
      "batter": 8607,
      "coffe": 8608,
      "fit": 8609,
      "一家": 8610,
      "困难": 8611,
      "工具": 8612,
      "强调": 8613,
      "心的": 8614,
      "快速": 8615,
      "气候": 8616,
      "社区": 8617,
      "至于": 8618,
      "，再": 8619,
      "，更": 8620,
      "，直到": 8621,
      "thro": 8622,
      "ous,": 8623,
      "asc": 8624,
      "unk": 8625,
      "他们在": 8626,
      "parts": 8627,
      "生活的": 8628,
      "standard": 8629,
      "helped": 8630,
      "check": 8631,
      "giving": 8632,
      "iety": 8633,
      "announ": 8634,
      "evolution": 8635,
      "Ed": 8636,
      "bath": 8637,
      "rough": 8638,
      "以来": 8639,
      "地球": 8640,
      "奥斯": 8641,
      "尔兰": 8642,
      "患者": 8643,
      "我知道": 8644,
      "月份": 8645,
      "正如": 8646,
      "民主": 8647,
      "都没有": 8648,
      "was,": 8649,
      "areas": 8650,
      "constit": 8651,
      "compared": 8652,
      "20世纪": 8653,
      "interview": 8654,
      "crow": 8655,
      "flict": 8656,
      "capital": 8657,
      "passed": 8658,
      "方面的": 8659,
      "direction": 8660,
      "science": 8661,
      "marriage": 8662,
      "style": 8663,
      "Jesus": 8664,
      "\",": 8665,
      "AN": 8666,
      "AR": 8667,
      "ER": 8668,
      "n’t": 8669,
      "size": 8670,
      "下来。": 8671,
      "不久": 8672,
      "介绍": 8673,
      "到底": 8674,
      "危机": 8675,
      "头，": 8676,
      "报道": 8677,
      "拉斯": 8678,
      "显得": 8679,
      "爱尔兰": 8680,
      "皮肤": 8681,
      "积极": 8682,
      "证据": 8683,
      "说道。": 8684,
      "进了": 8685,
      "进一步": 8686,
      "那天": 8687,
      "，人们": 8688,
      "reli": 8689,
      "at.": 8690,
      "stain": 8691,
      "exe": 8692,
      "they're": 8693,
      "ated.": 8694,
      "countr": 8695,
      "society": 8696,
      "ieve": 8697,
      "eye": 8698,
      "distin": 8699,
      "service": 8700,
      "street": 8701,
      "changed": 8702,
      "prison": 8703,
      "literature": 8704,
      "education": 8705,
      "photograph": 8706,
      "necessary": 8707,
      "Des": 8708,
      "Most": 8709,
      "nation": 8710,
      "rac": 8711,
      "一边": 8712,
      "以后": 8713,
      "会儿": 8714,
      "允许": 8715,
      "全部": 8716,
      "区域": 8717,
      "和他": 8718,
      "在她": 8719,
      "并非": 8720,
      "打算": 8721,
      "措施": 8722,
      "普罗": 8723,
      "波兰": 8724,
      "的角": 8725,
      "警察": 8726,
      "isn't": 8727,
      "iced": 8728,
      "iled": 8729,
      "older": 8730,
      "irt": 8731,
      "rial": 8732,
      "evidence": 8733,
      "able.": 8734,
      "2011": 8735,
      "positive": 8736,
      "says,": 8737,
      "well-": 8738,
      "告诉我": 8739,
      "ficient": 8740,
      "truth": 8741,
      "-and": 8742,
      "9.": 8743,
      "Cam": 8744,
      "rum": 8745,
      "交流": 8746,
      "分别": 8747,
      "博士": 8748,
      "图片": 8749,
      "大利": 8750,
      "消费": 8751,
      "连接": 8752,
      "ators": 8753,
      "alone": 8754,
      "liked": 8755,
      "une": 8756,
      "shot": 8757,
      "year.": 8758,
      "美国人": 8759,
      "questions": 8760,
      "beginning": 8761,
      "suffer": 8762,
      "brief": 8763,
      "5,": 8764,
      "During": 8765,
      "Willi": 8766,
      "game": 8767,
      "member": 8768,
      "》的": 8769,
      "万美元": 8770,
      "所谓": 8771,
      "操作": 8772,
      "早上": 8773,
      "的天": 8774,
      "给他": 8775,
      "anced": 8776,
      "reve": 8777,
      "at,": 8778,
      "aled": 8779,
      "forced": 8780,
      "ables": 8781,
      "loss": 8782,
      "iff": 8783,
      "hadn't": 8784,
      "cient": 8785,
      "actions": 8786,
      "spap": 8787,
      "achieve": 8788,
      "newspap": 8789,
      "的一切": 8790,
      "desire": 8791,
      "again,": 8792,
      "successful": 8793,
      "non-": 8794,
      "计算机": 8795,
      "billion": 8796,
      "analysis": 8797,
      "chief": 8798,
      "-old": 8799,
      "dig": 8800,
      "iar": 8801,
      "tax": 8802,
      "一张": 8803,
      "下面": 8804,
      "刚刚": 8805,
      "尔的": 8806,
      "强烈": 8807,
      "职业": 8808,
      "长期": 8809,
      "stair": 8810,
      "sec": 8811,
      "conv": 8812,
      "spread": 8813,
      "block": 8814,
      "impact": 8815,
      "nuclear": 8816,
      "rapid": 8817,
      "William": 8818,
      "1)": 8819,
      "Ben": 8820,
      "EP": 8821,
      "Lin": 8822,
      "National": 8823,
      "ires": 8824,
      "scar": 8825,
      "会在": 8826,
      "你可以": 8827,
      "可是": 8828,
      "处于": 8829,
      "对方": 8830,
      "巨大的": 8831,
      "此外": 8832,
      "测试": 8833,
      "消息": 8834,
      "确保": 8835,
      "种族": 8836,
      "随后": 8837,
      "颜色": 8838,
      "，该": 8839,
      "revol": 8840,
      "ics,": 8841,
      "acc": 8842,
      "oles": 8843,
      "ays": 8844,
      "appoint": 8845,
      "artic": 8846,
      "speech": 8847,
      "ism,": 8848,
      "student": 8849,
      "added": 8850,
      "room.": 8851,
      "Robert": 8852,
      "structure": 8853,
      "issue": 8854,
      "average": 8855,
      "exactly": 8856,
      "Med": 8857,
      "Sha": 8858,
      "fash": 8859,
      "hous": 8860,
      "kes": 8861,
      "match": 8862,
      "patter": 8863,
      "rise": 8864,
      "slight": 8865,
      "国内": 8866,
      "在于": 8867,
      "意大利": 8868,
      "有什么": 8869,
      "的情": 8870,
      "的。”": 8871,
      "的社会": 8872,
      "的感觉": 8873,
      "的情况": 8874,
      "科学家": 8875,
      "空气": 8876,
      "飞行": 8877,
      "ros": 8878,
      "rot": 8879,
      "usion": 8880,
      "auto": 8881,
      "spac": 8882,
      "answ": 8883,
      "color": 8884,
      "occas": 8885,
      "arent": 8886,
      "Christmas": 8887,
      "won't": 8888,
      "，从而": 8889,
      "protect": 8890,
      "computer": 8891,
      "influence": 8892,
      "intellig": 8893,
      "challeng": 8894,
      "\"It": 8895,
      "Em": 8896,
      "Oh": 8897,
      "Ser": 8898,
      "aign": 8899,
      "fle": 8900,
      "rational": 8901,
      "snow": 8902,
      "。他": 8903,
      "不安": 8904,
      "他说": 8905,
      "儿童": 8906,
      "其他的": 8907,
      "利益": 8908,
      "协议": 8909,
      "布斯": 8910,
      "意。": 8911,
      "检查": 8912,
      "穿过": 8913,
      "edge": 8914,
      "stuff": 8915,
      "ental": 8916,
      "demon": 8917,
      "我们在": 8918,
      "ival": 8919,
      "brid": 8920,
      "showed": 8921,
      "understanding": 8922,
      "satis": 8923,
      "described": 8924,
      "experiment": 8925,
      "completely": 8926,
      "deliver": 8927,
      "Israel": 8928,
      "Mc": 8929,
      "wish": 8930,
      "za": 8931,
      "不想": 8932,
      "做什么": 8933,
      "医院": 8934,
      "回来": 8935,
      "害怕": 8936,
      "对此": 8937,
      "应用": 8938,
      "日，": 8939,
      "格兰": 8940,
      "清洁": 8941,
      "议员": 8942,
      "路上": 8943,
      "compl": 8944,
      "so,": 8945,
      "feet": 8946,
      "ender": 8947,
      "umb": 8948,
      "spend": 8949,
      "able,": 8950,
      "symb": 8951,
      "points": 8952,
      "valu": 8953,
      "solution": 8954,
      "engine": 8955,
      "International": 8956,
      "George": 8957,
      "Mid": 8958,
      "Sch": 8959,
      "TV": 8960,
      "Two": 8961,
      "cop": 8962,
      "god": 8963,
      "s;": 8964,
      "也可以": 8965,
      "了他": 8966,
      "动。": 8967,
      "去年": 8968,
      "在《": 8969,
      "处。": 8970,
      "当你": 8971,
      "很大": 8972,
      "很容易": 8973,
      "接触": 8974,
      "每个人": 8975,
      "等等": 8976,
      "肥胖": 8977,
      "节目": 8978,
      "软件": 8979,
      "过来": 8980,
      "高兴": 8981,
      "immun": 8982,
      "wash": 8983,
      "shown": 8984,
      "resist": 8985,
      "mechan": 8986,
      "phen": 8987,
      "lower": 8988,
      "的一种": 8989,
      "book,": 8990,
      "related": 8991,
      "主义者": 8992,
      "distribut": 8993,
      "treme": 8994,
      "slam": 8995,
      "miles": 8996,
      "waiting": 8997,
      "ago,": 8998,
      "reflect": 8999,
      "allowed": 9000,
      "towards": 9001,
      "mix": 9002,
      "migr": 9003,
      "magaz": 9004,
      "Like": 9005,
      "CO2": 9006,
      "symbol": 9007,
      ".,": 9008,
      "3,": 9009,
      "Act": 9010,
      "CS": 9011,
      "Lu": 9012,
      "fight": 9013,
      "iel": 9014,
      "pin": 9015,
      "rout": 9016,
      "两种": 9017,
      "信念": 9018,
      "做了": 9019,
      "放弃": 9020,
      "涅克": 9021,
      "渴望": 9022,
      "相对": 9023,
      "看来": 9024,
      "观念": 9025,
      "责任": 9026,
      "赢得": 9027,
      "oted": 9028,
      "you,": 9029,
      "construction": 9030,
      "quiet": 9031,
      "Another": 9032,
      "cool": 9033,
      "obvious": 9034,
      "people,": 9035,
      "caught": 9036,
      "生活。": 9037,
      "remark": 9038,
      "built": 9039,
      "huge": 9040,
      "analy": 9041,
      "critic": 9042,
      "conscious": 9043,
      "普罗涅克": 9044,
      "%，": 9045,
      "27": 9046,
      "mat": 9047,
      "sam": 9048,
      "tt": 9049,
      "人在": 9050,
      "以下": 9051,
      "传播": 9052,
      "同性": 9053,
      "在地": 9054,
      "基于": 9055,
      "平均": 9056,
      "恐怖": 9057,
      "恢复": 9058,
      "缺乏": 9059,
      "还没有": 9060,
      "针对": 9061,
      "ining": 9062,
      "inde": 9063,
      "ous.": 9064,
      "lymp": 9065,
      "ill,": 9066,
      "active": 9067,
      "Who": 9068,
      "cris": 9069,
      "起来，": 9070,
      "limited": 9071,
      "home.": 9072,
      "Lou": 9073,
      "Olymp": 9074,
      "Yet": 9075,
      "bound": 9076,
      "ners": 9077,
      "业务": 9078,
      "啤酒": 9079,
      "因子": 9080,
      "头痛": 9081,
      "彼此": 9082,
      "很好": 9083,
      "是最": 9084,
      "涉及": 9085,
      "特的": 9086,
      "的主要": 9087,
      "购买": 9088,
      "集中": 9089,
      "rect": 9090,
      "enem": 9091,
      "itor": 9092,
      "wher": 9093,
      "utions": 9094,
      "lie": 9095,
      "mob": 9096,
      "Char": 9097,
      "rail": 9098,
      "ated,": 9099,
      "strateg": 9100,
      "office": 9101,
      "工作。": 9102,
      "throughout": 9103,
      "shows": 9104,
      "Once": 9105,
      "reported": 9106,
      "floor": 9107,
      "habit": 9108,
      "Cent": 9109,
      "Jan": 9110,
      "King": 9111,
      "gard": 9112,
      "ky": 9113,
      "到达": 9114,
      "失去": 9115,
      "如今": 9116,
      "安排": 9117,
      "往往": 9118,
      "是由": 9119,
      "理想": 9120,
      "的信息": 9121,
      "答案": 9122,
      "视为": 9123,
      "锻炼": 9124,
      "enn": 9125,
      "ingu": 9126,
      "lean": 9127,
      "frame": 9128,
      "extreme": 9129,
      "tran": 9130,
      "predict": 9131,
      "了一些": 9132,
      "greater": 9133,
      "1980": 9134,
      "services": 9135,
      "weeks": 9136,
      "launch": 9137,
      "过程中": 9138,
      "Exped": 9139,
      "required": 9140,
      "Cor": 9141,
      "Gover": 9142,
      "HE": 9143,
      "fold": 9144,
      "luck": 9145,
      "paid": 9146,
      "tast": 9147,
      "上升": 9148,
      "乔布斯": 9149,
      "今年": 9150,
      "外交": 9151,
      "执行": 9152,
      "有趣": 9153,
      "结合": 9154,
      "结论": 9155,
      "见过": 9156,
      "，都": 9157,
      "，虽然": 9158,
      "returned": 9159,
      "church": 9160,
      "forman": 9161,
      "1950": 9162,
      "pray": 9163,
      "iving": 9164,
      "ored": 9165,
      "State": 9166,
      "smile": 9167,
      "surround": 9168,
      "room,": 9169,
      "arrang": 9170,
      "在那里": 9171,
      "stopped": 9172,
      "Ma": 9173,
      "Since": 9174,
      "catch": 9175,
      "iev": 9176,
      "kne": 9177,
      "leng": 9178,
      "mere": 9179,
      "ume": 9180,
      "。她": 9181,
      "他把": 9182,
      "女士": 9183,
      "观众": 9184,
      "encour": 9185,
      "stic": 9186,
      "ions,": 9187,
      "forces": 9188,
      "concl": 9189,
      "commer": 9190,
      "plat": 9191,
      "preci": 9192,
      "的时候，我": 9193,
      "lights": 9194,
      "head.": 9195,
      "famous": 9196,
      "certainly": 9197,
      "增长了": 9198,
      "religious": 9199,
      "Peter": 9200,
      "potential": 9201,
      "traditional": 9202,
      "situation": 9203,
      "associated": 9204,
      "Am": 9205,
      "BC": 9206,
      "Sat": 9207,
      "Wall": 9208,
      "batt": 9209,
      "mountain": 9210,
      "slip": 9211,
      "tight": 9212,
      "wit": 9213,
      "停止": 9214,
      "出来，": 9215,
      "博物": 9216,
      "州的": 9217,
      "形象": 9218,
      "明确": 9219,
      "有可能": 9220,
      "步骤": 9221,
      "每年": 9222,
      "的家": 9223,
      "的成": 9224,
      "自行": 9225,
      "试验": 9226,
      "读者": 9227,
      "部的": 9228,
      "ino": 9229,
      "repe": 9230,
      "enced": 9231,
      "as,": 9232,
      "iding": 9233,
      "ife": 9234,
      "bled": 9235,
      "ipul": 9236,
      "series": 9237,
      "poll": 9238,
      "hand,": 9239,
      "ification": 9240,
      "regular": 9241,
      "borne": 9242,
      "campaign": 9243,
      "filled": 9244,
      "spoke": 9245,
      "measure": 9246,
      "believed": 9247,
      "DIY": 9248,
      "Henry": 9249,
      "8,": 9250,
      "James": 9251,
      "ai": 9252,
      "fan": 9253,
      "fell": 9254,
      "kin": 9255,
      "mak": 9256,
      "ubl": 9257,
      "上一": 9258,
      "不起": 9259,
      "不错": 9260,
      "十字": 9261,
      "带来的": 9262,
      "德·": 9263,
      "殖民": 9264,
      "物的": 9265,
      "给我": 9266,
      "遇到": 9267,
      "道德": 9268,
      "里克": 9269,
      "饮食": 9270,
      "assu": 9271,
      "bell": 9272,
      "acid": 9273,
      "amb": 9274,
      "river": 9275,
      "applic": 9276,
      "shar": 9277,
      "Church": 9278,
      "assist": 9279,
      "2000": 9280,
      "apparent": 9281,
      "carried": 9282,
      "commit": 9283,
      "production": 9284,
      "1960": 9285,
      "industry": 9286,
      "scientific": 9287,
      "leaving": 9288,
      "patients": 9289,
      "4,": 9290,
      "Air": 9291,
      "wise": 9292,
      "一致": 9293,
      "主教": 9294,
      "书中": 9295,
      "假设": 9296,
      "出来的": 9297,
      "和平": 9298,
      "夹克": 9299,
      "姆斯": 9300,
      "子上": 9301,
      "对他": 9302,
      "帐篷": 9303,
      "我是": 9304,
      "日常": 9305,
      "民族": 9306,
      "班牙": 9307,
      "的政治": 9308,
      "西班牙": 9309,
      "规定": 9310,
      "让我们": 9311,
      "过了": 9312,
      "那是": 9313,
      "ent.": 9314,
      "there.": 9315,
      "conflict": 9316,
      "weak": 9317,
      "understood": 9318,
      "ictor": 9319,
      "generally": 9320,
      "followed": 9321,
      "increasingly": 9322,
      "eventually": 9323,
      "concern": 9324,
      "climate": 9325,
      "-year-old": 9326,
      "improve": 9327,
      "Smith": 9328,
      "\"No": 9329,
      "IP": 9330,
      "Pow": 9331,
      "Wind": 9332,
      "cil": 9333,
      "hit": 9334,
      "sand": 9335,
      "。我": 9336,
      "乔治": 9337,
      "国王": 9338,
      "墨西": 9339,
      "孤独": 9340,
      "学会": 9341,
      "客户": 9342,
      "小心": 9343,
      "数量": 9344,
      "正义": 9345,
      "状况": 9346,
      "的国家": 9347,
      "逻辑": 9348,
      "anch": 9349,
      "recomm": 9350,
      "vey": 9351,
      "whatever": 9352,
      "track": 9353,
      "performan": 9354,
      "mention": 9355,
      "erson": 9356,
      "events": 9357,
      "serve": 9358,
      "knows": 9359,
      "airport": 9360,
      "wants": 9361,
      "occup": 9362,
      "There's": 9363,
      "capac": 9364,
      "transl": 9365,
      "continue": 9366,
      "respond": 9367,
      "wait": 9368,
      "statement": 9369,
      "parent": 9370,
      "India": 9371,
      "received": 9372,
      "spirit": 9373,
      "source": 9374,
      "ordinary": 9375,
      "hospital": 9376,
      "墨西哥": 9377,
      "-up": 9378,
      "Im": 9379,
      "Qu": 9380,
      "cand": 9381,
      "gare": 9382,
      "park": 9383,
      "ses": 9384,
      "四个": 9385,
      "在这个": 9386,
      "混合": 9387,
      "特征": 9388,
      "绝对": 9389,
      "聪明": 9390,
      "评估": 9391,
      "说法": 9392,
      "轻松": 9393,
      "th.": 9394,
      "apt": 9395,
      "ant,": 9396,
      "this,": 9397,
      "Ital": 9398,
      "cry": 9399,
      "但是，": 9400,
      "systems": 9401,
      "placed": 9402,
      "places": 9403,
      "ness,": 9404,
      "meeting": 9405,
      "involved": 9406,
      "original": 9407,
      "7,": 9408,
      "8.": 9409,
      "Min": 9410,
      "Over": 9411,
      "Pal": 9412,
      "Put": 9413,
      "Sim": 9414,
      "dry": 9415,
      "ju": 9416,
      "下午": 9417,
      "下来，": 9418,
      "了我": 9419,
      "你会": 9420,
      "倾向": 9421,
      "农业": 9422,
      "几年": 9423,
      "图书": 9424,
      "图像": 9425,
      "地的": 9426,
      "小组": 9427,
      "平衡": 9428,
      "有个": 9429,
      "等待": 9430,
      "见到": 9431,
      "还要": 9432,
      "通气": 9433,
      "降低": 9434,
      "ina": 9435,
      "ato": 9436,
      "atom": 9437,
      "sem": 9438,
      "section": 9439,
      "bear": 9440,
      "lose": 9441,
      "formation": 9442,
      "party": 9443,
      "contact": 9444,
      "son,": 9445,
      "corpor": 9446,
      "long-": 9447,
      "well.": 9448,
      "fix": 9449,
      "fortun": 9450,
      "groups": 9451,
      "maintain": 9452,
      "reached": 9453,
      "Harry": 9454,
      "stock": 9455,
      "bowl": 9456,
      "Travelport": 9457,
      "\"It's": 9458,
      "35": 9459,
      "Cong": 9460,
      "Ev": 9461,
      "Good": 9462,
      "Hol": 9463,
      "cing": 9464,
      "vic": 9465,
      "交易": 9466,
      "和他的": 9467,
      "感。": 9468,
      "旅游": 9469,
      "时刻": 9470,
      "有所": 9471,
      "点，": 9472,
      "犹太": 9473,
      "盯着": 9474,
      "移民": 9475,
      "穿越": 9476,
      "补充": 9477,
      "规则": 9478,
      "追求": 9479,
      "concent": 9480,
      "White": 9481,
      "syn": 9482,
      "afterno": 9483,
      "Web": 9484,
      "too.": 9485,
      "father,": 9486,
      "capt": 9487,
      "charge": 9488,
      "covered": 9489,
      "face.": 9490,
      "moral": 9491,
      "watched": 9492,
      "issues": 9493,
      "message": 9494,
      "gradu": 9495,
      "daily": 9496,
      "camer": 9497,
      "execut": 9498,
      "demonstr": 9499,
      "同性恋": 9500,
      "Pat": 9501,
      "gam": 9502,
      "hang": 9503,
      "mut": 9504,
      "sight": 9505,
      "tch": 9506,
      "task": 9507,
      "了他的": 9508,
      "出去": 9509,
      "因而": 9510,
      "外的": 9511,
      "按照": 9512,
      "斯科": 9513,
      "焦虑": 9514,
      "玻璃": 9515,
      "著作": 9516,
      "states": 9517,
      "ions.": 9518,
      "construct": 9519,
      "trou": 9520,
      "resour": 9521,
      "ive,": 9522,
      "，他在": 9523,
      "什么。": 9524,
      "berg": 9525,
      "的人们": 9526,
      "ty-": 9527,
      "calls": 9528,
      "1990": 9529,
      "gives": 9530,
      "telling": 9531,
      "因此，": 9532,
      "milk": 9533,
      "drive": 9534,
      "girls": 9535,
      "problems": 9536,
      "memory": 9537,
      "年轻人": 9538,
      "watching": 9539,
      "作用。": 9540,
      "quality": 9541,
      "奥运会": 9542,
      "\"I'm": 9543,
      "9,": 9544,
      "Dan": 9545,
      "fare": 9546,
      "例子": 9547,
      "助于": 9548,
      "居民": 9549,
      "帝国": 9550,
      "开了": 9551,
      "彻底": 9552,
      "意见": 9553,
      "是对": 9554,
      "更为": 9555,
      "标志": 9556,
      "的不": 9557,
      "移动": 9558,
      "面临": 9559,
      "thus": 9560,
      "rep": 9561,
      "staff": 9562,
      "iling": 9563,
      "ide.": 9564,
      "onek": 9565,
      "wealth": 9566,
      "manipul": 9567,
      "Instead": 9568,
      "aught": 9569,
      "strict": 9570,
      "people.": 9571,
      "despite": 9572,
      "remained": 9573,
      "largest": 9574,
      "gotten": 9575,
      "steps": 9576,
      "Pronek": 9577,
      "home,": 9578,
      "sugar": 9579,
      "critical": 9580,
      "ness.": 9581,
      "activities": 9582,
      "exercise": 9583,
      "revenue": 9584,
      "博物馆": 9585,
      "\"the": 9586,
      "Dep": 9587,
      "Islam": 9588,
      "La": 9589,
      "Mom": 9590,
      "Park": 9591,
      "e-": 9592,
      "labor": 9593,
      "vant": 9594,
      "ves,": 9595,
      "分离": 9596,
      "前的": 9597,
      "寻求": 9598,
      "抓住": 9599,
      "斯蒂": 9600,
      "沿着": 9601,
      "的主": 9602,
      "袭击": 9603,
      "讲述": 9604,
      "贝尔": 9605,
      "阿拉": 9606,
      "黑暗": 9607,
      "assum": 9608,
      "season": 9609,
      "impress": 9610,
      "liber": 9611,
      "load": 9612,
      "ements": 9613,
      "weather": 9614,
      "reser": 9615,
      "atest": 9616,
      "safe": 9617,
      "没有人": 9618,
      "y,\"": 9619,
      "es.\"": 9620,
      "Ann": 9621,
      "ism.": 9622,
      "paint": 9623,
      "prior": 9624,
      "stretch": 9625,
      "named": 9626,
      "获得了": 9627,
      "cultural": 9628,
      "2008年": 9629,
      "Internet": 9630,
      "industrial": 9631,
      "established": 9632,
      "蛋白质": 9633,
      "contrast": 9634,
      "-based": 9635,
      "1）": 9636,
      "6,": 9637,
      "Ken": 9638,
      "ON": 9639,
      "eper": 9640,
      "gather": 9641,
      "rub": 9642,
      "zy": 9643,
      "不用": 9644,
      "丽莎": 9645,
      "也没": 9646,
      "伊拉克": 9647,
      "充分": 9648,
      "取代": 9649,
      "宣布": 9650,
      "感受": 9651,
      "数学": 9652,
      "是不": 9653,
      "的书": 9654,
      "的确": 9655,
      "的重要": 9656,
      "糟糕": 9657,
      "表演": 9658,
      "资金": 9659,
      "身边": 9660,
      "连续": 9661,
      "选举": 9662,
      "stone": 9663,
      "aging": 9664,
      "shad": 9665,
      "usi": 9666,
      "saf": 9667,
      "centur": 9668,
      "count": 9669,
      "这样做": 9670,
      "smell": 9671,
      "breath": 9672,
      "designed": 9673,
      "electric": 9674,
      "pull": 9675,
      "States,": 9676,
      "arrived": 9677,
      "behavior": 9678,
      "document": 9679,
      "1/": 9680,
      "Cap": 9681,
      "OR": 9682,
      "cat": 9683,
      "pir": 9684,
      "winter": 9685,
      "史密": 9686,
      "投票": 9687,
      "污染": 9688,
      "的女": 9689,
      "的高": 9690,
      "罗伯": 9691,
      "长时间": 9692,
      "阳光": 9693,
      "review": 9694,
      "acqu": 9695,
      "emb": 9696,
      "frag": 9697,
      "expl": 9698,
      "note": 9699,
      "190": 9700,
      "nowled": 9701,
      "bling": 9702,
      "achiev": 9703,
      "greatest": 9704,
      "turns": 9705,
      "世界的": 9706,
      "认为，": 9707,
      "进行了": 9708,
      "Americans": 9709,
      "成为了": 9710,
      "supposed": 9711,
      "border": 9712,
      "night,": 9713,
      "leader": 9714,
      "graphy": 9715,
      "community": 9716,
      "population": 9717,
      "例如，": 9718,
      "conditions": 9719,
      "focus": 9720,
      "danger": 9721,
      "伊斯兰": 9722,
      "(the": 9723,
      "48": 9724,
      "Bur": 9725,
      "El": 9726,
      "Mac": 9727,
      "Sen": 9728,
      "cum": 9729,
      "tit": 9730,
      "。在": 9731,
      "不太": 9732,
      "分布": 9733,
      "北京": 9734,
      "及其": 9735,
      "后面": 9736,
      "多年": 9737,
      "夫人": 9738,
      "尼尔": 9739,
      "布朗": 9740,
      "武器": 9741,
      "每次": 9742,
      "的外": 9743,
      "的水": 9744,
      "胜利": 9745,
      "谈论": 9746,
      "酒吧": 9747,
      "inno": 9748,
      "aries": 9749,
      "aspect": 9750,
      "be.": 9751,
      "rig": 9752,
      "istics": 9753,
      "essential": 9754,
      "do.": 9755,
      "creating": 9756,
      "work,": 9757,
      "prevent": 9758,
      "speed": 9759,
      "back,": 9760,
      "down,": 9761,
      "insist": 9762,
      "重要。": 9763,
      "father's": 9764,
      "high-": 9765,
      "mother's": 9766,
      "playing": 9767,
      "developing": 9768,
      "laws": 9769,
      "13.": 9770,
      "Colle": 9771,
      "connection": 9772,
      "animal": 9773,
      "Bet": 9774,
      "O'": 9775,
      "Rich": 9776,
      "bio": 9777,
      "eating": 9778,
      "ms": 9779,
      "ninet": 9780,
      "py": 9781,
      "ry.": 9782,
      "一件": 9783,
      "一份": 9784,
      "中央": 9785,
      "体。": 9786,
      "你在": 9787,
      "在的": 9788,
      "就要": 9789,
      "承诺": 9790,
      "探测": 9791,
      "本质": 9792,
      "模型": 9793,
      "爆发": 9794,
      "留下": 9795,
      "破坏": 9796,
      "绘画": 9797,
      "美丽": 9798,
      "莎士": 9799,
      "转基因": 9800,
      "重复": 9801,
      "阿尔": 9802,
      "面包": 9803,
      "预订": 9804,
      "，说": 9805,
      "inj": 9806,
      "inte": 9807,
      "ises": 9808,
      "adul": 9809,
      "sus": 9810,
      "ters": 9811,
      "constant": 9812,
      "，但我": 9813,
      "estim": 9814,
      "，那些": 9815,
      "guy": 9816,
      "difference": 9817,
      "部分。": 9818,
      "一直在": 9819,
      "legal": 9820,
      "basis": 9821,
      "事实上": 9822,
      "attacks": 9823,
      "products": 9824,
      "intellect": 9825,
      "scholar": 9826,
      "Buddha": 9827,
      "length": 9828,
      "Dr.": 9829,
      "Each": 9830,
      "eenth": 9831,
      "farm": 9832,
      "lan": 9833,
      "rom": 9834,
      "tick": 9835,
      "一项": 9836,
      "不停": 9837,
      "关心": 9838,
      "出现在": 9839,
      "国会": 9840,
      "夫妇": 9841,
      "干净": 9842,
      "当他": 9843,
      "收集": 9844,
      "更好的": 9845,
      "热情": 9846,
      "的结果": 9847,
      "看法": 9848,
      "神秘": 9849,
      "紧张": 9850,
      "细节": 9851,
      "联邦": 9852,
      "铁路": 9853,
      "becomes": 9854,
      "ots": 9855,
      "democr": 9856,
      "trust": 9857,
      "trail": 9858,
      "goal": 9859,
      "，但他": 9860,
      "ester": 9861,
      "obs": 9862,
      "tens": 9863,
      "问题的": 9864,
      "sett": 9865,
      "factors": 9866,
      "studies": 9867,
      "too,": 9868,
      "starting": 9869,
      "distr": 9870,
      "distance": 9871,
      "之前，": 9872,
      "operation": 9873,
      "几个月": 9874,
      "，即使": 9875,
      "religion": 9876,
      "Steve": 9877,
      "Maybe": 9878,
      "doubt": 9879,
      "自行车": 9880,
      "Bour": 9881,
      "Gre": 9882,
      "Miss": 9883,
      "Rob": 9884,
      "Year": 9885,
      "bare": 9886,
      "bought": 9887,
      "cab": 9888,
      "ease": 9889,
      "nice": 9890,
      "sick": 9891,
      "wel": 9892,
      "“他": 9893,
      "丰富": 9894,
      "位。": 9895,
      "公园": 9896,
      "具体": 9897,
      "士兵": 9898,
      "布什": 9899,
      "是不是": 9900,
      "每一个": 9901,
      "熟悉": 9902,
      "行业": 9903,
      "走向": 9904,
      "轻轻": 9905,
      "首次": 9906,
      "鼓励": 9907,
      "idel": 9908,
      "you've": 9909,
      "mole": 9910,
      "exter": 9911,
      "opin": 9912,
      "ist,": 9913,
      "end,": 9914,
      "aked": 9915,
      "没有任何": 9916,
      "cru": 9917,
      "了一种": 9918,
      "corn": 9919,
      "smart": 9920,
      "useum": 9921,
      "highly": 9922,
      "drug": 9923,
      "skill": 9924,
      "night.": 9925,
      "的话，": 9926,
      "memor": 9927,
      "holding": 9928,
      "troops": 9929,
      "sister": 9930,
      "heavy": 9931,
      "familiar": 9932,
      "baby": 9933,
      "micro": 9934,
      "ge.": 9935,
      "gree": 9936,
      "ij": 9937,
      "kespe": 9938,
      "lor": 9939,
      "tip": 9940,
      "ww": 9941,
      "为止": 9942,
      "仪式": 9943,
      "促进": 9944,
      "出口": 9945,
      "各个": 9946,
      "合适": 9947,
      "天气": 9948,
      "居住": 9949,
      "忘记": 9950,
      "惊讶": 9951,
      "旋转": 9952,
      "是他": 9953,
      "朝鲜": 9954,
      "演员": 9955,
      "理性": 9956,
      "生涯": 9957,
      "看，": 9958,
      "第四": 9959,
      "统计": 9960,
      "英里": 9961,
      "走了": 9962,
      "道，“": 9963,
      "间的": 9964,
      "，只": 9965,
      "an.": 9966,
      "ites": 9967,
      "advert": 9968,
      "consequ": 9969,
      "ulate": 9970,
      "wearing": 9971,
      "trick": 9972,
      "pool": 9973,
      "grown": 9974,
      "prise": 9975,
      "ishop": 9976,
      "aware": 9977,
      "remind": 9978,
      "一样的": 9979,
      "useful": 9980,
      "closed": 9981,
      "189": 9982,
      "dram": 9983,
      "produced": 9984,
      "发生了": 9985,
      "instance,": 9986,
      "house,": 9987,
      "情况下": 9988,
      "expensive": 9989,
      "产生的": 9990,
      "注意到": 9991,
      "methods": 9992,
      "types": 9993,
      "twenty-": 9994,
      "emporary": 9995,
      "Eliza": 9996,
      "Shakespe": 9997,
      "Aug": 9998,
      "Bill": 9999,
      "Che": 10000,
      "Love": 10001,
      "March": 10002,
      "base": 10003,
      "hill": 10004,
      "mur": 10005,
      "native": 10006,
      "rated": 10007,
      "ties": 10008,
      "wild": 10009,
      "》。": 10010,
      "一块": 10011,
      "利润": 10012,
      "化。": 10013,
      "原子": 10014,
      "她说": 10015,
      "差异": 10016,
      "性质": 10017,
      "想起": 10018,
      "欢迎": 10019,
      "温度": 10020,
      "白色": 10021,
      "的第一": 10022,
      "看了": 10023,
      "科技": 10024,
      "窗户": 10025,
      "联网": 10026,
      "诗歌": 10027,
      "话。": 10028,
      "适应": 10029,
      "那儿": 10030,
      "量。": 10031,
      "，则": 10032,
      "，只是": 10033,
      "ancient": 10034,
      "island": 10035,
      "lift": 10036,
      "mov": 10037,
      "neck": 10038,
      "pock": 10039,
      "Instit": 10040,
      "willing": 10041,
      "Though": 10042,
      "throw": 10043,
      "asking": 10044,
      "Ford": 10045,
      "Mrs.": 10046,
      "volume": 10047,
      "interested": 10048,
      "在这里": 10049,
      "特别是": 10050,
      "advant": 10051,
      "activity": 10052,
      "July": 10053,
      "management": 10054,
      "immediately": 10055,
      "temperature": 10056,
      "Shakespeare": 10057,
      "33": 10058,
      "D.": 10059,
      "ES": 10060,
      "GD": 10061,
      "Mart": 10062,
      "Sing": 10063,
      "X（": 10064,
      "wast": 10065,
      "中最": 10066,
      "信号": 10067,
      "变成了": 10068,
      "口音": 10069,
      "我和": 10070,
      "我对": 10071,
      "投入": 10072,
      "接近": 10073,
      "提升": 10074,
      "教堂": 10075,
      "是，": 10076,
      "更好": 10077,
      "病人": 10078,
      "祖父": 10079,
      "走到": 10080,
      "足以": 10081,
      "转向": 10082,
      "销售": 10083,
      "to-": 10084,
      "amount": 10085,
      "consu": 10086,
      "degree": 10087,
      "ke,": 10088,
      "aint": 10089,
      "raz": 10090,
      "strange": 10091,
      "via": 10092,
      "back.": 10093,
      "evening": 10094,
      "asked.": 10095,
      "values": 10096,
      "limit": 10097,
      "sites": 10098,
      "biggest": 10099,
      "cases": 10100,
      "同样的": 10101,
      "learning": 10102,
      "movement": 10103,
      "equip": 10104,
      "简单的": 10105,
      "slowly": 10106,
      "collection": 10107,
      "discovered": 10108,
      "comfortable": 10109,
      "Frank": 10110,
      "television": 10111,
      "craft": 10112,
      "earlier": 10113,
      "suddenly": 10114,
      "prepared": 10115,
      "莎士比亚": 10116,
      "\"T": 10117,
      "Amade": 10118,
      "CB": 10119,
      "J.": 10120,
      "Never": 10121,
      "Victor": 10122,
      "c.": 10123,
      "gi": 10124,
      "hun": 10125,
      "hone": 10126,
      "ue,": 10127,
      "“不": 10128,
      "》，": 10129,
      "传记": 10130,
      "保守": 10131,
      "共产": 10132,
      "决策": 10133,
      "区别": 10134,
      "可怕": 10135,
      "命令": 10136,
      "夏天": 10137,
      "大概": 10138,
      "审查": 10139,
      "尔德": 10140,
      "左右": 10141,
      "我会": 10142,
      "扮演": 10143,
      "提到": 10144,
      "是有": 10145,
      "智能": 10146,
      "有多": 10147,
      "着他": 10148,
      "花园": 10149,
      "药物": 10150,
      "西亚": 10151,
      "贡献": 10152,
      "走进": 10153,
      "金融": 10154,
      "黑色": 10155,
      "，通过": 10156,
      "，还是": 10157,
      "rew": 10158,
      "atives": 10159,
      "station": 10160,
      "lection": 10161,
      "sect": 10162,
      "chance": 10163,
      "terri": 10164,
      "here,": 10165,
      "depart": 10166,
      "degre": 10167,
      "ems": 10168,
      "feature": 10169,
      "doct": 10170,
      "ive.": 10171,
      "she's": 10172,
      "now.": 10173,
      "tware": 10174,
      "disci": 10175,
      "iction": 10176,
      "seeing": 10177,
      "mathem": 10178,
      "less,": 10179,
      "作为一个": 10180,
      "关系。": 10181,
      "school,": 10182,
      "words,": 10183,
      "Book": 10184,
      "software": 10185,
      "college": 10186,
      "environment": 10187,
      "Philip": 10188,
      "400": 10189,
      "Net": 10190,
      "aul": 10191,
      "fab": 10192,
      "fem": 10193,
      "m,": 10194,
      "“是": 10195,
      "争论": 10196,
      "互联网": 10197,
      "公民": 10198,
      "加坡": 10199,
      "发电": 10200,
      "在美国": 10201,
      "声。": 10202,
      "宪法": 10203,
      "巨大": 10204,
      "德拉": 10205,
      "我就": 10206,
      "手指": 10207,
      "教会": 10208,
      "文字": 10209,
      "最初": 10210,
      "此时": 10211,
      "毕业": 10212,
      "气。": 10213,
      "男性": 10214,
      "的经济": 10215,
      "福特": 10216,
      "简直": 10217,
      "维持": 10218,
      "背景": 10219,
      "脸上": 10220,
      "译者": 10221,
      "预测": 10222,
      "，被": 10223,
      "theor": 10224,
      "omb": 10225,
      "adm": 10226,
      "ries": 10227,
      "movi": 10228,
      "agon": 10229,
      "Their": 10230,
      "one-": 10231,
      "oppos": 10232,
      "cigare": 10233,
      "earch": 10234,
      "others.": 10235,
      "2015": 10236,
      "down.": 10237,
      "这一点": 10238,
      "影响。": 10239,
      "soldi": 10240,
      "fundam": 10241,
      "提供了": 10242,
      "是一位": 10243,
      "included": 10244,
      "Commun": 10245,
      "morning,": 10246,
      "radio": 10247,
      "technolog": 10248,
      "directly": 10249,
      "的事情。": 10250,
      "remains": 10251,
      "Japanese": 10252,
      "从来没有": 10253,
      "establish": 10254,
      "Roman": 10255,
      "negative": 10256,
      "fashion": 10257,
      "Windows": 10258,
      "Richard": 10259,
      "August": 10260,
      "6-": 10261,
      "7月": 10262,
      "Dis": 10263,
      "Hel": 10264,
      "High": 10265,
      "Jew": 10266,
      "Rad": 10267,
      "Tyl": 10268,
      "a-": 10269,
      "categ": 10270,
      "dome": 10271,
      "hon": 10272,
      "kiss": 10273,
      "wing": 10274,
      "yellow": 10275,
      "一旦": 10276,
      "上述": 10277,
      "体验": 10278,
      "佛陀": 10279,
      "保留": 10280,
      "假如": 10281,
      "内的": 10282,
      "凯特": 10283,
      "出于": 10284,
      "反映": 10285,
      "地，": 10286,
      "威廉": 10287,
      "巴黎": 10288,
      "平台": 10289,
      "感兴趣": 10290,
      "成长": 10291,
      "手。": 10292,
      "手段": 10293,
      "把他": 10294,
      "指南": 10295,
      "有时候": 10296,
      "欧文": 10297,
      "羽绒": 10298,
      "而不是": 10299,
      "还会": 10300,
      "采访": 10301,
      "，例如": 10302,
      "anx": 10303,
      "iles": 10304,
      "libr": 10305,
      "consum": 10306,
      "fruit": 10307,
      "anti-": 10308,
      "brush": 10309,
      "correct": 10310,
      "symp": 10311,
      "其他人": 10312,
      "它们的": 10313,
      "Soci": 10314,
      "thought,": 10315,
      "economy": 10316,
      "clearly": 10317,
      "variety": 10318,
      "walking": 10319,
      "第二天": 10320,
      "practice": 10321,
      "基督徒": 10322,
      "Brown": 10323,
      "程度上": 10324,
      "Power": 10325,
      "Elizabe": 10326,
      "(and": 10327,
      "Bob": 10328,
      "Dad": 10329,
      "Lang": 10330,
      "Mat": 10331,
      "Mal": 10332,
      "Que": 10333,
      "X(": 10334,
      "dish": 10335,
      "fellow": 10336,
      "pher": 10337,
      "zen": 10338,
      "刺激": 10339,
      "印象": 10340,
      "哥哥": 10341,
      "少年": 10342,
      "幸运": 10343,
      "得很": 10344,
      "成立": 10345,
      "推动": 10346,
      "核心": 10347,
      "欣赏": 10348,
      "翻译": 10349,
      "装饰": 10350,
      "robot": 10351,
      "exc": 10352,
      "prop": 10353,
      "feed": 10354,
      "other.": 10355,
      "，这一": 10356,
      "relations": 10357,
      "produce": 10358,
      "选择。": 10359,
      "offered": 10360,
      "apartment": 10361,
      "revolution": 10362,
      "Amadeus": 10363,
      "2)": 10364,
      "IC": 10365,
      "Ira": 10366,
      "Lis": 10367,
      "Mary": 10368,
      "PR": 10369,
      "Sar": 10370,
      "dim": 10371,
      "dust": 10372,
      "east": 10373,
      "fuck": 10374,
      "n,": 10375,
      "oth": 10376,
      "tren": 10377,
      "vast": 10378,
      "vide": 10379,
      "一场": 10380,
      "不了": 10381,
      "人士": 10382,
      "人群": 10383,
      "供应": 10384,
      "出一": 10385,
      "卫生": 10386,
      "埃及": 10387,
      "基金": 10388,
      "婚礼": 10389,
      "学术": 10390,
      "将其": 10391,
      "情绪": 10392,
      "戏剧": 10393,
      "成就": 10394,
      "改革": 10395,
      "新加坡": 10396,
      "机。": 10397,
      "的行为": 10398,
      "自从": 10399,
      "舒适": 10400,
      "色彩": 10401,
      "议院": 10402,
      "这项": 10403,
      "麻烦": 10404,
      "orm": 10405,
      "escap": 10406,
      "confer": 10407,
      "ante": 10408,
      "oursel": 10409,
      "do,": 10410,
      "19世纪": 10411,
      "earth": 10412,
      "compar": 10413,
      "center": 10414,
      "observ": 10415,
      "研究中心": 10416,
      "colon": 10417,
      "finish": 10418,
      "scen": 10419,
      "cheap": 10420,
      "ventil": 10421,
      "Art": 10422,
      "restaur": 10423,
      "response": 10424,
      "shoot": 10425,
      "的地方。": 10426,
      "electron": 10427,
      "layer": 10428,
      "bottom": 10429,
      "dinner": 10430,
      "opportunity": 10431,
      "neighborhood": 10432,
      "coffee": 10433,
      "Linux": 10434,
      "performance": 10435,
      "图书馆": 10436,
      "Iraq": 10437,
      "31": 10438,
      "Are": 10439,
      "Bishop": 10440,
      "Dick": 10441,
      "Make": 10442,
      "PE": 10443,
      "UN": 10444,
      "ggl": 10445,
      "iver": 10446,
      "lap": 10447,
      "spl": 10448,
      "他人": 10449,
      "伙伴": 10450,
      "会，": 10451,
      "分享": 10452,
      "制的": 10453,
      "动作": 10454,
      "劳动": 10455,
      "医疗": 10456,
      "叫做": 10457,
      "听起来": 10458,
      "和“": 10459,
      "地面": 10460,
      "天使": 10461,
      "对待": 10462,
      "尔斯": 10463,
      "引发": 10464,
      "我要": 10465,
      "时，她": 10466,
      "是很": 10467,
      "最大": 10468,
      "有很多": 10469,
      "步。": 10470,
      "物理": 10471,
      "类的": 10472,
      "至今": 10473,
      "蔬菜": 10474,
      "讨厌": 10475,
      "让她": 10476,
      "象征": 10477,
      "邻居": 10478,
      "，美国": 10479,
      "becoming": 10480,
      "academ": 10481,
      "ager": 10482,
      "shut": 10483,
      "quant": 10484,
      "man.": 10485,
      "actual": 10486,
      "price": 10487,
      "He'd": 10488,
      "over,": 10489,
      "cred": 10490,
      "complet": 10491,
      "brown": 10492,
      "partner": 10493,
      "mostly": 10494,
      "choice": 10495,
      "这一切": 10496,
      "艺术家": 10497,
      "organiz": 10498,
      "increasing": 10499,
      "describe": 10500,
      "recently": 10501,
      "side,": 10502,
      "tiny": 10503,
      "jacket": 10504,
      "Bank": 10505,
      "Before": 10506,
      "Mex": 10507,
      "d,": 10508,
      "ius": 10509,
      "ield": 10510,
      "lit": 10511,
      "m.": 10512,
      "nine": 10513,
      "ning.": 10514,
      "o.": 10515,
      "rat": 10516,
      "rang": 10517,
      "tur": 10518,
      "tail": 10519,
      "taught": 10520,
      "下来的": 10521,
      "乔纳": 10522,
      "仔细": 10523,
      "儿。": 10524,
      "全国": 10525,
      "前，": 10526,
      "合众": 10527,
      "商店": 10528,
      "在我们": 10529,
      "女王": 10530,
      "实在": 10531,
      "广播": 10532,
      "我觉得": 10533,
      "期望": 10534,
      "模拟": 10535,
      "段时间": 10536,
      "没什么": 10537,
      "泰勒": 10538,
      "用。": 10539,
      "男子": 10540,
      "睡觉": 10541,
      "私人": 10542,
      "给她": 10543,
      "者，": 10544,
      "英尺": 10545,
      "说过": 10546,
      "财富": 10547,
      "这部": 10548,
      "阿富": 10549,
      "thick": 10550,
      "accompl": 10551,
      "iday": 10552,
      "olf": 10553,
      "here.": 10554,
      "we're": 10555,
      "resol": 10556,
      "more,": 10557,
      "cess.": 10558,
      "version": 10559,
      "clothes": 10560,
      "，也是": 10561,
      "childhood": 10562,
      "eyes,": 10563,
      "父亲的": 10564,
      "Beij": 10565,
      "equal": 10566,
      "empty": 10567,
      "election": 10568,
      "pulled": 10569,
      "protein": 10570,
      "discuss": 10571,
      "Asia": 10572,
      "relevant": 10573,
      "picked": 10574,
      "reduce": 10575,
      "target": 10576,
      "Caroline": 10577,
      "favorite": 10578,
      "integr": 10579,
      "intellectual": 10580,
      "Mexic": 10581,
      "5-": 10582,
      "Jack": 10583,
      "Mil": 10584,
      "dad": 10585,
      "race": 10586,
      "不多": 10587,
      "不知": 10588,
      "严格": 10589,
      "也在": 10590,
      "从事": 10591,
      "伟大的": 10592,
      "几天": 10593,
      "固定": 10594,
      "大使": 10595,
      "大陆": 10596,
      "完整": 10597,
      "尔（": 10598,
      "开放": 10599,
      "意的": 10600,
      "担任": 10601,
      "探索": 10602,
      "放到": 10603,
      "来源": 10604,
      "模仿": 10605,
      "正式": 10606,
      "水。": 10607,
      "海军": 10608,
      "的光": 10609,
      "的发": 10610,
      "的能力": 10611,
      "监狱": 10612,
      "看到了": 10613,
      "论文": 10614,
      "路。": 10615,
      "还没": 10616,
      "黑人": 10617,
      "inch": 10618,
      "ices.": 10619,
      "belong": 10620,
      "web": 10621,
      "progress": 10622,
      "worry": 10623,
      "myster": 10624,
      "Inde": 10625,
      "，我就": 10626,
      "ivity": 10627,
      "blank": 10628,
      "assess": 10629,
      "Any": 10630,
      "precise": 10631,
      "lled": 10632,
      "这个问题": 10633,
      "研究的": 10634,
      "know,": 10635,
      "choose": 10636,
      "guard": 10637,
      "well,": 10638,
      "medical": 10639,
      "chest": 10640,
      "solute": 10641,
      "includes": 10642,
      "keeping": 10643,
      "fourth": 10644,
      "severe": 10645,
      "France": 10646,
      "determine": 10647,
      "unique": 10648,
      "companies": 10649,
      "Look": 10650,
      "affected": 10651,
      "-and-": 10652,
      "Government": 10653,
      "阿富汗": 10654,
      ");": 10655,
      "300": 10656,
      "School": 10657,
      "UB": 10658,
      "Where": 10659,
      "athan": 10660,
      "fal": 10661,
      "fine": 10662,
      "kick": 10663,
      "sold": 10664,
      "不见": 10665,
      "实践": 10666,
      "带有": 10667,
      "感情": 10668,
      "我很": 10669,
      "援助": 10670,
      "改善": 10671,
      "斯顿": 10672,
      "斯（": 10673,
      "构成": 10674,
      "沉默": 10675,
      "的世界": 10676,
      "的孩子": 10677,
      "的发展": 10678,
      "记住": 10679,
      "长大": 10680,
      "除非": 10681,
      "障碍": 10682,
      "）；": 10683,
      "select": 10684,
      "entered": 10685,
      "adjust": 10686,
      "forget": 10687,
      "ette": 10688,
      "university": 10689,
      "lock": 10690,
      "complic": 10691,
      "shif": 10692,
      "shared": 10693,
      "tray": 10694,
      "features": 10695,
      "tee": 10696,
      "eval": 10697,
      "izes": 10698,
      "Those": 10699,
      "的人，": 10700,
      "forest": 10701,
      "工作，": 10702,
      "carbon": 10703,
      "guess": 10704,
      "setting": 10705,
      "，也许": 10706,
      "不同。": 10707,
      "arms": 10708,
      "studied": 10709,
      "politics": 10710,
      "volt": 10711,
      "expand": 10712,
      "children,": 10713,
      "Afgh": 10714,
      "reasons": 10715,
      "地区的": 10716,
      "operations": 10717,
      "purpose": 10718,
      "effects": 10719,
      "individuals": 10720,
      "严重的": 10721,
      "defined": 10722,
      "entirely": 10723,
      "families": 10724,
      "beside": 10725,
      "Goog": 10726,
      "institution": 10727,
      "Figure": 10728,
      "rarely": 10729,
      "allel": 10730,
      "capacity": 10731,
      "Tylor": 10732,
      "\"But": 10733,
      "\"And": 10734,
      "-1": 10735,
      "Su": 10736,
      "cli": 10737,
      "iation": 10738,
      "pa": 10739,
      "pill": 10740,
      "tree": 10741,
      "一开始": 10742,
      "他会": 10743,
      "做到": 10744,
      "做法": 10745,
      "内部": 10746,
      "卧室": 10747,
      "合理": 10748,
      "呈现": 10749,
      "呢？”": 10750,
      "国防": 10751,
      "垃圾": 10752,
      "塑料": 10753,
      "声明": 10754,
      "小孩": 10755,
      "小小的": 10756,
      "得到了": 10757,
      "性格": 10758,
      "愤怒": 10759,
      "报》": 10760,
      "抱怨": 10761,
      "探险": 10762,
      "支付": 10763,
      "日子": 10764,
      "暗示": 10765,
      "深入": 10766,
      "渐渐": 10767,
      "灵魂": 10768,
[...]
